{
  "version": "1.0",
  "truncation": null,
  "padding": null,
  "added_tokens": [
    {
      "id": 0,
      "content": "[PAD]",
      "single_word": false,
      "lstrip": false,
      "rstrip": false,
      "normalized": false,
      "special": true
    },
    {
      "id": 1,
      "content": "[UNK]",
      "single_word": false,
      "lstrip": false,
      "rstrip": false,
      "normalized": false,
      "special": true
    },
    {
      "id": 2,
      "content": "[CLS]",
      "single_word": false,
      "lstrip": false,
      "rstrip": false,
      "normalized": false,
      "special": true
    },
    {
      "id": 3,
      "content": "[SEP]",
      "single_word": false,
      "lstrip": false,
      "rstrip": false,
      "normalized": false,
      "special": true
    },
    {
      "id": 4,
      "content": "[MASK]",
      "single_word": false,
      "lstrip": false,
      "rstrip": false,
      "normalized": false,
      "special": true
    }
  ],
  "normalizer": {
    "type": "BertNormalizer",
    "clean_text": true,
    "handle_chinese_chars": true,
    "strip_accents": null,
    "lowercase": false
  },
  "pre_tokenizer": {
    "type": "BertPreTokenizer"
  },
  "post_processor": {
    "type": "TemplateProcessing",
    "single": [
      {
        "SpecialToken": {
          "id": "[CLS]",
          "type_id": 0
        }
      },
      {
        "Sequence": {
          "id": "A",
          "type_id": 0
        }
      },
      {
        "SpecialToken": {
          "id": "[SEP]",
          "type_id": 0
        }
      }
    ],
    "pair": [
      {
        "SpecialToken": {
          "id": "[CLS]",
          "type_id": 0
        }
      },
      {
        "Sequence": {
          "id": "A",
          "type_id": 0
        }
      },
      {
        "SpecialToken": {
          "id": "[SEP]",
          "type_id": 0
        }
      },
      {
        "Sequence": {
          "id": "B",
          "type_id": 1
        }
      },
      {
        "SpecialToken": {
          "id": "[SEP]",
          "type_id": 1
        }
      }
    ],
    "special_tokens": {
      "[CLS]": {
        "id": "[CLS]",
        "ids": [
          2
        ],
        "tokens": [
          "[CLS]"
        ]
      },
      "[SEP]": {
        "id": "[SEP]",
        "ids": [
          3
        ],
        "tokens": [
          "[SEP]"
        ]
      }
    }
  },
  "decoder": {
    "type": "WordPiece",
    "prefix": "##",
    "cleanup": true
  },
  "model": {
    "type": "WordPiece",
    "unk_token": "[UNK]",
    "continuing_subword_prefix": "##",
    "max_input_chars_per_word": 100,
    "vocab": {
      "[PAD]": 0,
      "[UNK]": 1,
      "[CLS]": 2,
      "[SEP]": 3,
      "[MASK]": 4,
      "!": 5,
      "%": 6,
      "(": 7,
      ")": 8,
      "*": 9,
      ",": 10,
      ".": 11,
      "/": 12,
      "0": 13,
      "1": 14,
      "2": 15,
      "3": 16,
      "4": 17,
      "5": 18,
      "6": 19,
      "7": 20,
      "8": 21,
      "9": 22,
      "?": 23,
      "A": 24,
      "B": 25,
      "C": 26,
      "D": 27,
      "E": 28,
      "F": 29,
      "G": 30,
      "H": 31,
      "I": 32,
      "J": 33,
      "K": 34,
      "L": 35,
      "M": 36,
      "N": 37,
      "O": 38,
      "P": 39,
      "R": 40,
      "S": 41,
      "T": 42,
      "U": 43,
      "V": 44,
      "W": 45,
      "X": 46,
      "Y": 47,
      "a": 48,
      "b": 49,
      "c": 50,
      "d": 51,
      "e": 52,
      "f": 53,
      "g": 54,
      "h": 55,
      "i": 56,
      "j": 57,
      "k": 58,
      "l": 59,
      "m": 60,
      "n": 61,
      "o": 62,
      "p": 63,
      "r": 64,
      "s": 65,
      "t": 66,
      "u": 67,
      "v": 68,
      "w": 69,
      "x": 70,
      "y": 71,
      "~": 72,
      "·": 73,
      "∼": 74,
      "ㄱ": 75,
      "ㄴ": 76,
      "ㄷ": 77,
      "ㄹ": 78,
      "ㅂ": 79,
      "ㅅ": 80,
      "ㅇ": 81,
      "ㅈ": 82,
      "ㅉ": 83,
      "ㅋ": 84,
      "ㅎ": 85,
      "ㅜ": 86,
      "ㅠ": 87,
      "ㅡ": 88,
      "ㆍ": 89,
      "가": 90,
      "각": 91,
      "간": 92,
      "갈": 93,
      "감": 94,
      "갑": 95,
      "값": 96,
      "갓": 97,
      "갔": 98,
      "강": 99,
      "갖": 100,
      "같": 101,
      "개": 102,
      "객": 103,
      "갱": 104,
      "걍": 105,
      "거": 106,
      "걱": 107,
      "건": 108,
      "걷": 109,
      "걸": 110,
      "검": 111,
      "겁": 112,
      "것": 113,
      "게": 114,
      "겐": 115,
      "겜": 116,
      "겟": 117,
      "겠": 118,
      "겨": 119,
      "격": 120,
      "겪": 121,
      "견": 122,
      "결": 123,
      "겸": 124,
      "겹": 125,
      "겼": 126,
      "경": 127,
      "계": 128,
      "고": 129,
      "곡": 130,
      "곤": 131,
      "곧": 132,
      "골": 133,
      "곳": 134,
      "공": 135,
      "과": 136,
      "관": 137,
      "광": 138,
      "괜": 139,
      "괴": 140,
      "교": 141,
      "굥": 142,
      "구": 143,
      "국": 144,
      "군": 145,
      "굳": 146,
      "굴": 147,
      "굿": 148,
      "궁": 149,
      "권": 150,
      "귀": 151,
      "규": 152,
      "균": 153,
      "그": 154,
      "극": 155,
      "근": 156,
      "글": 157,
      "금": 158,
      "급": 159,
      "긋": 160,
      "긍": 161,
      "기": 162,
      "긴": 163,
      "길": 164,
      "김": 165,
      "깊": 166,
      "까": 167,
      "깐": 168,
      "깔": 169,
      "깜": 170,
      "깝": 171,
      "깡": 172,
      "깨": 173,
      "꺼": 174,
      "껄": 175,
      "껏": 176,
      "께": 177,
      "껴": 178,
      "꼬": 179,
      "꼭": 180,
      "꼴": 181,
      "꼼": 182,
      "꼽": 183,
      "꽃": 184,
      "꾸": 185,
      "꾼": 186,
      "꿀": 187,
      "꿈": 188,
      "꿔": 189,
      "뀌": 190,
      "끄": 191,
      "끈": 192,
      "끊": 193,
      "끌": 194,
      "끔": 195,
      "끗": 196,
      "끝": 197,
      "끼": 198,
      "낀": 199,
      "낄": 200,
      "낌": 201,
      "나": 202,
      "낙": 203,
      "난": 204,
      "날": 205,
      "남": 206,
      "납": 207,
      "낫": 208,
      "났": 209,
      "낭": 210,
      "낮": 211,
      "낳": 212,
      "내": 213,
      "낸": 214,
      "낼": 215,
      "냄": 216,
      "냈": 217,
      "냉": 218,
      "냐": 219,
      "냥": 220,
      "너": 221,
      "넌": 222,
      "널": 223,
      "넓": 224,
      "넘": 225,
      "넣": 226,
      "네": 227,
      "넷": 228,
      "녀": 229,
      "녁": 230,
      "년": 231,
      "념": 232,
      "녕": 233,
      "노": 234,
      "녹": 235,
      "논": 236,
      "놀": 237,
      "놈": 238,
      "농": 239,
      "높": 240,
      "놓": 241,
      "놔": 242,
      "놨": 243,
      "뇌": 244,
      "누": 245,
      "눈": 246,
      "뉴": 247,
      "느": 248,
      "는": 249,
      "늘": 250,
      "늙": 251,
      "능": 252,
      "늦": 253,
      "니": 254,
      "닉": 255,
      "닌": 256,
      "닐": 257,
      "님": 258,
      "닙": 259,
      "닝": 260,
      "다": 261,
      "닥": 262,
      "단": 263,
      "닫": 264,
      "달": 265,
      "닭": 266,
      "담": 267,
      "답": 268,
      "당": 269,
      "대": 270,
      "댄": 271,
      "댓": 272,
      "더": 273,
      "덕": 274,
      "던": 275,
      "덜": 276,
      "덤": 277,
      "덧": 278,
      "덩": 279,
      "덮": 280,
      "데": 281,
      "델": 282,
      "도": 283,
      "독": 284,
      "돈": 285,
      "돋": 286,
      "돌": 287,
      "돕": 288,
      "동": 289,
      "돼": 290,
      "됐": 291,
      "되": 292,
      "된": 293,
      "될": 294,
      "됨": 295,
      "됩": 296,
      "두": 297,
      "둑": 298,
      "둔": 299,
      "둘": 300,
      "둥": 301,
      "둬": 302,
      "뒤": 303,
      "뒷": 304,
      "드": 305,
      "득": 306,
      "든": 307,
      "듣": 308,
      "들": 309,
      "듬": 310,
      "듭": 311,
      "듯": 312,
      "등": 313,
      "디": 314,
      "딜": 315,
      "딩": 316,
      "따": 317,
      "딱": 318,
      "딴": 319,
      "딸": 320,
      "땅": 321,
      "때": 322,
      "땐": 323,
      "땜": 324,
      "떠": 325,
      "떡": 326,
      "떤": 327,
      "떨": 328,
      "떻": 329,
      "떼": 330,
      "또": 331,
      "똑": 332,
      "똘": 333,
      "똥": 334,
      "뚜": 335,
      "뚱": 336,
      "뛰": 337,
      "뜨": 338,
      "뜯": 339,
      "뜻": 340,
      "라": 341,
      "락": 342,
      "란": 343,
      "랄": 344,
      "람": 345,
      "랍": 346,
      "랐": 347,
      "랑": 348,
      "래": 349,
      "랙": 350,
      "랜": 351,
      "램": 352,
      "랫": 353,
      "랬": 354,
      "략": 355,
      "량": 356,
      "러": 357,
      "럭": 358,
      "런": 359,
      "럴": 360,
      "럼": 361,
      "럽": 362,
      "렀": 363,
      "렁": 364,
      "렇": 365,
      "레": 366,
      "렉": 367,
      "렌": 368,
      "려": 369,
      "력": 370,
      "련": 371,
      "렬": 372,
      "렴": 373,
      "렵": 374,
      "렸": 375,
      "령": 376,
      "례": 377,
      "로": 378,
      "록": 379,
      "론": 380,
      "롤": 381,
      "롭": 382,
      "롯": 383,
      "롱": 384,
      "뢰": 385,
      "료": 386,
      "룡": 387,
      "루": 388,
      "룸": 389,
      "룹": 390,
      "뤄": 391,
      "류": 392,
      "륙": 393,
      "륜": 394,
      "률": 395,
      "륭": 396,
      "르": 397,
      "른": 398,
      "를": 399,
      "름": 400,
      "릇": 401,
      "릉": 402,
      "리": 403,
      "릭": 404,
      "린": 405,
      "릴": 406,
      "림": 407,
      "립": 408,
      "릿": 409,
      "링": 410,
      "마": 411,
      "막": 412,
      "만": 413,
      "많": 414,
      "말": 415,
      "맘": 416,
      "맙": 417,
      "맛": 418,
      "망": 419,
      "맞": 420,
      "맡": 421,
      "매": 422,
      "맥": 423,
      "맨": 424,
      "맹": 425,
      "머": 426,
      "먹": 427,
      "먼": 428,
      "멀": 429,
      "멈": 430,
      "멋": 431,
      "멍": 432,
      "메": 433,
      "멘": 434,
      "멤": 435,
      "며": 436,
      "면": 437,
      "멸": 438,
      "명": 439,
      "몇": 440,
      "모": 441,
      "목": 442,
      "몬": 443,
      "몰": 444,
      "몸": 445,
      "못": 446,
      "몽": 447,
      "묘": 448,
      "무": 449,
      "묵": 450,
      "문": 451,
      "묻": 452,
      "물": 453,
      "뭉": 454,
      "뭐": 455,
      "뭔": 456,
      "뭘": 457,
      "뮤": 458,
      "므": 459,
      "미": 460,
      "민": 461,
      "믿": 462,
      "밀": 463,
      "밌": 464,
      "밍": 465,
      "및": 466,
      "밑": 467,
      "바": 468,
      "박": 469,
      "밖": 470,
      "반": 471,
      "받": 472,
      "발": 473,
      "밝": 474,
      "밤": 475,
      "밥": 476,
      "방": 477,
      "배": 478,
      "백": 479,
      "뱅": 480,
      "버": 481,
      "번": 482,
      "벌": 483,
      "범": 484,
      "법": 485,
      "벗": 486,
      "베": 487,
      "벤": 488,
      "벨": 489,
      "벼": 490,
      "벽": 491,
      "변": 492,
      "별": 493,
      "병": 494,
      "보": 495,
      "복": 496,
      "본": 497,
      "볼": 498,
      "봄": 499,
      "봅": 500,
      "봇": 501,
      "봉": 502,
      "봐": 503,
      "봤": 504,
      "부": 505,
      "북": 506,
      "분": 507,
      "불": 508,
      "붕": 509,
      "붙": 510,
      "뷰": 511,
      "브": 512,
      "블": 513,
      "비": 514,
      "빅": 515,
      "빈": 516,
      "빌": 517,
      "빙": 518,
      "빚": 519,
      "빛": 520,
      "빠": 521,
      "빡": 522,
      "빨": 523,
      "빵": 524,
      "빼": 525,
      "뻔": 526,
      "뽑": 527,
      "뽕": 528,
      "뿌": 529,
      "뿐": 530,
      "쁘": 531,
      "쁜": 532,
      "사": 533,
      "삭": 534,
      "산": 535,
      "살": 536,
      "삶": 537,
      "삼": 538,
      "샀": 539,
      "상": 540,
      "새": 541,
      "색": 542,
      "생": 543,
      "샤": 544,
      "서": 545,
      "석": 546,
      "선": 547,
      "설": 548,
      "섬": 549,
      "섭": 550,
      "섰": 551,
      "성": 552,
      "세": 553,
      "센": 554,
      "셀": 555,
      "셈": 556,
      "셔": 557,
      "션": 558,
      "셨": 559,
      "소": 560,
      "속": 561,
      "손": 562,
      "솔": 563,
      "송": 564,
      "쇄": 565,
      "쇠": 566,
      "쇼": 567,
      "수": 568,
      "숙": 569,
      "순": 570,
      "술": 571,
      "숨": 572,
      "숫": 573,
      "숭": 574,
      "쉬": 575,
      "쉽": 576,
      "슈": 577,
      "스": 578,
      "슨": 579,
      "슬": 580,
      "슴": 581,
      "습": 582,
      "슷": 583,
      "승": 584,
      "시": 585,
      "식": 586,
      "신": 587,
      "실": 588,
      "싫": 589,
      "심": 590,
      "십": 591,
      "싱": 592,
      "싶": 593,
      "싸": 594,
      "싹": 595,
      "싼": 596,
      "쌀": 597,
      "쌍": 598,
      "쌓": 599,
      "써": 600,
      "썩": 601,
      "썼": 602,
      "쏘": 603,
      "쏟": 604,
      "쏠": 605,
      "쓰": 606,
      "쓴": 607,
      "쓸": 608,
      "씀": 609,
      "씌": 610,
      "씨": 611,
      "씩": 612,
      "씬": 613,
      "아": 614,
      "악": 615,
      "안": 616,
      "앉": 617,
      "않": 618,
      "알": 619,
      "암": 620,
      "압": 621,
      "앗": 622,
      "았": 623,
      "앙": 624,
      "앞": 625,
      "애": 626,
      "액": 627,
      "앤": 628,
      "앱": 629,
      "야": 630,
      "약": 631,
      "양": 632,
      "얘": 633,
      "어": 634,
      "억": 635,
      "언": 636,
      "얻": 637,
      "얼": 638,
      "엄": 639,
      "업": 640,
      "없": 641,
      "엇": 642,
      "었": 643,
      "엉": 644,
      "에": 645,
      "엑": 646,
      "엔": 647,
      "엘": 648,
      "엠": 649,
      "여": 650,
      "역": 651,
      "연": 652,
      "열": 653,
      "염": 654,
      "엽": 655,
      "였": 656,
      "영": 657,
      "옆": 658,
      "예": 659,
      "옛": 660,
      "오": 661,
      "옥": 662,
      "온": 663,
      "올": 664,
      "옮": 665,
      "옳": 666,
      "옴": 667,
      "옵": 668,
      "옷": 669,
      "옹": 670,
      "와": 671,
      "완": 672,
      "왔": 673,
      "왕": 674,
      "왜": 675,
      "외": 676,
      "요": 677,
      "욕": 678,
      "용": 679,
      "우": 680,
      "욱": 681,
      "운": 682,
      "울": 683,
      "움": 684,
      "웃": 685,
      "웅": 686,
      "워": 687,
      "원": 688,
      "월": 689,
      "웠": 690,
      "웨": 691,
      "위": 692,
      "윈": 693,
      "유": 694,
      "육": 695,
      "윤": 696,
      "율": 697,
      "융": 698,
      "으": 699,
      "은": 700,
      "을": 701,
      "음": 702,
      "읍": 703,
      "응": 704,
      "의": 705,
      "이": 706,
      "익": 707,
      "인": 708,
      "일": 709,
      "읽": 710,
      "잃": 711,
      "임": 712,
      "입": 713,
      "잇": 714,
      "있": 715,
      "잉": 716,
      "잊": 717,
      "자": 718,
      "작": 719,
      "잔": 720,
      "잖": 721,
      "잘": 722,
      "잠": 723,
      "잡": 724,
      "장": 725,
      "재": 726,
      "잼": 727,
      "쟁": 728,
      "저": 729,
      "적": 730,
      "전": 731,
      "절": 732,
      "젊": 733,
      "점": 734,
      "접": 735,
      "정": 736,
      "제": 737,
      "젝": 738,
      "젠": 739,
      "젤": 740,
      "져": 741,
      "졌": 742,
      "조": 743,
      "족": 744,
      "존": 745,
      "졸": 746,
      "좀": 747,
      "종": 748,
      "좋": 749,
      "좌": 750,
      "죄": 751,
      "죠": 752,
      "주": 753,
      "죽": 754,
      "준": 755,
      "줄": 756,
      "줌": 757,
      "줍": 758,
      "중": 759,
      "줘": 760,
      "줬": 761,
      "쥐": 762,
      "즈": 763,
      "즉": 764,
      "즌": 765,
      "즐": 766,
      "즘": 767,
      "증": 768,
      "지": 769,
      "직": 770,
      "진": 771,
      "질": 772,
      "짐": 773,
      "집": 774,
      "짓": 775,
      "징": 776,
      "짖": 777,
      "짜": 778,
      "짝": 779,
      "짤": 780,
      "짧": 781,
      "짱": 782,
      "째": 783,
      "쩌": 784,
      "쩔": 785,
      "쪼": 786,
      "쪽": 787,
      "쫓": 788,
      "쯤": 789,
      "쯧": 790,
      "찌": 791,
      "찍": 792,
      "찢": 793,
      "차": 794,
      "착": 795,
      "찬": 796,
      "찮": 797,
      "찰": 798,
      "참": 799,
      "창": 800,
      "찾": 801,
      "채": 802,
      "책": 803,
      "챙": 804,
      "처": 805,
      "척": 806,
      "천": 807,
      "철": 808,
      "첨": 809,
      "첩": 810,
      "첫": 811,
      "청": 812,
      "체": 813,
      "쳐": 814,
      "쳤": 815,
      "초": 816,
      "촉": 817,
      "촌": 818,
      "총": 819,
      "촬": 820,
      "최": 821,
      "추": 822,
      "축": 823,
      "춘": 824,
      "출": 825,
      "춤": 826,
      "충": 827,
      "춰": 828,
      "취": 829,
      "츠": 830,
      "측": 831,
      "층": 832,
      "치": 833,
      "칙": 834,
      "친": 835,
      "칠": 836,
      "침": 837,
      "칭": 838,
      "카": 839,
      "칼": 840,
      "캐": 841,
      "캠": 842,
      "커": 843,
      "컨": 844,
      "컬": 845,
      "컴": 846,
      "컵": 847,
      "케": 848,
      "켓": 849,
      "켜": 850,
      "켰": 851,
      "코": 852,
      "콘": 853,
      "콜": 854,
      "콩": 855,
      "쾌": 856,
      "쿠": 857,
      "퀴": 858,
      "큐": 859,
      "크": 860,
      "큰": 861,
      "클": 862,
      "큼": 863,
      "키": 864,
      "킨": 865,
      "킬": 866,
      "킹": 867,
      "타": 868,
      "탁": 869,
      "탄": 870,
      "탈": 871,
      "탐": 872,
      "탑": 873,
      "탓": 874,
      "탕": 875,
      "태": 876,
      "택": 877,
      "터": 878,
      "턴": 879,
      "털": 880,
      "테": 881,
      "텐": 882,
      "텔": 883,
      "템": 884,
      "토": 885,
      "톡": 886,
      "톤": 887,
      "통": 888,
      "퇴": 889,
      "투": 890,
      "튀": 891,
      "튜": 892,
      "트": 893,
      "특": 894,
      "튼": 895,
      "틀": 896,
      "티": 897,
      "틱": 898,
      "틴": 899,
      "팀": 900,
      "팅": 901,
      "파": 902,
      "판": 903,
      "팔": 904,
      "패": 905,
      "팩": 906,
      "팬": 907,
      "팽": 908,
      "퍼": 909,
      "펀": 910,
      "페": 911,
      "펜": 912,
      "펠": 913,
      "펴": 914,
      "편": 915,
      "펼": 916,
      "평": 917,
      "폐": 918,
      "포": 919,
      "폭": 920,
      "폰": 921,
      "폴": 922,
      "폼": 923,
      "표": 924,
      "푸": 925,
      "풀": 926,
      "품": 927,
      "풍": 928,
      "퓨": 929,
      "프": 930,
      "픈": 931,
      "플": 932,
      "피": 933,
      "픽": 934,
      "핀": 935,
      "필": 936,
      "핑": 937,
      "하": 938,
      "학": 939,
      "한": 940,
      "할": 941,
      "함": 942,
      "합": 943,
      "항": 944,
      "해": 945,
      "핵": 946,
      "햇": 947,
      "했": 948,
      "행": 949,
      "향": 950,
      "허": 951,
      "헌": 952,
      "헐": 953,
      "험": 954,
      "헛": 955,
      "헤": 956,
      "헬": 957,
      "혀": 958,
      "혁": 959,
      "현": 960,
      "혈": 961,
      "혐": 962,
      "협": 963,
      "혔": 964,
      "형": 965,
      "혜": 966,
      "호": 967,
      "혹": 968,
      "혼": 969,
      "홀": 970,
      "홈": 971,
      "홍": 972,
      "화": 973,
      "확": 974,
      "환": 975,
      "활": 976,
      "황": 977,
      "회": 978,
      "획": 979,
      "횡": 980,
      "효": 981,
      "후": 982,
      "훈": 983,
      "훌": 984,
      "훨": 985,
      "훼": 986,
      "휘": 987,
      "휴": 988,
      "흉": 989,
      "흐": 990,
      "흑": 991,
      "흔": 992,
      "흘": 993,
      "흠": 994,
      "흡": 995,
      "흥": 996,
      "희": 997,
      "히": 998,
      "힌": 999,
      "힐": 1000,
      "힘": 1001,
      "️": 1002,
      "🐕": 1003,
      "👍": 1004,
      "##께": 1005,
      "##져": 1006,
      "##요": 1007,
      "##휘": 1008,
      "##하": 1009,
      "##는": 1010,
      "##것": 1011,
      "##이": 1012,
      "##픽": 1013,
      "##업": 1014,
      "##명": 1015,
      "##기": 1016,
      "##거": 1017,
      "##자": 1018,
      "##료": 1019,
      "##챙": 1020,
      "##겨": 1021,
      "##서": 1022,
      "##금": 1023,
      "##도": 1024,
      "##월": 1025,
      "##1": 1026,
      "##4": 1027,
      "##일": 1028,
      "##인": 1029,
      "##데": 1030,
      "##로": 1031,
      "##라": 1032,
      "##결": 1033,
      "##해": 1034,
      "##악": 1035,
      "##산": 1036,
      "##국": 1037,
      "##립": 1038,
      "##공": 1039,
      "##원": 1040,
      "##은": 1041,
      "##소": 1042,
      "##리": 1043,
      "##네": 1044,
      "##8": 1045,
      "##정": 1046,
      "##한": 1047,
      "##건": 1048,
      "##남": 1049,
      "##시": 1050,
      "##민": 1051,
      "##급": 1052,
      "##구": 1053,
      "##조": 1054,
      "##대": 1055,
      "##가": 1056,
      "##땅": 1057,
      "##에": 1058,
      "##ㆍ": 1059,
      "##발": 1060,
      "##못": 1061,
      "##붙": 1062,
      "##게": 1063,
      "##야": 1064,
      "##다": 1065,
      "##들": 1066,
      "##을": 1067,
      "##법": 1068,
      "##지": 1069,
      "##만": 1070,
      "##천": 1071,
      "##위": 1072,
      "##개": 1073,
      "##잘": 1074,
      "##계": 1075,
      "##분": 1076,
      "##식": 1077,
      "##치": 1078,
      "##방": 1079,
      "##즘": 1080,
      "##염": 1081,
      "##병": 1082,
      "##관": 1083,
      "##빼": 1084,
      "##냐": 1085,
      "##싱": 1086,
      "##용": 1087,
      "##품": 1088,
      "##유": 1089,
      "##커": 1090,
      "##피": 1091,
      "##단": 1092,
      "##겠": 1093,
      "##고": 1094,
      "##팔": 1095,
      "##와": 1096,
      "##송": 1097,
      "##나": 1098,
      "##말": 1099,
      "##투": 1100,
      "##비": 1101,
      "##걸": 1102,
      "##차": 1103,
      "##년": 1104,
      "##속": 1105,
      "##전": 1106,
      "##란": 1107,
      "##k": 1108,
      "##님": 1109,
      "##포": 1110,
      "##통": 1111,
      "##장": 1112,
      "##르": 1113,
      "##그": 1114,
      "##러": 1115,
      "##며": 1116,
      "##답": 1117,
      "##임": 1118,
      "##바": 1119,
      "##닥": 1120,
      "##묵": 1121,
      "##면": 1122,
      "##신": 1123,
      "##의": 1124,
      "##술": 1125,
      "##i": 1126,
      "##r": 1127,
      "##v": 1128,
      "##오": 1129,
      "##력": 1130,
      "##니": 1131,
      "##파": 1132,
      "##꾼": 1133,
      "##동": 1134,
      "##당": 1135,
      "##연": 1136,
      "##마": 1137,
      "##워": 1138,
      "##노": 1139,
      "##럼": 1140,
      "##아": 1141,
      "##찰": 1142,
      "##총": 1143,
      "##부": 1144,
      "##터": 1145,
      "##달": 1146,
      "##여": 1147,
      "##량": 1148,
      "##권": 1149,
      "##으": 1150,
      "##졌": 1151,
      "##진": 1152,
      "##수": 1153,
      "##실": 1154,
      "##없": 1155,
      "##락": 1156,
      "##카": 1157,
      "##형": 1158,
      "##환": 1159,
      "##경": 1160,
      "##점": 1161,
      "##등": 1162,
      "##킬": 1163,
      "##려": 1164,
      "##스": 1165,
      "##목": 1166,
      "##풍": 1167,
      "##간": 1168,
      "##어": 1169,
      "##온": 1170,
      "##2": 1171,
      "##7": 1172,
      "##억": 1173,
      "##R": 1174,
      "##역": 1175,
      "##봐": 1176,
      "##교": 1177,
      "##K": 1178,
      "##텔": 1179,
      "##레": 1180,
      "##했": 1181,
      "##ㅋ": 1182,
      "##북": 1183,
      "##받": 1184,
      "##았": 1185,
      "##0": 1186,
      "##3": 1187,
      "##었": 1188,
      "##재": 1189,
      "##짝": 1190,
      "##봤": 1191,
      "##회": 1192,
      "##되": 1193,
      "##셈": 1194,
      "##히": 1195,
      "##할": 1196,
      "##갈": 1197,
      "##준": 1198,
      "##세": 1199,
      "##두": 1200,
      "##5": 1201,
      "##집": 1202,
      "##ㅠ": 1203,
      "##얼": 1204,
      "##프": 1205,
      "##트": 1206,
      "##웨": 1207,
      "##사": 1208,
      "##놓": 1209,
      "##침": 1210,
      "##까": 1211,
      "##합": 1212,
      "##케": 1213,
      "##학": 1214,
      "##죽": 1215,
      "##주": 1216,
      "##절": 1217,
      "##곤": 1218,
      "##를": 1219,
      "##화": 1220,
      "##뿐": 1221,
      "##흥": 1222,
      "##련": 1223,
      "##y": 1224,
      "##e": 1225,
      "##착": 1226,
      "##올": 1227,
      "##눈": 1228,
      "##성": 1229,
      "##질": 1230,
      "##줘": 1231,
      "##보": 1232,
      "##상": 1233,
      "##던": 1234,
      "##불": 1235,
      "##쏘": 1236,
      "##줄": 1237,
      "##안": 1238,
      "##끊": 1239,
      "##O": 1240,
      "##테": 1241,
      "##애": 1242,
      "##선": 1243,
      "##호": 1244,
      "##과": 1245,
      "##쓰": 1246,
      "##취": 1247,
      "##표": 1248,
      "##싸": 1249,
      "##B": 1250,
      "##중": 1251,
      "##삼": 1252,
      "##막": 1253,
      "##색": 1254,
      "##적": 1255,
      "##우": 1256,
      "##높": 1257,
      "##무": 1258,
      "##짓": 1259,
      "##겁": 1260,
      "##편": 1261,
      "##휴": 1262,
      "##내": 1263,
      "##십": 1264,
      "##복": 1265,
      "##둘": 1266,
      "##째": 1267,
      "##빠": 1268,
      "##찬": 1269,
      "##영": 1270,
      "##광": 1271,
      "##였": 1272,
      "##생": 1273,
      "##셨": 1274,
      "##태": 1275,
      "##틀": 1276,
      "##드": 1277,
      "##담": 1278,
      "##밀": 1279,
      "##래": 1280,
      "##활": 1281,
      "##더": 1282,
      "##체": 1283,
      "##삶": 1284,
      "##죠": 1285,
      "##따": 1286,
      "##퍼": 1287,
      "##센": 1288,
      "##난": 1289,
      "##람": 1290,
      "##알": 1291,
      "##랑": 1292,
      "##디": 1293,
      "##풀": 1294,
      "##논": 1295,
      "##율": 1296,
      "##입": 1297,
      "##넘": 1298,
      "##록": 1299,
      "##죄": 1300,
      "##석": 1301,
      "##획": 1302,
      "##종": 1303,
      "##땜": 1304,
      "##꼬": 1305,
      "##셔": 1306,
      "##크": 1307,
      "##왜": 1308,
      "##판": 1309,
      "##플": 1310,
      "##탕": 1311,
      "##밥": 1312,
      "##렸": 1313,
      "##낌": 1314,
      "##좀": 1315,
      "##런": 1316,
      "##직": 1317,
      "##초": 1318,
      "##돌": 1319,
      "##C": 1320,
      "##G": 1321,
      "##강": 1322,
      "##변": 1323,
      "##퇴": 1324,
      "##햇": 1325,
      "##모": 1326,
      "##제": 1327,
      "##출": 1328,
      "##키": 1329,
      "##군": 1330,
      "##탓": 1331,
      "##행": 1332,
      "##심": 1333,
      "##놨": 1334,
      "##겼": 1335,
      "##ㅡ": 1336,
      "##류": 1337,
      "##있": 1338,
      "##끝": 1339,
      "##예": 1340,
      "##쇠": 1341,
      "##w": 1342,
      "##o": 1343,
      "##t": 1344,
      "##h": 1345,
      "##박": 1346,
      "##미": 1347,
      "##느": 1348,
      "##D": 1349,
      "##슷": 1350,
      "##링": 1351,
      "##패": 1352,
      "##J": 1353,
      "##P": 1354,
      "##좌": 1355,
      "##놀": 1356,
      "##ㅇ": 1357,
      "##써": 1358,
      "##희": 1359,
      "##현": 1360,
      "##외": 1361,
      "##저": 1362,
      "##긋": 1363,
      "##름": 1364,
      "##값": 1365,
      "##린": 1366,
      "##배": 1367,
      "##처": 1368,
      "##타": 1369,
      "##뤄": 1370,
      "##루": 1371,
      "##됐": 1372,
      "##너": 1373,
      "##티": 1374,
      "##매": 1375,
      "##왕": 1376,
      "##운": 1377,
      "##났": 1378,
      "##엔": 1379,
      "##액": 1380,
      "##후": 1381,
      "##ㅎ": 1382,
      "##폰": 1383,
      "##설": 1384,
      "##됩": 1385,
      "##함": 1386,
      "##쌍": 1387,
      "##버": 1388,
      "##범": 1389,
      "##친": 1390,
      "##새": 1391,
      "##든": 1392,
      "##욕": 1393,
      "##션": 1394,
      "##렁": 1395,
      "##쳐": 1396,
      "##창": 1397,
      "##필": 1398,
      "##짖": 1399,
      "##맹": 1400,
      "##약": 1401,
      "##숭": 1402,
      "##갔": 1403,
      "##앗": 1404,
      "##끼": 1405,
      "##Y": 1406,
      "##독": 1407,
      "##감": 1408,
      "##택": 1409,
      "##참": 1410,
      "##협": 1411,
      "##닐": 1412,
      "##쏟": 1413,
      "##잡": 1414,
      "##때": 1415,
      "##망": 1416,
      "##습": 1417,
      "##측": 1418,
      "##육": 1419,
      "##녀": 1420,
      "##울": 1421,
      "##몰": 1422,
      "##빵": 1423,
      "##봅": 1424,
      "##슬": 1425,
      "##릴": 1426,
      "##9": 1427,
      "##충": 1428,
      "##능": 1429,
      "##ㅉ": 1430,
      "##험": 1431,
      "##몬": 1432,
      "##문": 1433,
      "##욱": 1434,
      "##탄": 1435,
      "##듯": 1436,
      "##떻": 1437,
      "##책": 1438,
      "##검": 1439,
      "##김": 1440,
      "##️": 1441,
      "##효": 1442,
      "##듭": 1443,
      "##된": 1444,
      "##낀": 1445,
      "##옥": 1446,
      "##층": 1447,
      "##겟": 1448,
      "##견": 1449,
      "##N": 1450,
      "##S": 1451,
      "##놈": 1452,
      "##멸": 1453,
      "##림": 1454,
      "##핵": 1455,
      "##른": 1456,
      "##컬": 1457,
      "##음": 1458,
      "##돼": 1459,
      "##메": 1460,
      "##긴": 1461,
      "##승": 1462,
      "##각": 1463,
      "##령": 1464,
      "##딸": 1465,
      "##및": 1466,
      "##짤": 1467,
      "##l": 1468,
      "##될": 1469,
      "##작": 1470,
      "##릇": 1471,
      "##팀": 1472,
      "##베": 1473,
      "##봄": 1474,
      "##페": 1475,
      "##ㅜ": 1476,
      "##언": 1477,
      "##맞": 1478,
      "##6": 1479,
      "##족": 1480,
      "##쇼": 1481,
      "##응": 1482,
      "##뜻": 1483,
      "##례": 1484,
      "##럭": 1485,
      "##코": 1486,
      "##왔": 1487,
      "##a": 1488,
      "##x": 1489,
      "##덕": 1490,
      "##청": 1491,
      "##별": 1492,
      "##렇": 1493,
      "##홍": 1494,
      "##c": 1495,
      "##잔": 1496,
      "##n": 1497,
      "##s": 1498,
      "##클": 1499,
      "##같": 1500,
      "##먼": 1501,
      "##압": 1502,
      "##맛": 1503,
      "##섭": 1504,
      "##녕": 1505,
      "##떨": 1506,
      "##누": 1507,
      "##반": 1508,
      "##살": 1509,
      "##즈": 1510,
      "##밌": 1511,
      "##많": 1512,
      "##혁": 1513,
      "##먹": 1514,
      "##곳": 1515,
      "##폭": 1516,
      "##률": 1517,
      "##론": 1518,
      "##잇": 1519,
      "##푸": 1520,
      "##뜨": 1521,
      "##옴": 1522,
      "##꿔": 1523,
      "##굴": 1524,
      "##탈": 1525,
      "##브": 1526,
      "##헬": 1527,
      "##맙": 1528,
      "##쥐": 1529,
      "##또": 1530,
      "##랜": 1531,
      "##낮": 1532,
      "##줌": 1533,
      "##앙": 1534,
      "##양": 1535,
      "##웠": 1536,
      "##쏠": 1537,
      "##봉": 1538,
      "##촌": 1539,
      "##혐": 1540,
      "##쪼": 1541,
      "##궁": 1542,
      "##싶": 1543,
      "##벗": 1544,
      "##캠": 1545,
      "##핑": 1546,
      "##뒷": 1547,
      "##읽": 1548,
      "##증": 1549,
      "##농": 1550,
      "##움": 1551,
      "##렬": 1552,
      "##킨": 1553,
      "##걱": 1554,
      "##허": 1555,
      "##닝": 1556,
      "##랄": 1557,
      "##램": 1558,
      "##골": 1559,
      "##본": 1560,
      "##물": 1561,
      "##앤": 1562,
      "##념": 1563,
      "##∼": 1564,
      "##항": 1565,
      "##추": 1566,
      "##길": 1567,
      "##향": 1568,
      "##납": 1569,
      "##번": 1570,
      "##득": 1571,
      "##훈": 1572,
      "##뻔": 1573,
      "##존": 1574,
      "##탁": 1575,
      "##징": 1576,
      "##륜": 1577,
      "##퓨": 1578,
      "##끄": 1579,
      "##닌": 1580,
      "##텐": 1581,
      "##ㅅ": 1582,
      "##슈": 1583,
      "##순": 1584,
      "##댓": 1585,
      "##익": 1586,
      "##얘": 1587,
      "##믿": 1588,
      "##u": 1589,
      "##g": 1590,
      "##혀": 1591,
      "##쫓": 1592,
      "##좋": 1593,
      "##쟁": 1594,
      "##랐": 1595,
      "##뭐": 1596,
      "##빌": 1597,
      "##큼": 1598,
      "##빈": 1599,
      "##냥": 1600,
      "##특": 1601,
      "##극": 1602,
      "##줬": 1603,
      "##톡": 1604,
      "##젤": 1605,
      "##m": 1606,
      "##접": 1607,
      "##객": 1608,
      "##숙": 1609,
      "##볼": 1610,
      "##껄": 1611,
      "##큐": 1612,
      "##셀": 1613,
      "##격": 1614,
      "##켜": 1615,
      "##낭": 1616,
      "##엇": 1617,
      "##콜": 1618,
      "##돈": 1619,
      "##p": 1620,
      "##꼽": 1621,
      "##딩": 1622,
      "##채": 1623,
      "##않": 1624,
      "##굿": 1625,
      "##캐": 1626,
      "##열": 1627,
      "##ㄴ": 1628,
      "##토": 1629,
      "##폐": 1630,
      "##팅": 1631,
      "##즌": 1632,
      "##랍": 1633,
      "##d": 1634,
      "##슨": 1635,
      "##손": 1636,
      "##윈": 1637,
      "##밑": 1638,
      "##촉": 1639,
      "##H": 1640,
      "##댄": 1641,
      "##킹": 1642,
      "##괴": 1643,
      "##뢰": 1644,
      "##떼": 1645,
      "##빛": 1646,
      "##잖": 1647,
      "##황": 1648,
      "##엄": 1649,
      "##칼": 1650,
      "##확": 1651,
      "##찾": 1652,
      "##둥": 1653,
      "##헌": 1654,
      "##밖": 1655,
      "##M": 1656,
      "##b": 1657,
      "##탑": 1658,
      "##엑": 1659,
      "##짜": 1660,
      "##쯤": 1661,
      "##글": 1662,
      "##평": 1663,
      "##겜": 1664,
      "##ㄱ": 1665,
      "##W": 1666,
      "##팽": 1667,
      "##칠": 1668,
      "##혼": 1669,
      "##백": 1670,
      "##규": 1671,
      "##앞": 1672,
      "##첨": 1673,
      "##흡": 1674,
      "##쁘": 1675,
      "##깝": 1676,
      "##쳤": 1677,
      "##슴": 1678,
      "##랬": 1679,
      "##쩌": 1680,
      "##릭": 1681,
      "##옷": 1682,
      "##T": 1683,
      "##꼴": 1684,
      "##깔": 1685,
      "##씨": 1686,
      "##읍": 1687,
      "##머": 1688,
      "##졸": 1689,
      "##룡": 1690,
      "##켰": 1691,
      "##덤": 1692,
      "##벽": 1693,
      "##혔": 1694,
      "##윤": 1695,
      "##깐": 1696,
      "##칭": 1697,
      "##f": 1698,
      "##썼": 1699,
      "##힘": 1700,
      "##넷": 1701,
      "##뱅": 1702,
      "##롭": 1703,
      "##맨": 1704,
      "##갑": 1705,
      "##듬": 1706,
      "##찍": 1707,
      "##싹": 1708,
      "##싼": 1709,
      "##웃": 1710,
      "##I": 1711,
      "##쉬": 1712,
      "##떡": 1713,
      "##겸": 1714,
      "##럽": 1715,
      "##척": 1716,
      "##놔": 1717,
      "##찌": 1718,
      "##철": 1719,
      "##깨": 1720,
      "##잉": 1721,
      "##맥": 1722,
      "##땐": 1723,
      "##벤": 1724,
      "##펀": 1725,
      "##빙": 1726,
      "##벌": 1727,
      "##끌": 1728,
      "##둑": 1729,
      "##렀": 1730,
      "##U": 1731,
      "##똘": 1732,
      "##암": 1733,
      "##흔": 1734,
      "##늘": 1735,
      "##털": 1736,
      "##뉴": 1737,
      "##짐": 1738,
      "##축": 1739,
      "##날": 1740,
      "##ㄷ": 1741,
      "##X": 1742,
      "##딴": 1743,
      "##숨": 1744,
      "##L": 1745,
      "##튼": 1746,
      "##쩔": 1747,
      "##츠": 1748,
      "##꺼": 1749,
      "##홀": 1750,
      "##뚱": 1751,
      "##퀴": 1752,
      "##짱": 1753,
      "##잼": 1754,
      "##뜯": 1755,
      "##웅": 1756,
      "##략": 1757,
      "##갱": 1758,
      "##춰": 1759,
      "##빨": 1760,
      "##륙": 1761,
      "##A": 1762,
      "##엘": 1763,
      "##ㄹ": 1764,
      "##템": 1765,
      "##몽": 1766,
      "##녹": 1767,
      "##컴": 1768,
      "##쌀": 1769,
      "##뒤": 1770,
      "##균": 1771,
      "##딱": 1772,
      "##됨": 1773,
      "##턴": 1774,
      "##껴": 1775,
      "##쇄": 1776,
      "##낸": 1777,
      "##솔": 1778,
      "##👍": 1779,
      "##뭉": 1780,
      "##춘": 1781,
      "##깡": 1782,
      "##융": 1783,
      "##옵": 1784,
      "##튜": 1785,
      "##벨": 1786,
      "##냈": 1787,
      "##F": 1788,
      "##근": 1789,
      "##낳": 1790,
      "##낼": 1791,
      "##팩": 1792,
      "##흉": 1793,
      "##헛": 1794,
      "##쓸": 1795,
      "##완": 1796,
      "##떤": 1797,
      "##넣": 1798,
      "##콘": 1799,
      "##탐": 1800,
      "##뿌": 1801,
      "##횡": 1802,
      "##곡": 1803,
      "##쉽": 1804,
      "##쪽": 1805,
      "##렉": 1806,
      "##몸": 1807,
      "##V": 1808,
      "##뭘": 1809,
      "##E": 1810,
      "##켓": 1811,
      "##봇": 1812,
      "##흑": 1813,
      "##긍": 1814,
      "##둔": 1815,
      "##뇌": 1816,
      "##붕": 1817,
      "##떠": 1818,
      "##널": 1819,
      "##멍": 1820,
      "##옮": 1821,
      "##핀": 1822,
      "##씩": 1823,
      "##젠": 1824,
      "##최": 1825,
      "##톤": 1826,
      "##덮": 1827,
      "##혜": 1828,
      "##랙": 1829,
      "##컵": 1830,
      "##튀": 1831,
      "##뷰": 1832,
      "##귀": 1833,
      "##혈": 1834,
      "##렵": 1835,
      "##펜": 1836,
      "##릿": 1837,
      "##싫": 1838,
      "##옹": 1839,
      "##덩": 1840,
      "##블": 1841,
      "##찢": 1842,
      "##쌓": 1843,
      "##룹": 1844,
      "##넌": 1845,
      "##홈": 1846,
      "##렴": 1847,
      "##끔": 1848,
      "##샤": 1849,
      "##씌": 1850,
      "##닭": 1851,
      "##멘": 1852,
      "##쁜": 1853,
      "##맘": 1854,
      "##폼": 1855,
      "##럴": 1856,
      "##썩": 1857,
      "##콩": 1858,
      "##겐": 1859,
      "##꾸": 1860,
      "##꿀": 1861,
      "##씀": 1862,
      "##앱": 1863,
      "##릉": 1864,
      "##멋": 1865,
      "##씬": 1866,
      "##칙": 1867,
      "##묻": 1868,
      "##j": 1869,
      "##뭔": 1870,
      "##틴": 1871,
      "##섬": 1872,
      "##뮤": 1873,
      "##닉": 1874,
      "##닙": 1875,
      "##엽": 1876,
      "##녁": 1877,
      "##픈": 1878,
      "##굥": 1879,
      "##춤": 1880,
      "##빡": 1881,
      "##롱": 1882,
      "##므": 1883,
      "##흐": 1884,
      "##묘": 1885,
      "##롤": 1886,
      "##겹": 1887,
      "##촬": 1888,
      "##밍": 1889,
      "##꿈": 1890,
      "##훼": 1891,
      "##팬": 1892,
      "##둬": 1893,
      "##똑": 1894,
      "##렌": 1895,
      "##밝": 1896,
      "##냄": 1897,
      "##줍": 1898,
      "##삭": 1899,
      "##뽑": 1900,
      "##힐": 1901,
      "##찮": 1902,
      "##몇": 1903,
      "##빚": 1904,
      "##앉": 1905,
      "##덜": 1906,
      "##걷": 1907,
      "##쓴": 1908,
      "##룸": 1909,
      "##쿠": 1910,
      "##ㅈ": 1911,
      "##훌": 1912,
      "##뚜": 1913,
      "##혹": 1914,
      "##낙": 1915,
      "##헤": 1916,
      "##듣": 1917,
      "##ㅂ": 1918,
      "##딜": 1919,
      "##괜": 1920,
      "##첩": 1921,
      "##꼭": 1922,
      "##잊": 1923,
      "##밤": 1924,
      "##잃": 1925,
      "##폴": 1926,
      "##펴": 1927,
      "##낄": 1928,
      "##섰": 1929,
      "##랫": 1930,
      "##뀌": 1931,
      "##즐": 1932,
      "##잠": 1933,
      "##컨": 1934,
      "##첫": 1935,
      "##힌": 1936,
      "##멀": 1937,
      "##똥": 1938,
      "##륭": 1939,
      "##흠": 1940,
      "##돕": 1941,
      "##뽕": 1942,
      "##낫": 1943,
      "##꽃": 1944,
      "##즉": 1945,
      "##갖": 1946,
      "##맡": 1947,
      "##큰": 1948,
      "##옛": 1949,
      "##젊": 1950,
      "##짧": 1951,
      "##델": 1952,
      "##껏": 1953,
      "##끈": 1954,
      "##쾌": 1955,
      "##벼": 1956,
      "##곧": 1957,
      "##엠": 1958,
      "##깊": 1959,
      "##젝": 1960,
      "##갓": 1961,
      "##틱": 1962,
      "##숫": 1963,
      "##얻": 1964,
      "##걍": 1965,
      "##끗": 1966,
      "##엉": 1967,
      "##늙": 1968,
      "##꼼": 1969,
      "##옆": 1970,
      "##롯": 1971,
      "##샀": 1972,
      "##뛰": 1973,
      "##🐕": 1974,
      "##깜": 1975,
      "##닫": 1976,
      "##흘": 1977,
      "##돋": 1978,
      "##펠": 1979,
      "##옳": 1980,
      "##냉": 1981,
      "##늦": 1982,
      "##헐": 1983,
      "##멈": 1984,
      "##훨": 1985,
      "##넓": 1986,
      "##쯧": 1987,
      "##굳": 1988,
      "##덧": 1989,
      "##멤": 1990,
      "##빅": 1991,
      "##겪": 1992,
      "##펼": 1993,
      "##으로": 1994,
      "##에서": 1995,
      "##하는": 1996,
      "##하고": 1997,
      "##니다": 1998,
      "##들이": 1999,
      "##이다": 2000,
      "##했다": 2001,
      "있다": 2002,
      "##는데": 2003,
      "ㅋㅋ": 2004,
      "##다고": 2005,
      "있는": 2006,
      "국민": 2007,
      "##지만": 2008,
      "##다는": 2009,
      "##라고": 2010,
      "사람": 2011,
      "아니": 2012,
      "##통령": 2013,
      "##들은": 2014,
      "##까지": 2015,
      "##면서": 2016,
      "##00": 2017,
      "##습니다": 2018,
      "한국": 2019,
      "대통령": 2020,
      "##하게": 2021,
      "##에게": 2022,
      "##한다": 2023,
      "##해서": 2024,
      "하는": 2025,
      "우리": 2026,
      "대한": 2027,
      "##부터": 2028,
      "##이라": 2029,
      "20": 2030,
      "생각": 2031,
      "##으면": 2032,
      "##이나": 2033,
      "##하다": 2034,
      "##에는": 2035,
      "##적으로": 2036,
      "##적인": 2037,
      "나라": 2038,
      "미국": 2039,
      "##하면": 2040,
      "##었다": 2041,
      "##하지": 2042,
      "영화": 2043,
      "이런": 2044,
      "##기도": 2045,
      "##리고": 2046,
      "경찰": 2047,
      "##대로": 2048,
      "민주": 2049,
      "지난": 2050,
      "##들의": 2051,
      "중국": 2052,
      "지금": 2053,
      "문제": 2054,
      "것으로": 2055,
      "##해야": 2056,
      "진짜": 2057,
      "##보다": 2058,
      "너무": 2059,
      "##는거": 2060,
      "정부": 2061,
      "10": 2062,
      "하고": 2063,
      "만들": 2064,
      "정치": 2065,
      "##렇게": 2066,
      "##세요": 2067,
      "##하기": 2068,
      "민주당": 2069,
      "##네요": 2070,
      "##인데": 2071,
      "##리는": 2072,
      "##이고": 2073,
      "##니까": 2074,
      "때문": 2075,
      "윤석": 2076,
      "위해": 2077,
      "그냥": 2078,
      "##입니다": 2079,
      "같은": 2080,
      "##된다": 2081,
      "문재": 2082,
      "##자가": 2083,
      "##되는": 2084,
      "##어요": 2085,
      "한다": 2086,
      "지지": 2087,
      "##재명": 2088,
      "##ㅋㅋ": 2089,
      "이번": 2090,
      "##어서": 2091,
      "하나": 2092,
      "서울": 2093,
      "##들을": 2094,
      "것이": 2095,
      "윤석열": 2096,
      "##지는": 2097,
      "필요": 2098,
      "##합니다": 2099,
      "이상": 2100,
      "없는": 2101,
      "##라는": 2102,
      "게임": 2103,
      "인간": 2104,
      "##기를": 2105,
      "##지고": 2106,
      "##사가": 2107,
      "ㅋㅋㅋ": 2108,
      "그래": 2109,
      "경기도": 2110,
      "이재명": 2111,
      "201": 2112,
      "정말": 2113,
      "##장이": 2114,
      "##인이": 2115,
      "모르": 2116,
      "가능": 2117,
      "##해라": 2118,
      "들어": 2119,
      "##에도": 2120,
      "아닌": 2121,
      "일본": 2122,
      "##리가": 2123,
      "##도록": 2124,
      "##라도": 2125,
      "##기가": 2126,
      "다른": 2127,
      "##사를": 2128,
      "##겠다": 2129,
      "##구나": 2130,
      "국가": 2131,
      "지역": 2132,
      "이제": 2133,
      "북한": 2134,
      "경제": 2135,
      "많은": 2136,
      "##처럼": 2137,
      "그런": 2138,
      "##원이": 2139,
      "##나라": 2140,
      "검찰": 2141,
      "없다": 2142,
      "##자는": 2143,
      "보고": 2144,
      "아이": 2145,
      "##한테": 2146,
      "많이": 2147,
      "##성이": 2148,
      "##려고": 2149,
      "대표": 2150,
      "##았다": 2151,
      "##에서는": 2152,
      "##민국": 2153,
      "##이지": 2154,
      "함께": 2155,
      "시작": 2156,
      "##같은": 2157,
      "##시아": 2158,
      "##리를": 2159,
      "##명이": 2160,
      "경우": 2161,
      "기업": 2162,
      "##어야": 2163,
      "그러": 2164,
      "##가는": 2165,
      "##됐다": 2166,
      "당신": 2167,
      "다시": 2168,
      "통해": 2169,
      "대한민국": 2170,
      "##혔다": 2171,
      "무슨": 2172,
      "시간": 2173,
      "아니라": 2174,
      "정신": 2175,
      "아무": 2176,
      "##정부": 2177,
      "가장": 2178,
      "관련": 2179,
      "사회": 2180,
      "##으니": 2181,
      "##시간": 2182,
      "것이다": 2183,
      "세계": 2184,
      "##기에": 2185,
      "##이는": 2186,
      "밝혔다": 2187,
      "##기는": 2188,
      "지원": 2189,
      "사업": 2190,
      "나오": 2191,
      "아직": 2192,
      "##이가": 2193,
      "진행": 2194,
      "그리고": 2195,
      "모두": 2196,
      "사실": 2197,
      "문재인": 2198,
      "했다": 2199,
      "##하며": 2200,
      "위한": 2201,
      "##레기": 2202,
      "##으며": 2203,
      "##하면서": 2204,
      "좋은": 2205,
      "국회": 2206,
      "##장을": 2207,
      "##아서": 2208,
      "이유": 2209,
      "##이라고": 2210,
      "##위원": 2211,
      "##되고": 2212,
      "나는": 2213,
      "하지": 2214,
      "자신": 2215,
      "수사": 2216,
      "교육": 2217,
      "##준석": 2218,
      "##기업": 2219,
      "상황": 2220,
      "##였다": 2221,
      "언론": 2222,
      "##인가": 2223,
      "따라": 2224,
      "때문에": 2225,
      "##들에게": 2226,
      "어떻": 2227,
      "얼마": 2228,
      "##는게": 2229,
      "##지도": 2230,
      "피해": 2231,
      "##것도": 2232,
      "내가": 2233,
      "이준석": 2234,
      "이어": 2235,
      "관계": 2236,
      "##하여": 2237,
      "해야": 2238,
      "##주의": 2239,
      "모든": 2240,
      "기대": 2241,
      "##사는": 2242,
      "재미": 2243,
      "##사람": 2244,
      "정권": 2245,
      "어떻게": 2246,
      "것은": 2247,
      "정도": 2248,
      "##장은": 2249,
      "##는다": 2250,
      "이게": 2251,
      "##졌다": 2252,
      "##들도": 2253,
      "수준": 2254,
      "계속": 2255,
      "최고": 2256,
      "##거나": 2257,
      "##다가": 2258,
      "##영화": 2259,
      "##는지": 2260,
      "##이라는": 2261,
      "말했다": 2262,
      "대해": 2263,
      "##대표": 2264,
      "국내": 2265,
      "30": 2266,
      "좋아": 2267,
      "사용": 2268,
      "19": 2269,
      "##수가": 2270,
      "있을": 2271,
      "있어": 2272,
      "사람이": 2273,
      "있었": 2274,
      "떨어": 2275,
      "범죄": 2276,
      "결과": 2277,
      "##인지": 2278,
      "이렇게": 2279,
      "##보고": 2280,
      "##운데": 2281,
      "잘못": 2282,
      "##상이": 2283,
      "100": 2284,
      "조사": 2285,
      "##지가": 2286,
      "어디": 2287,
      "저런": 2288,
      "이미": 2289,
      "대통령이": 2290,
      "##소리": 2291,
      "특히": 2292,
      "##력이": 2293,
      "이용": 2294,
      "것을": 2295,
      "자기": 2296,
      "전문": 2297,
      "##력을": 2298,
      "##해도": 2299,
      "정책": 2300,
      "관심": 2301,
      "이후": 2302,
      "처음": 2303,
      "경기": 2304,
      "##하네": 2305,
      "##어나": 2306,
      "내용": 2307,
      "##있는": 2308,
      "##만원": 2309,
      "기사": 2310,
      "##성을": 2311,
      "##하나": 2312,
      "##레이": 2313,
      "만들어": 2314,
      "##이냐": 2315,
      "돌아": 2316,
      "현재": 2317,
      "##없는": 2318,
      "##지를": 2319,
      "##동안": 2320,
      "12": 2321,
      "누가": 2322,
      "##자들": 2323,
      "발생": 2324,
      "그렇게": 2325,
      "탄핵": 2326,
      "##아야": 2327,
      "세금": 2328,
      "##잖아": 2329,
      "정상": 2330,
      "##놓고": 2331,
      "##체가": 2332,
      "최근": 2333,
      "##대가": 2334,
      "##겠지": 2335,
      "##시키": 2336,
      "가운데": 2337,
      "쓰레기": 2338,
      "제대로": 2339,
      "11": 2340,
      "참여": 2341,
      "자유": 2342,
      "보면": 2343,
      "장관": 2344,
      "##더니": 2345,
      "프로": 2346,
      "올해": 2347,
      "##스트": 2348,
      "##주는": 2349,
      "##들아": 2350,
      "그만": 2351,
      "##상을": 2352,
      "이해": 2353,
      "바이": 2354,
      "운영": 2355,
      "댓글": 2356,
      "등을": 2357,
      "문화": 2358,
      "다음": 2359,
      "##정을": 2360,
      "있다는": 2361,
      "있습니다": 2362,
      "얼마나": 2363,
      "모습": 2364,
      "사건": 2365,
      "##거리": 2366,
      "##이네": 2367,
      "다양": 2368,
      "지지율": 2369,
      "국힘": 2370,
      "200": 2371,
      "##자를": 2372,
      "##하는데": 2373,
      "어려": 2374,
      "러시아": 2375,
      "바로": 2376,
      "설명": 2377,
      "좌파": 2378,
      "확인": 2379,
      "##학교": 2380,
      "우리나라": 2381,
      "하면": 2382,
      "역시": 2383,
      "##하냐": 2384,
      "중요": 2385,
      "지난해": 2386,
      "##들과": 2387,
      "학생": 2388,
      "##없이": 2389,
      "책임": 2390,
      "##비스": 2391,
      "##자들이": 2392,
      "##말고": 2393,
      "##로운": 2394,
      "시장": 2395,
      "사고": 2396,
      "보여": 2397,
      "##정이": 2398,
      "##거지": 2399,
      "##도가": 2400,
      "된다": 2401,
      "##어도": 2402,
      "재밌": 2403,
      "##에서도": 2404,
      "##치는": 2405,
      "어떤": 2406,
      "##했다고": 2407,
      "마음": 2408,
      "알려": 2409,
      "등이": 2410,
      "##이야": 2411,
      "거짓": 2412,
      "그는": 2413,
      "가족": 2414,
      "언제": 2415,
      "그럼": 2416,
      "직접": 2417,
      "##주고": 2418,
      "외교": 2419,
      "조선": 2420,
      "15": 2421,
      "추진": 2422,
      "의원": 2423,
      "##전에": 2424,
      "##했던": 2425,
      "공개": 2426,
      "제발": 2427,
      "이날": 2428,
      "##의원": 2429,
      "전국": 2430,
      "##하겠": 2431,
      "##정권": 2432,
      "이라고": 2433,
      "##르면": 2434,
      "방송": 2435,
      "배우": 2436,
      "않은": 2437,
      "투자": 2438,
      "이야": 2439,
      "여러": 2440,
      "검사": 2441,
      "##인다": 2442,
      "나온": 2443,
      "##사업": 2444,
      "오늘": 2445,
      "기술": 2446,
      "않고": 2447,
      "알고": 2448,
      "##정도": 2449,
      "사이": 2450,
      "앞으로": 2451,
      "아니고": 2452,
      "##0년": 2453,
      "##가지": 2454,
      "여성": 2455,
      "국민의": 2456,
      "##시켜": 2457,
      "빨리": 2458,
      "다양한": 2459,
      "계획": 2460,
      "받아": 2461,
      "##한다고": 2462,
      "5년": 2463,
      "개발": 2464,
      "##나요": 2465,
      "이러": 2466,
      "ㅎㅎ": 2467,
      "##화를": 2468,
      "##적이": 2469,
      "학교": 2470,
      "금융": 2471,
      "있도록": 2472,
      "##라마": 2473,
      "##교육": 2474,
      "개인": 2475,
      "되는": 2476,
      "##자의": 2477,
      "있는데": 2478,
      "같이": 2479,
      "보내": 2480,
      "없이": 2481,
      "한번": 2482,
      "이건": 2483,
      "보수": 2484,
      "합니다": 2485,
      "스토": 2486,
      "않는": 2487,
      "없어": 2488,
      "사랑": 2489,
      "당시": 2490,
      "예정": 2491,
      "살아": 2492,
      "연구": 2493,
      "더불": 2494,
      "있고": 2495,
      "##리에": 2496,
      "##한거": 2497,
      "18": 2498,
      "근데": 2499,
      "삼성": 2500,
      "##들어": 2501,
      "##치고": 2502,
      "##이면": 2503,
      "##기로": 2504,
      "그래서": 2505,
      "말고": 2506,
      "대상": 2507,
      "##하자": 2508,
      "감독": 2509,
      "##되어": 2510,
      "##가가": 2511,
      "말이": 2512,
      "##되면": 2513,
      "없고": 2514,
      "시민": 2515,
      "일부": 2516,
      "외국": 2517,
      "사진": 2518,
      "과학": 2519,
      "무능": 2520,
      "##시는": 2521,
      "나타": 2522,
      "완전": 2523,
      "아주": 2524,
      "있다고": 2525,
      "##시장": 2526,
      "내려": 2527,
      "##야지": 2528,
      "결국": 2529,
      "가격": 2530,
      "이거": 2531,
      "##드는": 2532,
      "누구": 2533,
      "발표": 2534,
      "##무원": 2535,
      "##기관": 2536,
      "##제로": 2537,
      "안전": 2538,
      "##진다": 2539,
      "만든": 2540,
      "##리면": 2541,
      "인정": 2542,
      "아직도": 2543,
      "ㅉㅉ": 2544,
      "일반": 2545,
      "##위원회": 2546,
      "##부분": 2547,
      "##보면": 2548,
      "##로나": 2549,
      "##하는거": 2550,
      "현실": 2551,
      "##식을": 2552,
      "전쟁": 2553,
      "##을까": 2554,
      "찾아": 2555,
      "##스크": 2556,
      "##식이": 2557,
      "소리": 2558,
      "하루": 2559,
      "##스로": 2560,
      "##으나": 2561,
      "나라가": 2562,
      "##당이": 2563,
      "조작": 2564,
      "그렇": 2565,
      "##개월": 2566,
      "참석": 2567,
      "산업": 2568,
      "##동을": 2569,
      "방문": 2570,
      "국짐": 2571,
      "대학": 2572,
      "사기": 2573,
      "해결": 2574,
      "##가서": 2575,
      "##센터": 2576,
      "##하라": 2577,
      "마약": 2578,
      "사람들이": 2579,
      "마련": 2580,
      "사과": 2581,
      "국제": 2582,
      "##마다": 2583,
      "아닌가": 2584,
      "부산": 2585,
      "높은": 2586,
      "저는": 2587,
      "반대": 2588,
      "##하던": 2589,
      "아니다": 2590,
      "않았": 2591,
      "##시다": 2592,
      "구속": 2593,
      "##의를": 2594,
      "요즘": 2595,
      "##하니": 2596,
      "부모": 2597,
      "##러운": 2598,
      "##억원": 2599,
      "해외": 2600,
      "##같이": 2601,
      "##이라도": 2602,
      "##그램": 2603,
      "본인": 2604,
      "준비": 2605,
      "절대": 2606,
      "만큼": 2607,
      "제품": 2608,
      "##부가": 2609,
      "##봐라": 2610,
      "해라": 2611,
      "때문이다": 2612,
      "##려는": 2613,
      "따르면": 2614,
      "##정은": 2615,
      "평가": 2616,
      "##더라": 2617,
      "친구": 2618,
      "먼저": 2619,
      "##문에": 2620,
      "##리지": 2621,
      "의미": 2622,
      "##되지": 2623,
      "감사": 2624,
      "청와": 2625,
      "50": 2626,
      "주민": 2627,
      "이것": 2628,
      "더불어": 2629,
      "##자리": 2630,
      "바이든": 2631,
      "선동": 2632,
      "##동산": 2633,
      "어느": 2634,
      "##이었": 2635,
      "선거": 2636,
      "어린": 2637,
      "##에요": 2638,
      "제공": 2639,
      "##도를": 2640,
      "분석": 2641,
      "환경": 2642,
      "##돼지": 2643,
      "노동": 2644,
      "##겠네": 2645,
      "수도": 2646,
      "드라마": 2647,
      "공정": 2648,
      "##밖에": 2649,
      "증가": 2650,
      "문제가": 2651,
      "포함": 2652,
      "##없다": 2653,
      "##있다": 2654,
      "##스럽": 2655,
      "새로운": 2656,
      "만나": 2657,
      "##났다": 2658,
      "동안": 2659,
      "주장": 2660,
      "##치를": 2661,
      "13": 2662,
      "##관이": 2663,
      "##했는데": 2664,
      "기자": 2665,
      "정부가": 2666,
      "받고": 2667,
      "전망": 2668,
      "코로나": 2669,
      "나왔": 2670,
      "기준": 2671,
      "당연": 2672,
      "기억": 2673,
      "서비스": 2674,
      "판단": 2675,
      "불법": 2676,
      "문재앙": 2677,
      "니가": 2678,
      "국민들": 2679,
      "추가": 2680,
      "##다니": 2681,
      "오후": 2682,
      "여자": 2683,
      "기본": 2684,
      "##시고": 2685,
      "##지역": 2686,
      "##라이": 2687,
      "최대": 2688,
      "여기": 2689,
      "##파트": 2690,
      "세상": 2691,
      "그게": 2692,
      "14": 2693,
      "예상": 2694,
      "후보": 2695,
      "정보": 2696,
      "##프로": 2697,
      "건강": 2698,
      "영향": 2699,
      "##텐데": 2700,
      "##인을": 2701,
      "##렸다": 2702,
      "미래": 2703,
      "##이랑": 2704,
      "열린": 2705,
      "이를": 2706,
      "부동산": 2707,
      "25": 2708,
      "##지지": 2709,
      "##거다": 2710,
      "기록": 2711,
      "거짓말": 2712,
      "##대를": 2713,
      "대부분": 2714,
      "##위를": 2715,
      "선택": 2716,
      "##회를": 2717,
      "##회가": 2718,
      "보인다": 2719,
      "##사의": 2720,
      "##화가": 2721,
      "##제를": 2722,
      "현지": 2723,
      "것도": 2724,
      "소비": 2725,
      "지방": 2726,
      "16": 2727,
      "##한다는": 2728,
      "##먹고": 2729,
      "보도": 2730,
      "중심": 2731,
      "##구만": 2732,
      "##동훈": 2733,
      "##던데": 2734,
      "있었다": 2735,
      "설치": 2736,
      "한심": 2737,
      "##중에": 2738,
      "##장에서": 2739,
      "##르고": 2740,
      "기존": 2741,
      "##해요": 2742,
      "판매": 2743,
      "##럼프": 2744,
      "작품": 2745,
      "##해주": 2746,
      "##원은": 2747,
      "올라": 2748,
      "##씨가": 2749,
      "요구": 2750,
      "부족": 2751,
      "안되": 2752,
      "공무원": 2753,
      "주변": 2754,
      "##가고": 2755,
      "##했고": 2756,
      "보는": 2757,
      "트럼프": 2758,
      "인터": 2759,
      "힘들": 2760,
      "같다": 2761,
      "처벌": 2762,
      "개선": 2763,
      "##수를": 2764,
      "##명을": 2765,
      "##하는게": 2766,
      "지나": 2767,
      "전기": 2768,
      "##대통령": 2769,
      "내부": 2770,
      "엄청": 2771,
      "해도": 2772,
      "##명의": 2773,
      "우리는": 2774,
      "경쟁": 2775,
      "하는데": 2776,
      "조금": 2777,
      "가지고": 2778,
      "국민이": 2779,
      "##아요": 2780,
      "드러": 2781,
      "##마라": 2782,
      "한동훈": 2783,
      "##점이": 2784,
      "행사": 2785,
      "결정": 2786,
      "##조사": 2787,
      "이름": 2788,
      "국민을": 2789,
      "##스가": 2790,
      "해당": 2791,
      "##대는": 2792,
      "##원을": 2793,
      "##게임": 2794,
      "##었는데": 2795,
      "##건데": 2796,
      "24": 2797,
      "발전": 2798,
      "관리": 2799,
      "사람들": 2800,
      "보다": 2801,
      "부분": 2802,
      "무엇": 2803,
      "나와": 2804,
      "##부는": 2805,
      "40": 2806,
      "##인은": 2807,
      "당대표": 2808,
      "등의": 2809,
      "전체": 2810,
      "우려": 2811,
      "과거": 2812,
      "##려면": 2813,
      "장애": 2814,
      "지적": 2815,
      "##시가": 2816,
      "##안을": 2817,
      "넘어": 2818,
      "자리": 2819,
      "##서는": 2820,
      "위해서": 2821,
      "##스템": 2822,
      "확대": 2823,
      "성공": 2824,
      "공연": 2825,
      "##마트": 2826,
      "라고": 2827,
      "인사": 2828,
      "그래도": 2829,
      "생산": 2830,
      "공산": 2831,
      "상태": 2832,
      "##지막": 2833,
      "더욱": 2834,
      "있지만": 2835,
      "##르는": 2836,
      "공동": 2837,
      "오는": 2838,
      "##장의": 2839,
      "##장에": 2840,
      "도움": 2841,
      "위원": 2842,
      "##도로": 2843,
      "청년": 2844,
      "##건가": 2845,
      "##제가": 2846,
      "##회의": 2847,
      "의혹": 2848,
      "##것이": 2849,
      "##단체": 2850,
      "그동안": 2851,
      "##시설": 2852,
      "##한데": 2853,
      "아파트": 2854,
      "특별": 2855,
      "##동이": 2856,
      "##수는": 2857,
      "개최": 2858,
      "그리": 2859,
      "생활": 2860,
      "##아니": 2861,
      "##치가": 2862,
      "##랜드": 2863,
      "##이트": 2864,
      "##장관": 2865,
      "프로그램": 2866,
      "관계자는": 2867,
      "##기고": 2868,
      "##민주": 2869,
      "##다면": 2870,
      "스타": 2871,
      "하지만": 2872,
      "##인의": 2873,
      "##대체": 2874,
      "청와대": 2875,
      "물론": 2876,
      "출신": 2877,
      "얘기": 2878,
      "##보는": 2879,
      "공공": 2880,
      "스스로": 2881,
      "마지막": 2882,
      "집중": 2883,
      "비교": 2884,
      "##이스": 2885,
      "국민들이": 2886,
      "이뤄": 2887,
      "17": 2888,
      "인생": 2889,
      "재판": 2890,
      "빨갱": 2891,
      "해서": 2892,
      "전부": 2893,
      "우리가": 2894,
      "어렵": 2895,
      "젊은": 2896,
      "자동": 2897,
      "##나는": 2898,
      "효과": 2899,
      "비롯": 2900,
      "지속": 2901,
      "##시에": 2902,
      "##하지만": 2903,
      "##자로": 2904,
      "현대": 2905,
      "##들만": 2906,
      "##점을": 2907,
      "##수록": 2908,
      "##려서": 2909,
      "전문가": 2910,
      "규모": 2911,
      "아님": 2912,
      "매우": 2913,
      "뭐가": 2914,
      "##회담": 2915,
      "일이": 2916,
      "대단": 2917,
      "받은": 2918,
      "##물이": 2919,
      "모르는": 2920,
      "못한": 2921,
      "##기술": 2922,
      "응원": 2923,
      "##지않": 2924,
      "##만에": 2925,
      "##방역": 2926,
      "##금을": 2927,
      "얼굴": 2928,
      "도대체": 2929,
      "활용": 2930,
      "걱정": 2931,
      "##이상": 2932,
      "##건지": 2933,
      "##산업": 2934,
      "크게": 2935,
      "서민": 2936,
      "의견": 2937,
      "전세": 2938,
      "##하다고": 2939,
      "방법": 2940,
      "미친": 2941,
      "##린다": 2942,
      "경찰은": 2943,
      "연기": 2944,
      "선수": 2945,
      "##조건": 2946,
      "사라": 2947,
      "남북": 2948,
      "##건희": 2949,
      "위험": 2950,
      "강화": 2951,
      "나라를": 2952,
      "주요": 2953,
      "과정": 2954,
      "유치": 2955,
      "필요한": 2956,
      "추천": 2957,
      "니들": 2958,
      "유지": 2959,
      "강조": 2960,
      "1년": 2961,
      "##ㅋㅋㅋ": 2962,
      "집단": 2963,
      "자신의": 2964,
      "대구": 2965,
      "##정책": 2966,
      "##이니": 2967,
      "##보니": 2968,
      "여론": 2969,
      "##문화": 2970,
      "적극": 2971,
      "내년": 2972,
      "##이터": 2973,
      "수출": 2974,
      "##일이": 2975,
      "ㅠㅠ": 2976,
      "##지로": 2977,
      "##란다": 2978,
      "다니": 2979,
      "적용": 2980,
      "제일": 2981,
      "##대에": 2982,
      "광주": 2983,
      "어쩌": 2984,
      "가능성이": 2985,
      "제주": 2986,
      "관광": 2987,
      "오전": 2988,
      "살인": 2989,
      "##지원": 2990,
      "비판": 2991,
      "남자": 2992,
      "성장": 2993,
      "##은행": 2994,
      "##머니": 2995,
      "2찍": 2996,
      "##인들": 2997,
      "서로": 2998,
      "공매": 2999,
      "대선": 3000,
      "##었던": 3001,
      "업무": 3002,
      "분야": 3003,
      "대체": 3004,
      "##어라": 3005,
      "##하다는": 3006,
      "##식으로": 3007,
      "회사": 3008,
      "##때문에": 3009,
      "다만": 3010,
      "구성": 3011,
      "도시": 3012,
      "##이를": 3013,
      "노력": 3014,
      "나서": 3015,
      "한다는": 3016,
      "역할": 3017,
      "##5년": 3018,
      "##스를": 3019,
      "시행": 3020,
      "##인들이": 3021,
      "##했지만": 3022,
      "참가": 3023,
      "##했다는": 3024,
      "예산": 3025,
      "괜찮": 3026,
      "아니면": 3027,
      "##내고": 3028,
      "대해서": 3029,
      "##계가": 3030,
      "##으면서": 3031,
      "유럽": 3032,
      "거의": 3033,
      "전과": 3034,
      "권력": 3035,
      "아무리": 3036,
      "못하고": 3037,
      "무식": 3038,
      "예정이다": 3039,
      "그걸": 3040,
      "사는": 3041,
      "##원의": 3042,
      "못하는": 3043,
      "##OO": 3044,
      "##려라": 3045,
      "설명했다": 3046,
      "이야기": 3047,
      "논란": 3048,
      "##소년": 3049,
      "기간": 3050,
      "김건희": 3051,
      "역사": 3052,
      "##거야": 3053,
      "먹고": 3054,
      "부담": 3055,
      "##000": 3056,
      "##물을": 3057,
      "국회의원": 3058,
      "실시": 3059,
      "잡아": 3060,
      "##에선": 3061,
      "##조작": 3062,
      "##받고": 3063,
      "공부": 3064,
      "되고": 3065,
      "되어": 3066,
      "음악": 3067,
      "경험": 3068,
      "##BC": 3069,
      "##세를": 3070,
      "대깨": 3071,
      "활동": 3072,
      "상승": 3073,
      "고객": 3074,
      "느낌": 3075,
      "대만": 3076,
      "일을": 3077,
      "없애": 3078,
      "##근혜": 3079,
      "존재": 3080,
      "말을": 3081,
      "##난다": 3082,
      "##겠냐": 3083,
      "또한": 3084,
      "##위가": 3085,
      "##연구": 3086,
      "##전을": 3087,
      "혐의": 3088,
      "보호": 3089,
      "선정": 3090,
      "니들이": 3091,
      "개돼지": 3092,
      "고려": 3093,
      "아니냐": 3094,
      "##라인": 3095,
      "##간다": 3096,
      "사람은": 3097,
      "##리아": 3098,
      "##료를": 3099,
      "경찰이": 3100,
      "##소득": 3101,
      "자연": 3102,
      "인상": 3103,
      "행복": 3104,
      "##감이": 3105,
      "##감을": 3106,
      "##지면": 3107,
      "21": 3108,
      "글로": 3109,
      "##국이": 3110,
      "##경제": 3111,
      "최소": 3112,
      "##심히": 3113,
      "##겠다는": 3114,
      "##개발": 3115,
      "##드시": 3116,
      "신고": 3117,
      "##자인": 3118,
      "제작": 3119,
      "##했습니다": 3120,
      "##계를": 3121,
      "휴가": 3122,
      "##국민": 3123,
      "전혀": 3124,
      "##7년": 3125,
      "사망": 3126,
      "##씨는": 3127,
      "직원": 3128,
      "##하시": 3129,
      "인천": 3130,
      "##당은": 3131,
      "정의": 3132,
      "##주택": 3133,
      "사형": 3134,
      "한다고": 3135,
      "##대한": 3136,
      "투표": 3137,
      "##하세요": 3138,
      "무조건": 3139,
      "성과": 3140,
      "상대": 3141,
      "차량": 3142,
      "거래": 3143,
      "시간이": 3144,
      "행정": 3145,
      "가는": 3146,
      "결혼": 3147,
      "고용": 3148,
      "대통령은": 3149,
      "##이란": 3150,
      "##주세요": 3151,
      "기다": 3152,
      "##원에서": 3153,
      "28": 3154,
      "지켜": 3155,
      "##두고": 3156,
      "안되는": 3157,
      "##음을": 3158,
      "##구가": 3159,
      "많다": 3160,
      "안보": 3161,
      "중소": 3162,
      "맞는": 3163,
      "나온다": 3164,
      "자체": 3165,
      "변호": 3166,
      "##더라도": 3167,
      "됐다": 3168,
      "되었": 3169,
      "빨갱이": 3170,
      "##권을": 3171,
      "##선을": 3172,
      "##아라": 3173,
      "우선": 3174,
      "지들": 3175,
      "##겠지만": 3176,
      "##6년": 3177,
      "##석이": 3178,
      "##경찰": 3179,
      "##원에": 3180,
      "공격": 3181,
      "##범죄": 3182,
      "##스타": 3183,
      "오래": 3184,
      "60": 3185,
      "나가": 3186,
      "확실": 3187,
      "대비": 3188,
      "##르게": 3189,
      "##수도": 3190,
      "글로벌": 3191,
      "신경": 3192,
      "혼자": 3193,
      "보니": 3194,
      "##정한": 3195,
      "##과의": 3196,
      "두고": 3197,
      "대응": 3198,
      "하락": 3199,
      "인도": 3200,
      "열심히": 3201,
      "당신이": 3202,
      "000": 3203,
      "나도": 3204,
      "도입": 3205,
      "궁금": 3206,
      "##만큼": 3207,
      "박근혜": 3208,
      "대책": 3209,
      "표현": 3210,
      "재미있": 3211,
      "미국이": 3212,
      "##수사": 3213,
      "바보": 3214,
      "조직": 3215,
      "증거": 3216,
      "##히려": 3217,
      "대상으로": 3218,
      "##단이": 3219,
      "##학생": 3220,
      "실제": 3221,
      "22": 3222,
      "솔직": 3223,
      "집값": 3224,
      "##을때": 3225,
      "높아": 3226,
      "구조": 3227,
      "제기": 3228,
      "##일을": 3229,
      "공급": 3230,
      "이전": 3231,
      "##이었다": 3232,
      "오히려": 3233,
      "받는": 3234,
      "신청": 3235,
      "은행": 3236,
      "하면서": 3237,
      "스토리": 3238,
      "에서": 3239,
      "있으며": 3240,
      "의료": 3241,
      "##환경": 3242,
      "같은데": 3243,
      "##것들": 3244,
      "##업체": 3245,
      "시키": 3246,
      "##되었": 3247,
      "부정": 3248,
      "어찌": 3249,
      "충분": 3250,
      "여행": 3251,
      "등에": 3252,
      "강남": 3253,
      "국정": 3254,
      "중요한": 3255,
      "구매": 3256,
      "##해야지": 3257,
      "분위": 3258,
      "##당한": 3259,
      "27": 3260,
      "받을": 3261,
      "이루": 3262,
      "김정은": 3263,
      "싶은": 3264,
      "영상": 3265,
      "##업을": 3266,
      "주가": 3267,
      "주식": 3268,
      "않아": 3269,
      "최저": 3270,
      "능력": 3271,
      "라는": 3272,
      "##관리": 3273,
      "않는다": 3274,
      "##겠습니다": 3275,
      "##분이": 3276,
      "##위에": 3277,
      "불가": 3278,
      "하다": 3279,
      "스마트": 3280,
      "##나오": 3281,
      "관심이": 3282,
      "ㅡㅡ": 3283,
      "정확": 3284,
      "##안이": 3285,
      "최악": 3286,
      "##는거지": 3287,
      "23": 3288,
      "10년": 3289,
      "이젠": 3290,
      "반드시": 3291,
      "가진": 3292,
      "##일부터": 3293,
      "했는데": 3294,
      "합의": 3295,
      "그녀": 3296,
      "않을": 3297,
      "조성": 3298,
      "있으면": 3299,
      "##것이다": 3300,
      "##장과": 3301,
      "##라면": 3302,
      "건설": 3303,
      "##어가": 3304,
      "##자들은": 3305,
      "##이며": 3306,
      "##사회": 3307,
      "안타": 3308,
      "##이지만": 3309,
      "2018": 3310,
      "발견": 3311,
      "업체": 3312,
      "당장": 3313,
      "으로": 3314,
      "시스템": 3315,
      "독립": 3316,
      "이에": 3317,
      "조용": 3318,
      "시켜": 3319,
      "너희": 3320,
      "머리": 3321,
      "가지": 3322,
      "마스크": 3323,
      "민생": 3324,
      "자체가": 3325,
      "최고의": 3326,
      "지도": 3327,
      "받았": 3328,
      "따른": 3329,
      "확보": 3330,
      "##우는": 3331,
      "어려운": 3332,
      "좌빨": 3333,
      "그대로": 3334,
      "권성": 3335,
      "##하겠다": 3336,
      "##정보": 3337,
      "아는": 3338,
      "##내는": 3339,
      "전에": 3340,
      "##끼리": 3341,
      "##져야": 3342,
      "그런데": 3343,
      "밖에": 3344,
      "행동": 3345,
      "고민": 3346,
      "##이크": 3347,
      "노조": 3348,
      "##사고": 3349,
      "단체": 3350,
      "심각": 3351,
      "한국의": 3352,
      "70": 3353,
      "공매도": 3354,
      "##기간": 3355,
      "##봐야": 3356,
      "플레이": 3357,
      "##선거": 3358,
      "가서": 3359,
      "생각이": 3360,
      "교통": 3361,
      "##부를": 3362,
      "##서를": 3363,
      "요청": 3364,
      "늘어": 3365,
      "희망": 3366,
      "##아먹": 3367,
      "##율이": 3368,
      "처리": 3369,
      "멍청": 3370,
      "##지말고": 3371,
      "##인간": 3372,
      "##겠다고": 3373,
      "나쁜": 3374,
      "운동": 3375,
      "##만한": 3376,
      "##와서": 3377,
      "정도로": 3378,
      "각종": 3379,
      "나이": 3380,
      "##일까지": 3381,
      "운전": 3382,
      "않았다": 3383,
      "##지에": 3384,
      "##자들의": 3385,
      "##어를": 3386,
      "기관": 3387,
      "불편": 3388,
      "##하도록": 3389,
      "뉴스": 3390,
      "바람": 3391,
      "핵심": 3392,
      "평생": 3393,
      "인권": 3394,
      "차지": 3395,
      "##할때": 3396,
      "윤석열이": 3397,
      "그때": 3398,
      "푸틴": 3399,
      "##할수": 3400,
      "자살": 3401,
      "논의": 3402,
      "민간": 3403,
      "그것": 3404,
      "##소를": 3405,
      "##로는": 3406,
      "##나고": 3407,
      "##워서": 3408,
      "전했다": 3409,
      "대법": 3410,
      "발언": 3411,
      "전라도": 3412,
      "금리": 3413,
      "갖고": 3414,
      "나올": 3415,
      "이래": 3416,
      "있게": 3417,
      "2년": 3418,
      "일자리": 3419,
      "##사와": 3420,
      "그의": 3421,
      "202": 3422,
      "홍보": 3423,
      "어린이": 3424,
      "대출": 3425,
      "##신이": 3426,
      "윤통": 3427,
      "주택": 3428,
      "이유가": 3429,
      "##대의": 3430,
      "가까": 3431,
      "앞서": 3432,
      "##되었다": 3433,
      "등으로": 3434,
      "지구": 3435,
      "##자기": 3436,
      "소속": 3437,
      "많아": 3438,
      "자식": 3439,
      "##들고": 3440,
      "비용": 3441,
      "##생활": 3442,
      "이재명이": 3443,
      "##우고": 3444,
      "개딸": 3445,
      "노래": 3446,
      "무역": 3447,
      "항상": 3448,
      "국방": 3449,
      "아름": 3450,
      "##가를": 3451,
      "##도는": 3452,
      "나오는": 3453,
      "과학방역": 3454,
      "윤핵": 3455,
      "##랍니다": 3456,
      "알아": 3457,
      "있어서": 3458,
      "국무": 3459,
      "비슷": 3460,
      "수입": 3461,
      "주고": 3462,
      "인간이": 3463,
      "자동차": 3464,
      "##임을": 3465,
      "경영": 3466,
      "계약": 3467,
      "##2년": 3468,
      "##라서": 3469,
      "없음": 3470,
      "역대": 3471,
      "있지": 3472,
      "쪽팔": 3473,
      "##까요": 3474,
      "##소가": 3475,
      "##텐츠": 3476,
      "난리": 3477,
      "대형": 3478,
      "무서": 3479,
      "우크": 3480,
      "있나": 3481,
      "영국": 3482,
      "수가": 3483,
      "##나서": 3484,
      "음식": 3485,
      "판결": 3486,
      "26": 3487,
      "저렇게": 3488,
      "주는": 3489,
      "##자와": 3490,
      "이걸": 3491,
      "밝혀": 3492,
      "중앙": 3493,
      "전통": 3494,
      "분명": 3495,
      "##하거나": 3496,
      "보기": 3497,
      "노인": 3498,
      "만드는": 3499,
      "##만이": 3500,
      "의사": 3501,
      "##세가": 3502,
      "바뀌": 3503,
      "##놈들": 3504,
      "##려야": 3505,
      "##생각": 3506,
      "강력": 3507,
      "##9년": 3508,
      "있어요": 3509,
      "##없고": 3510,
      "OOO": 3511,
      "아마": 3512,
      "없었": 3513,
      "##방송": 3514,
      "인해": 3515,
      "정부는": 3516,
      "일단": 3517,
      "주목": 3518,
      "지루": 3519,
      "검토": 3520,
      "이하": 3521,
      "##쟁이": 3522,
      "사법": 3523,
      "쉽게": 3524,
      "MBC": 3525,
      "하기": 3526,
      "소득": 3527,
      "##트남": 3528,
      "솔직히": 3529,
      "원래": 3530,
      "##라리": 3531,
      "##스터": 3532,
      "들어가": 3533,
      "있으니": 3534,
      "##당의": 3535,
      "상품": 3536,
      "인터넷": 3537,
      "안하고": 3538,
      "##되면서": 3539,
      "전시": 3540,
      "경기도가": 3541,
      "##아가": 3542,
      "보험": 3543,
      "미국의": 3544,
      "자격": 3545,
      "공간": 3546,
      "돈을": 3547,
      "민주당이": 3548,
      "주인": 3549,
      "##그룹": 3550,
      "가능한": 3551,
      "택시": 3552,
      "치료": 3553,
      "##금이": 3554,
      "대신": 3555,
      "##했을": 3556,
      "##문을": 3557,
      "##사에": 3558,
      "##너지": 3559,
      "무시": 3560,
      "교수": 3561,
      "##운동": 3562,
      "이는": 3563,
      "또는": 3564,
      "바라": 3565,
      "##량이": 3566,
      "만에": 3567,
      "##하기로": 3568,
      "엄마": 3569,
      "당신은": 3570,
      "##등학교": 3571,
      "##거래": 3572,
      "시험": 3573,
      "##국가": 3574,
      "개판": 3575,
      "##트를": 3576,
      "##움을": 3577,
      "한마": 3578,
      "##왔다": 3579,
      "독일": 3580,
      "##성과": 3581,
      "사례": 3582,
      "유명": 3583,
      "목표": 3584,
      "수요": 3585,
      "있음": 3586,
      "사회적": 3587,
      "도로": 3588,
      "##진이": 3589,
      "##이기": 3590,
      "##지게": 3591,
      "##사로": 3592,
      "외국인": 3593,
      "중인": 3594,
      "##스는": 3595,
      "베트남": 3596,
      "평화": 3597,
      "움직": 3598,
      "있네": 3599,
      "거지": 3600,
      "없다는": 3601,
      "##하였다": 3602,
      "지금은": 3603,
      "그나": 3604,
      "gt": 3605,
      "소개": 3606,
      "폐지": 3607,
      "##거냐": 3608,
      "##장으로": 3609,
      "##반도": 3610,
      "끌어": 3611,
      "용산": 3612,
      "우크라": 3613,
      "##해보": 3614,
      "어디서": 3615,
      "싶다": 3616,
      "금지": 3617,
      "안정": 3618,
      "별로": 3619,
      "제가": 3620,
      "시설": 3621,
      "이동": 3622,
      "##아치": 3623,
      "시절": 3624,
      "근로": 3625,
      "놓고": 3626,
      "혁신": 3627,
      "말도": 3628,
      "애들": 3629,
      "지키": 3630,
      "##4년": 3631,
      "반도": 3632,
      "##롭게": 3633,
      "법무": 3634,
      "##비를": 3635,
      "감동": 3636,
      "규제": 3637,
      "위치": 3638,
      "모르고": 3639,
      "##리기": 3640,
      "##도시": 3641,
      "##당히": 3642,
      "달라": 3643,
      "과정에서": 3644,
      "##심이": 3645,
      "지난달": 3646,
      "정상회담": 3647,
      "##관계": 3648,
      "##님이": 3649,
      "반성": 3650,
      "##한게": 3651,
      "##업이": 3652,
      "단순": 3653,
      "사람들은": 3654,
      "##일에": 3655,
      "보유": 3656,
      "##전이": 3657,
      "가져": 3658,
      "대중": 3659,
      "강원": 3660,
      "중소기업": 3661,
      "그가": 3662,
      "대통령의": 3663,
      "##립니다": 3664,
      "윤석렬": 3665,
      "모습을": 3666,
      "있던": 3667,
      "지급": 3668,
      "##한국": 3669,
      "나타났다": 3670,
      "##보다는": 3671,
      "독재": 3672,
      "##비가": 3673,
      "대통": 3674,
      "차라리": 3675,
      "##여서": 3676,
      "3월": 3677,
      "되면": 3678,
      "##이팅": 3679,
      "사람을": 3680,
      "시청": 3681,
      "우수": 3682,
      "전달": 3683,
      "공감": 3684,
      "자꾸": 3685,
      "지하": 3686,
      "통과": 3687,
      "만들고": 3688,
      "부끄": 3689,
      "2차": 3690,
      "감소": 3691,
      "비해": 3692,
      "반영": 3693,
      "##이자": 3694,
      "민주당은": 3695,
      "##수준": 3696,
      "모지": 3697,
      "총선": 3698,
      "##회는": 3699,
      "##다운": 3700,
      "있어야": 3701,
      "##오는": 3702,
      "##행을": 3703,
      "##회에": 3704,
      "현장": 3705,
      "가짜": 3706,
      "없을": 3707,
      "공식": 3708,
      "무기": 3709,
      "여전": 3710,
      "최초": 3711,
      "##시키고": 3712,
      "사기꾼": 3713,
      "##위는": 3714,
      "자신이": 3715,
      "지가": 3716,
      "9월": 3717,
      "##이라면": 3718,
      "좋아하는": 3719,
      "아시아": 3720,
      "오른": 3721,
      "윤핵관": 3722,
      "정부의": 3723,
      "##민이": 3724,
      "느끼": 3725,
      "재산": 3726,
      "29": 3727,
      "##놓은": 3728,
      "##가리": 3729,
      "10월": 3730,
      "기능": 3731,
      "이익": 3732,
      "않다": 3733,
      "##깝다": 3734,
      "다들": 3735,
      "최종": 3736,
      "본격": 3737,
      "안된다": 3738,
      "평균": 3739,
      "3년": 3740,
      "영향을": 3741,
      "벌어": 3742,
      "소방": 3743,
      "기획": 3744,
      "음주": 3745,
      "줄어": 3746,
      "취업": 3747,
      "중심으로": 3748,
      "예술": 3749,
      "석열": 3750,
      "협력": 3751,
      "##시길": 3752,
      "##차가": 3753,
      "대기업": 3754,
      "이라": 3755,
      "쓰고": 3756,
      "장난": 3757,
      "있기": 3758,
      "너는": 3759,
      "##지사": 3760,
      "달러": 3761,
      "알았": 3762,
      "##차피": 3763,
      "거기": 3764,
      "근무": 3765,
      "개정": 3766,
      "##됩니다": 3767,
      "전략": 3768,
      "##수의": 3769,
      "되지": 3770,
      "가정": 3771,
      "##하라고": 3772,
      "출연": 3773,
      "바랍니다": 3774,
      "##3년": 3775,
      "나왔다": 3776,
      "다르": 3777,
      "연결": 3778,
      "##자도": 3779,
      "강제": 3780,
      "5월": 3781,
      "철저": 3782,
      "권성동": 3783,
      "##들에": 3784,
      "건물": 3785,
      "마라": 3786,
      "어차피": 3787,
      "계획이다": 3788,
      "조선족": 3789,
      "문죄": 3790,
      "##고기": 3791,
      "하던": 3792,
      "##규모": 3793,
      "당연히": 3794,
      "##임금": 3795,
      "##질이": 3796,
      "병원": 3797,
      "##심을": 3798,
      "##실을": 3799,
      "도와": 3800,
      "뭔가": 3801,
      "수익": 3802,
      "훨씬": 3803,
      "체험": 3804,
      "매일": 3805,
      "월급": 3806,
      "##리스": 3807,
      "지금까지": 3808,
      "감옥": 3809,
      "각각": 3810,
      "유승": 3811,
      "제시": 3812,
      "백신": 3813,
      "영화를": 3814,
      "역할을": 3815,
      "반도체": 3816,
      "스트": 3817,
      "해야지": 3818,
      "##문이": 3819,
      "소재": 3820,
      "개혁": 3821,
      "살고": 3822,
      "##노총": 3823,
      "##자에게": 3824,
      "##디어": 3825,
      "활성": 3826,
      "##지면서": 3827,
      "##위로": 3828,
      "상식": 3829,
      "##많은": 3830,
      "파악": 3831,
      "강조했다": 3832,
      "##er": 3833,
      "본다": 3834,
      "좋다": 3835,
      "방역": 3836,
      "본인이": 3837,
      "이제는": 3838,
      "끝까지": 3839,
      "##30": 3840,
      "구축": 3841,
      "돈이": 3842,
      "##것들이": 3843,
      "7월": 3844,
      "국민들은": 3845,
      "80": 3846,
      "배신": 3847,
      "장면": 3848,
      "##로남": 3849,
      "##봐도": 3850,
      "뻔뻔": 3851,
      "##수있": 3852,
      "하는거": 3853,
      "관심을": 3854,
      "##군요": 3855,
      "한글": 3856,
      "필요하다": 3857,
      "그룹": 3858,
      "##드를": 3859,
      "제외": 3860,
      "판사": 3861,
      "##안에": 3862,
      "##로남불": 3863,
      "방향": 3864,
      "싫어": 3865,
      "비핵": 3866,
      "것이라는": 3867,
      "마을": 3868,
      "##냐고": 3869,
      "##수수": 3870,
      "영어": 3871,
      "##국의": 3872,
      "물어": 3873,
      "작은": 3874,
      "4월": 3875,
      "모른": 3876,
      "힘든": 3877,
      "사실을": 3878,
      "거리": 3879,
      "상황에서": 3880,
      "##사건": 3881,
      "신뢰": 3882,
      "가만": 3883,
      "순간": 3884,
      "##시킨": 3885,
      "문제를": 3886,
      "중국이": 3887,
      "그러니": 3888,
      "더듬": 3889,
      "중간": 3890,
      "없는데": 3891,
      "좋겠다": 3892,
      "##거라": 3893,
      "시즌": 3894,
      "##민주당": 3895,
      "##같다": 3896,
      "전해": 3897,
      "실제로": 3898,
      "##바이": 3899,
      "정당": 3900,
      "검수": 3901,
      "##적이고": 3902,
      "국토": 3903,
      "연예": 3904,
      "##릭터": 3905,
      "회의": 3906,
      "해임": 3907,
      "##받는": 3908,
      "미세": 3909,
      "북한이": 3910,
      "그저": 3911,
      "보이": 3912,
      "없다고": 3913,
      "달리": 3914,
      "##에만": 3915,
      "##보험": 3916,
      "갑자기": 3917,
      "##나게": 3918,
      "6월": 3919,
      "아무것도": 3920,
      "그럴": 3921,
      "##완박": 3922,
      "뛰어": 3923,
      "##받은": 3924,
      "##복지": 3925,
      "장기": 3926,
      "##가락": 3927,
      "31": 3928,
      "사무": 3929,
      "연출": 3930,
      "동네": 3931,
      "위반": 3932,
      "이러한": 3933,
      "##느라": 3934,
      "맞아": 3935,
      "매출": 3936,
      "##20": 3937,
      "담당": 3938,
      "복지": 3939,
      "##하려고": 3940,
      "문제는": 3941,
      "것입니다": 3942,
      "당선": 3943,
      "##인으로": 3944,
      "##연금": 3945,
      "제한": 3946,
      "알려졌다": 3947,
      "빠져": 3948,
      "##bc": 3949,
      "한류": 3950,
      "광고": 3951,
      "일으": 3952,
      "고통": 3953,
      "하는게": 3954,
      "상관": 3955,
      "##부모": 3956,
      "기념": 3957,
      "500": 3958,
      "하네": 3959,
      "했던": 3960,
      "##나면": 3961,
      "8월": 3962,
      "청소년": 3963,
      "##로부터": 3964,
      "##으니까": 3965,
      "온라인": 3966,
      "##준다": 3967,
      "무료": 3968,
      "점을": 3969,
      "남아": 3970,
      "##기사": 3971,
      "언급": 3972,
      "모습이": 3973,
      "##트가": 3974,
      "##말이": 3975,
      "유튜": 3976,
      "##리도": 3977,
      "군사": 3978,
      "이유는": 3979,
      "불쌍": 3980,
      "##함을": 3981,
      "##정상": 3982,
      "입장": 3983,
      "진출": 3984,
      "맨날": 3985,
      "##성은": 3986,
      "공유": 3987,
      "##듯이": 3988,
      "의무": 3989,
      "##정치": 3990,
      "말씀": 3991,
      "니네": 3992,
      "인구": 3993,
      "##놈이": 3994,
      "필요가": 3995,
      "도내": 3996,
      "##사일": 3997,
      "바꾸": 3998,
      "##보네": 3999,
      "가입": 4000,
      "##1년": 4001,
      "올려": 4002,
      "불안": 4003,
      "중구": 4004,
      "좋았": 4005,
      "자주": 4006,
      "##상에": 4007,
      "해주": 4008,
      "##수로": 4009,
      "혜택": 4010,
      "300": 4011,
      "정신차": 4012,
      "사퇴": 4013,
      "인근": 4014,
      "도움이": 4015,
      "##문제": 4016,
      "통신": 4017,
      "브랜드": 4018,
      "장애인": 4019,
      "##가요": 4020,
      "훈련": 4021,
      "##조차": 4022,
      "하자": 4023,
      "그거": 4024,
      "누군": 4025,
      "원내": 4026,
      "조국": 4027,
      "아래": 4028,
      "있는지": 4029,
      "##는거야": 4030,
      "검찰이": 4031,
      "제도": 4032,
      "##구요": 4033,
      "검수완박": 4034,
      "쓰는": 4035,
      "##하려": 4036,
      "물가": 4037,
      "##50": 4038,
      "진심": 4039,
      "번째": 4040,
      "##한다면": 4041,
      "정신병": 4042,
      "봐라": 4043,
      "##차를": 4044,
      "##주가": 4045,
      "##냈다": 4046,
      "아닐": 4047,
      "아프": 4048,
      "하니": 4049,
      "문재인이": 4050,
      "##계획": 4051,
      "##바로": 4052,
      "선보": 4053,
      "11월": 4054,
      "원하는": 4055,
      "들고": 4056,
      "채용": 4057,
      "##든지": 4058,
      "의심": 4059,
      "하여": 4060,
      "##부에": 4061,
      "자녀": 4062,
      "여전히": 4063,
      "##지마": 4064,
      "2016년": 4065,
      "##회에서": 4066,
      "기반": 4067,
      "##하였": 4068,
      "내로남불": 4069,
      "자유한국": 4070,
      "12월": 4071,
      "알아서": 4072,
      "전환": 4073,
      "없네": 4074,
      "짜증": 4075,
      "인물": 4076,
      "검찰은": 4077,
      "##먹는": 4078,
      "##화에": 4079,
      "여름": 4080,
      "고소": 4081,
      "##어야지": 4082,
      "야당": 4083,
      "##리즈": 4084,
      "##지마라": 4085,
      "지정": 4086,
      "##개의": 4087,
      "##률이": 4088,
      "##것을": 4089,
      "##리로": 4090,
      "아버": 4091,
      "고발": 4092,
      "##자나": 4093,
      "없었다": 4094,
      "##달러": 4095,
      "등장": 4096,
      "제출": 4097,
      "##섰다": 4098,
      "##습니까": 4099,
      "더러운": 4100,
      "성폭": 4101,
      "벌써": 4102,
      "##이로": 4103,
      "##성에": 4104,
      "응원합니다": 4105,
      "인간들": 4106,
      "한마디": 4107,
      "그나마": 4108,
      "있냐": 4109,
      "동물": 4110,
      "이명": 4111,
      "그건": 4112,
      "바란다": 4113,
      "이번에": 4114,
      "##자체": 4115,
      "이라는": 4116,
      "##갔다": 4117,
      "것들이": 4118,
      "느껴": 4119,
      "삼성전": 4120,
      "##상은": 4121,
      "수십": 4122,
      "이란": 4123,
      "소통": 4124,
      "그림": 4125,
      "##하는지": 4126,
      "##거든": 4127,
      "캐릭터": 4128,
      "##구를": 4129,
      "까지": 4130,
      "남편": 4131,
      "##드가": 4132,
      "없어서": 4133,
      "제2": 4134,
      "##세대": 4135,
      "기소": 4136,
      "##아닌": 4137,
      "화장": 4138,
      "##교통": 4139,
      "선생": 4140,
      "무섭": 4141,
      "비상": 4142,
      "됩니다": 4143,
      "그랬": 4144,
      "이사": 4145,
      "이끌": 4146,
      "일어": 4147,
      "서울시": 4148,
      "##안전": 4149,
      "##랑스": 4150,
      "##것은": 4151,
      "받았다": 4152,
      "하늘": 4153,
      "##투자": 4154,
      "##겼다": 4155,
      "##했어요": 4156,
      "가수": 4157,
      "점점": 4158,
      "민주주의": 4159,
      "1월": 4160,
      "##줘야": 4161,
      "경찰대": 4162,
      "제조": 4163,
      "##하기도": 4164,
      "모델": 4165,
      "##예요": 4166,
      "뭐냐": 4167,
      "말하는": 4168,
      "부터": 4169,
      "한반도": 4170,
      "##정에": 4171,
      "특징": 4172,
      "답답": 4173,
      "재앙": 4174,
      "##이들": 4175,
      "##리의": 4176,
      "돌려": 4177,
      "거부": 4178,
      "낮은": 4179,
      "##했으면": 4180,
      "기레기": 4181,
      "향후": 4182,
      "일어나": 4183,
      "평점": 4184,
      "##으로는": 4185,
      "##시대": 4186,
      "##이도": 4187,
      "##기만": 4188,
      "다행": 4189,
      "아침": 4190,
      "##분을": 4191,
      "국민은": 4192,
      "정치인": 4193,
      "봐도": 4194,
      "갈등": 4195,
      "것이라고": 4196,
      "##상납": 4197,
      "##제에": 4198,
      "양아치": 4199,
      "액션": 4200,
      "돼지": 4201,
      "한미": 4202,
      "##부의": 4203,
      "미세먼": 4204,
      "타고": 4205,
      "입니다": 4206,
      "대화": 4207,
      "부탁": 4208,
      "이유로": 4209,
      "생각을": 4210,
      "화재": 4211,
      "##공사": 4212,
      "극우": 4213,
      "##이션": 4214,
      "##단을": 4215,
      "어쩔": 4216,
      "##서비스": 4217,
      "이해가": 4218,
      "한심한": 4219,
      "관련해": 4220,
      "사태": 4221,
      "처럼": 4222,
      "##상도": 4223,
      "촬영": 4224,
      "넘는": 4225,
      "시간을": 4226,
      "수준이": 4227,
      "무능한": 4228,
      "##겁니다": 4229,
      "##느냐": 4230,
      "불러": 4231,
      "##어진": 4232,
      "우크라이나": 4233,
      "유승민": 4234,
      "내용이": 4235,
      "집에": 4236,
      "##라지": 4237,
      "##적을": 4238,
      "전세계": 4239,
      "고양": 4240,
      "친일": 4241,
      "통제": 4242,
      "힘을": 4243,
      "가슴": 4244,
      "토론": 4245,
      "##노동": 4246,
      "그러나": 4247,
      "##조선": 4248,
      "##치기": 4249,
      "설립": 4250,
      "바꿔": 4251,
      "포기": 4252,
      "##인줄": 4253,
      "코스": 4254,
      "모지리": 4255,
      "##약을": 4256,
      "##잡고": 4257,
      "상대로": 4258,
      "생각하는": 4259,
      "경우가": 4260,
      "##회사": 4261,
      "기업이": 4262,
      "대장": 4263,
      "이곳": 4264,
      "보이는": 4265,
      "범죄자": 4266,
      "화이팅": 4267,
      "창업": 4268,
      "징역": 4269,
      "##어버": 4270,
      "공포": 4271,
      "버스": 4272,
      "유일": 4273,
      "없습니다": 4274,
      "늘어나": 4275,
      "게임을": 4276,
      "##량을": 4277,
      "##인거": 4278,
      "##in": 4279,
      "확정": 4280,
      "##원으로": 4281,
      "##럽게": 4282,
      "배경": 4283,
      "돌아가": 4284,
      "##도의": 4285,
      "구체": 4286,
      "2017년": 4287,
      "##와의": 4288,
      "##었고": 4289,
      "뽑아": 4290,
      "약속": 4291,
      "오랜": 4292,
      "환율": 4293,
      "##법을": 4294,
      "통일": 4295,
      "바른": 4296,
      "##하네요": 4297,
      "##장애": 4298,
      "종합": 4299,
      "##이에요": 4300,
      "주인공": 4301,
      "##스러운": 4302,
      "##BS": 4303,
      "매년": 4304,
      "이명박": 4305,
      "제목": 4306,
      "그것도": 4307,
      "성상납": 4308,
      "비난": 4309,
      "징계": 4310,
      "저지": 4311,
      "##운전": 4312,
      "애초": 4313,
      "훌륭": 4314,
      "원전": 4315,
      "##포츠": 4316,
      "##통신": 4317,
      "수상": 4318,
      "적이": 4319,
      "##10": 4320,
      "차별": 4321,
      "반복": 4322,
      "이기": 4323,
      "가능하다": 4324,
      "가스": 4325,
      "경북": 4326,
      "##검사": 4327,
      "선고": 4328,
      "##레스": 4329,
      "과연": 4330,
      "반응": 4331,
      "상황이": 4332,
      "제재": 4333,
      "##디오": 4334,
      "이준석이": 4335,
      "날리면": 4336,
      "모양": 4337,
      "안철": 4338,
      "##이버": 4339,
      "##인과": 4340,
      "취임": 4341,
      "태양": 4342,
      "##져서": 4343,
      "##여명이": 4344,
      "전화": 4345,
      "##더만": 4346,
      "경남": 4347,
      "불구": 4348,
      "##었습니다": 4349,
      "##자에": 4350,
      "출시": 4351,
      "고생": 4352,
      "##질을": 4353,
      "경기도는": 4354,
      "확산": 4355,
      "근거": 4356,
      "정리": 4357,
      "영화가": 4358,
      "관객": 4359,
      "유통": 4360,
      "방침": 4361,
      "##던가": 4362,
      "준석": 4363,
      "롯데": 4364,
      "##기의": 4365,
      "국짐당": 4366,
      "##시키는": 4367,
      "##의가": 4368,
      "##성도": 4369,
      "실패": 4370,
      "중단": 4371,
      "콘텐츠": 4372,
      "투입": 4373,
      "미국은": 4374,
      "성남": 4375,
      "손해": 4376,
      "##있고": 4377,
      "##랐다": 4378,
      "당신의": 4379,
      "북미": 4380,
      "##리게": 4381,
      "가고": 4382,
      "어이": 4383,
      "최저임금": 4384,
      "하게": 4385,
      "##중이": 4386,
      "##상공": 4387,
      "동시에": 4388,
      "인한": 4389,
      "##있네": 4390,
      "##재앙": 4391,
      "눈에": 4392,
      "충분히": 4393,
      "##명은": 4394,
      "##출신": 4395,
      "모자": 4396,
      "호텔": 4397,
      "원내대표": 4398,
      "##선동": 4399,
      "##쳤다": 4400,
      "대통령실": 4401,
      "저러": 4402,
      "물러": 4403,
      "예방": 4404,
      "남성": 4405,
      "무너": 4406,
      "##분에": 4407,
      "아닌데": 4408,
      "대변": 4409,
      "수행": 4410,
      "지금도": 4411,
      "##무리": 4412,
      "##건을": 4413,
      "믿고": 4414,
      "피해를": 4415,
      "##on": 4416,
      "이들이": 4417,
      "중에": 4418,
      "##관을": 4419,
      "##나가": 4420,
      "치매": 4421,
      "전망이다": 4422,
      "못할": 4423,
      "바닥": 4424,
      "##전쟁": 4425,
      "아예": 4426,
      "1일": 4427,
      "도는": 4428,
      "만족": 4429,
      "##정신": 4430,
      "데이터": 4431,
      "않으면": 4432,
      "아니라고": 4433,
      "##격을": 4434,
      "##받아": 4435,
      "##때는": 4436,
      "##0년대": 4437,
      "통합": 4438,
      "듣고": 4439,
      "시도": 4440,
      "간첩": 4441,
      "카드": 4442,
      "하냐": 4443,
      "임대": 4444,
      "비롯해": 4445,
      "것에": 4446,
      "##부장관": 4447,
      "##리그": 4448,
      "2월": 4449,
      "남의": 4450,
      "허위": 4451,
      "##별로": 4452,
      "점검": 4453,
      "##만으로": 4454,
      "도둑": 4455,
      "이상한": 4456,
      "나선": 4457,
      "##이라니": 4458,
      "##품을": 4459,
      "##시오": 4460,
      "스마트폰": 4461,
      "##증을": 4462,
      "따로": 4463,
      "시대": 4464,
      "##였던": 4465,
      "말은": 4466,
      "자료": 4467,
      "##제도": 4468,
      "내용을": 4469,
      "시위": 4470,
      "아쉬": 4471,
      "여당": 4472,
      "모르겠": 4473,
      "혐의로": 4474,
      "비핵화": 4475,
      "##야한다": 4476,
      "##ㅡㅡ": 4477,
      "먹는": 4478,
      "생각해": 4479,
      "피해자": 4480,
      "만약": 4481,
      "수술": 4482,
      "우리나": 4483,
      "199": 4484,
      "공산당": 4485,
      "팩트": 4486,
      "자율": 4487,
      "논란이": 4488,
      "소송": 4489,
      "신규": 4490,
      "##국은": 4491,
      "90": 4492,
      "변화": 4493,
      "##전문": 4494,
      "##거운": 4495,
      "불과": 4496,
      "앞두고": 4497,
      "목소": 4498,
      "양심": 4499,
      "가득": 4500,
      "하나도": 4501,
      "임명": 4502,
      "##격이": 4503,
      "##시켜라": 4504,
      "온갖": 4505,
      "##활동": 4506,
      "3일": 4507,
      "개소리": 4508,
      "수도권": 4509,
      "무죄": 4510,
      "홍콩": 4511,
      "##만명": 4512,
      "##하려는": 4513,
      "##반기": 4514,
      "불가능": 4515,
      "##했으며": 4516,
      "아들": 4517,
      "주도": 4518,
      "없으면": 4519,
      "등록": 4520,
      "##개가": 4521,
      "##시면": 4522,
      "##함이": 4523,
      "지들이": 4524,
      "##발전": 4525,
      "##행이": 4526,
      "##자고": 4527,
      "##스럽게": 4528,
      "회복": 4529,
      "의원이": 4530,
      "작업": 4531,
      "##새끼": 4532,
      "보도했다": 4533,
      "비롯한": 4534,
      "박진": 4535,
      "mbc": 4536,
      "도전": 4537,
      "조심": 4538,
      "대해서는": 4539,
      "안에": 4540,
      "하며": 4541,
      "##선이": 4542,
      "영화는": 4543,
      "##학년": 4544,
      "나중에": 4545,
      "알바": 4546,
      "봤는데": 4547,
      "책임을": 4548,
      "못하게": 4549,
      "##8년": 4550,
      "이상의": 4551,
      "때는": 4552,
      "자빠": 4553,
      "##으려고": 4554,
      "##없음": 4555,
      "형태": 4556,
      "똑같은": 4557,
      "##이에": 4558,
      "전자": 4559,
      "##과는": 4560,
      "해요": 4561,
      "노무": 4562,
      "부자": 4563,
      "못해": 4564,
      "겨울": 4565,
      "특정": 4566,
      "##수수색": 4567,
      "대통령을": 4568,
      "##히는": 4569,
      "앞에서": 4570,
      "##평가": 4571,
      "결론": 4572,
      "나머": 4573,
      "##4범": 4574,
      "사실이": 4575,
      "기초": 4576,
      "연락": 4577,
      "같아": 4578,
      "어제": 4579,
      "##청은": 4580,
      "전반": 4581,
      "##되며": 4582,
      "대통령과": 4583,
      "선발": 4584,
      "사실상": 4585,
      "상담": 4586,
      "지시": 4587,
      "위해서는": 4588,
      "예전": 4589,
      "자랑": 4590,
      "2015년": 4591,
      "ㅎㅎㅎ": 4592,
      "주가조작": 4593,
      "##일보": 4594,
      "오르": 4595,
      "목숨": 4596,
      "밀어": 4597,
      "모여": 4598,
      "##세로": 4599,
      "선진": 4600,
      "비리": 4601,
      "##기와": 4602,
      "##므로": 4603,
      "국민의힘": 4604,
      "##하겠다는": 4605,
      "##쓰고": 4606,
      "대표가": 4607,
      "타이": 4608,
      "##하다가": 4609,
      "중공": 4610,
      "##서가": 4611,
      "##권이": 4612,
      "더불어민주당": 4613,
      "##대학": 4614,
      "TV": 4615,
      "압수수색": 4616,
      "5일": 4617,
      "억울": 4618,
      "##병원": 4619,
      "##상황": 4620,
      "너도": 4621,
      "##국에": 4622,
      "항공": 4623,
      "변호사": 4624,
      "그러면": 4625,
      "##가족": 4626,
      "있다면": 4627,
      "현지시간": 4628,
      "##가면": 4629,
      "펼쳐": 4630,
      "쏟아": 4631,
      "이정도": 4632,
      "##소에": 4633,
      "내일": 4634,
      "올리": 4635,
      "##지요": 4636,
      "놈들": 4637,
      "바다": 4638,
      "##용이": 4639,
      "가해": 4640,
      "##는거다": 4641,
      "국개": 4642,
      "대전": 4643,
      "자본": 4644,
      "한국에": 4645,
      "업계": 4646,
      "우리의": 4647,
      "##도에": 4648,
      "##온다": 4649,
      "##으로써": 4650,
      "것들": 4651,
      "나의": 4652,
      "축구": 4653,
      "##플레이": 4654,
      "##적이다": 4655,
      "실망": 4656,
      "##께서": 4657,
      "맞춰": 4658,
      "고위": 4659,
      "졸업": 4660,
      "몰아": 4661,
      "참고": 4662,
      "##대책": 4663,
      "##인듯": 4664,
      "지지하는": 4665,
      "##길을": 4666,
      "이루어": 4667,
      "비싸": 4668,
      "김문": 4669,
      "##들이다": 4670,
      "양산": 4671,
      "프랑스": 4672,
      "긍정": 4673,
      "##리한": 4674,
      "수밖에": 4675,
      "##스럽다": 4676,
      "##겠나": 4677,
      "윤대통령": 4678,
      "##뉴스": 4679,
      "생긴": 4680,
      "되었다": 4681,
      "조정": 4682,
      "집행": 4683,
      "감독이": 4684,
      "너네": 4685,
      "강한": 4686,
      "조용히": 4687,
      "사업을": 4688,
      "##번째": 4689,
      "미사일": 4690,
      "정책을": 4691,
      "##주면": 4692,
      "옛날": 4693,
      "##었다고": 4694,
      "가르": 4695,
      "좋겠": 4696,
      "인식": 4697,
      "##해야한다": 4698,
      "만드": 4699,
      "##위해": 4700,
      "6개월": 4701,
      "중국의": 4702,
      "종교": 4703,
      "##님의": 4704,
      "반발": 4705,
      "더이상": 4706,
      "마찬": 4707,
      "아동": 4708,
      "아닙": 4709,
      "떠나": 4710,
      "한국은": 4711,
      "인재": 4712,
      "입학": 4713,
      "##개혁": 4714,
      "거쳐": 4715,
      "##상의": 4716,
      "변경": 4717,
      "##싶다": 4718,
      "에너지": 4719,
      "다가": 4720,
      "##an": 4721,
      "##하신": 4722,
      "##지의": 4723,
      "건축": 4724,
      "욕설": 4725,
      "##져라": 4726,
      "최악의": 4727,
      "##건이": 4728,
      "위협": 4729,
      "##씨의": 4730,
      "아까": 4731,
      "##연합": 4732,
      "제안": 4733,
      "미리": 4734,
      "##지어": 4735,
      "전과4범": 4736,
      "공사": 4737,
      "매국": 4738,
      "##관광": 4739,
      "##부와": 4740,
      "##실이": 4741,
      "##스의": 4742,
      "아냐": 4743,
      "통한": 4744,
      "##라니": 4745,
      "##음이": 4746,
      "잘못된": 4747,
      "프레": 4748,
      "자유한국당": 4749,
      "##요일": 4750,
      "명이": 4751,
      "새끼": 4752,
      "마음이": 4753,
      "있었던": 4754,
      "##군이": 4755,
      "조치": 4756,
      "가게": 4757,
      "영원": 4758,
      "네이버": 4759,
      "놈이": 4760,
      "보통": 4761,
      "##하는건": 4762,
      "회담": 4763,
      "##있는데": 4764,
      "내고": 4765,
      "일은": 4766,
      "들이": 4767,
      "아니지": 4768,
      "인터뷰": 4769,
      "##할까": 4770,
      "하세요": 4771,
      "라이": 4772,
      "임금": 4773,
      "##상으로": 4774,
      "##메라": 4775,
      "##걸로": 4776,
      "##화국": 4777,
      "찬성": 4778,
      "이들": 4779,
      "나오고": 4780,
      "잡고": 4781,
      "네가": 4782,
      "##분들": 4783,
      "##에게는": 4784,
      "헛소리": 4785,
      "멤버": 4786,
      "폭행": 4787,
      "프리": 4788,
      "차례": 4789,
      "##개를": 4790,
      "처음으로": 4791,
      "의원은": 4792,
      "이슈": 4793,
      "말로": 4794,
      "접근": 4795,
      "관한": 4796,
      "방식": 4797,
      "4년": 4798,
      "가면": 4799,
      "##부로": 4800,
      "##사람이": 4801,
      "헌법": 4802,
      "##의회": 4803,
      "세월": 4804,
      "게임이": 4805,
      "절반": 4806,
      "집권": 4807,
      "봐야": 4808,
      "크다": 4809,
      "니들은": 4810,
      "안된": 4811,
      "도착": 4812,
      "희생": 4813,
      "##본다": 4814,
      "마치": 4815,
      "장관이": 4816,
      "새로": 4817,
      "높다": 4818,
      "같습니다": 4819,
      "위에": 4820,
      "학부모": 4821,
      "재밌게": 4822,
      "##만의": 4823,
      "프로젝": 4824,
      "유튜브": 4825,
      "##영업": 4826,
      "##관은": 4827,
      "무식한": 4828,
      "##하니까": 4829,
      "상황을": 4830,
      "##널드": 4831,
      "저녁": 4832,
      "##과학": 4833,
      "##짜리": 4834,
      "##제는": 4835,
      "이딴": 4836,
      "##들한테": 4837,
      "없지": 4838,
      "아름다운": 4839,
      "재정": 4840,
      "직장": 4841,
      "아나": 4842,
      "경찰에": 4843,
      "##이드": 4844,
      "##기지": 4845,
      "##결과": 4846,
      "똑같": 4847,
      "참석한": 4848,
      "짱깨": 4849,
      "이재": 4850,
      "눈치": 4851,
      "##인가요": 4852,
      "사전": 4853,
      "##처리": 4854,
      "##은거": 4855,
      "거주": 4856,
      "당원": 4857,
      "##을듯": 4858,
      "##op": 4859,
      "##ㅎㅎ": 4860,
      "##하러": 4861,
      "##랫폼": 4862,
      "##스코": 4863,
      "둘러": 4864,
      "교체": 4865,
      "##단은": 4866,
      "##으로서": 4867,
      "##을텐데": 4868,
      "##ㅠㅠ": 4869,
      "비행": 4870,
      "노무현": 4871,
      "작가": 4872,
      "ㅉㅉㅉ": 4873,
      "윤정부": 4874,
      "##대학교": 4875,
      "때려": 4876,
      "##로서": 4877,
      "모두가": 4878,
      "##드립니다": 4879,
      "수사를": 4880,
      "원칙": 4881,
      "20년": 4882,
      "분양": 4883,
      "곳이": 4884,
      "##한건": 4885,
      "##보자": 4886,
      "1억": 4887,
      "내부총": 4888,
      "울산": 4889,
      "케이": 4890,
      "##마을": 4891,
      "결과를": 4892,
      "##가지고": 4893,
      "##점은": 4894,
      "##말로": 4895,
      "##대회": 4896,
      "##화된": 4897,
      "학생들이": 4898,
      "4일": 4899,
      "윤석열은": 4900,
      "꾸준": 4901,
      "보장": 4902,
      "나섰다": 4903,
      "##금융": 4904,
      "대법원": 4905,
      "가치": 4906,
      "마무리": 4907,
      "국익": 4908,
      "도널드": 4909,
      "정치적": 4910,
      "그렇지": 4911,
      "정보를": 4912,
      "관람": 4913,
      "조폭": 4914,
      "겁니다": 4915,
      "취소": 4916,
      "##관에서": 4917,
      "내놓": 4918,
      "똑같이": 4919,
      "##단다": 4920,
      "##간의": 4921,
      "지적했다": 4922,
      "입장을": 4923,
      "##명으로": 4924,
      "효과가": 4925,
      "블록": 4926,
      "발생한": 4927,
      "##셔서": 4928,
      "유치원": 4929,
      "##되기": 4930,
      "연속": 4931,
      "학습": 4932,
      "했다고": 4933,
      "10일": 4934,
      "싶어": 4935,
      "한국에서": 4936,
      "풀어": 4937,
      "해석": 4938,
      "##시절": 4939,
      "ㅜㅜ": 4940,
      "진보": 4941,
      "맞지": 4942,
      "창출": 4943,
      "##유가": 4944,
      "##죄명": 4945,
      "##운드": 4946,
      "##아야지": 4947,
      "확진": 4948,
      "초반": 4949,
      "##화폐": 4950,
      "마찬가지": 4951,
      "여야": 4952,
      "기여": 4953,
      "제1": 4954,
      "##조가": 4955,
      "##공항": 4956,
      "##만을": 4957,
      "민족": 4958,
      "영업": 4959,
      "##단의": 4960,
      "##실에서": 4961,
      "생각한다": 4962,
      "완전히": 4963,
      "악마": 4964,
      "열리는": 4965,
      "##임이": 4966,
      "##따라": 4967,
      "구청": 4968,
      "이재명은": 4969,
      "무지": 4970,
      "##는거냐": 4971,
      "1000": 4972,
      "##돌아": 4973,
      "연금": 4974,
      "##말을": 4975,
      "##당을": 4976,
      "##미디": 4977,
      "굳이": 4978,
      "##시켰": 4979,
      "대규모": 4980,
      "##어로": 4981,
      "빠른": 4982,
      "출산": 4983,
      "않나": 4984,
      "뉴욕": 4985,
      "의해": 4986,
      "했지만": 4987,
      "같아요": 4988,
      "안나": 4989,
      "##주민": 4990,
      "경찰국": 4991,
      "이야기를": 4992,
      "뒤집": 4993,
      "맞다": 4994,
      "것과": 4995,
      "##하길": 4996,
      "##리와": 4997,
      "##지기": 4998,
      "동의": 4999,
      "지지율이": 5000,
      "인기": 5001,
      "##웠다": 5002,
      "저소득": 5003,
      "활성화": 5004,
      "비대": 5005,
      "진정한": 5006,
      "자기가": 5007,
      "기사를": 5008,
      "이다": 5009,
      "##주기": 5010,
      "##주시": 5011,
      "의견을": 5012,
      "답이다": 5013,
      "비슷한": 5014,
      "기분": 5015,
      "우려가": 5016,
      "세상이": 5017,
      "##았던": 5018,
      "작년": 5019,
      "##히고": 5020,
      "##곳에": 5021,
      "죄다": 5022,
      "편의": 5023,
      "따뜻": 5024,
      "세금으로": 5025,
      "대북": 5026,
      "세종": 5027,
      "그래픽": 5028,
      "서비스를": 5029,
      "작성": 5030,
      "전남": 5031,
      "1차": 5032,
      "##들로": 5033,
      "##치지": 5034,
      "##진핑": 5035,
      "가만히": 5036,
      "일정": 5037,
      "에휴": 5038,
      "집에서": 5039,
      "##보기": 5040,
      "이놈": 5041,
      "북한의": 5042,
      "거야": 5043,
      "나무": 5044,
      "중국은": 5045,
      "축하": 5046,
      "명의": 5047,
      "##나다": 5048,
      "##or": 5049,
      "대한민국의": 5050,
      "##았는데": 5051,
      "주로": 5052,
      "##스러": 5053,
      "##미가": 5054,
      "국립": 5055,
      "빠르게": 5056,
      "단계": 5057,
      "할수": 5058,
      "##거고": 5059,
      "어머니": 5060,
      "공모": 5061,
      "##달라고": 5062,
      "우승": 5063,
      "여기서": 5064,
      "기회": 5065,
      "덧붙": 5066,
      "하는지": 5067,
      "먹을": 5068,
      "인증": 5069,
      "떨어진": 5070,
      "##악한": 5071,
      "미국과": 5072,
      "뽑은": 5073,
      "있을까": 5074,
      "주문": 5075,
      "담배": 5076,
      "수많은": 5077,
      "##다른": 5078,
      "아쉽": 5079,
      "단속": 5080,
      "안내": 5081,
      "##는가": 5082,
      "1위": 5083,
      "7일": 5084,
      "##보단": 5085,
      "청구": 5086,
      "자산": 5087,
      "남은": 5088,
      "마이": 5089,
      "메시": 5090,
      "알게": 5091,
      "일자": 5092,
      "##점에서": 5093,
      "보건": 5094,
      "##먹을": 5095,
      "##움이": 5096,
      "AI": 5097,
      "주장했다": 5098,
      "가야": 5099,
      "##대가리": 5100,
      "도망": 5101,
      "펠로": 5102,
      "1만": 5103,
      "완벽": 5104,
      "##청이": 5105,
      "점에서": 5106,
      "##보내": 5107,
      "##복을": 5108,
      "주관": 5109,
      "특수": 5110,
      "주최": 5111,
      "활동을": 5112,
      "기회를": 5113,
      "중이다": 5114,
      "##그러": 5115,
      "##하지말고": 5116,
      "완성": 5117,
      "유엔": 5118,
      "애들이": 5119,
      "##이어": 5120,
      "##받을": 5121,
      "왔다": 5122,
      "시리즈": 5123,
      "주세요": 5124,
      "찍은": 5125,
      "내부총질": 5126,
      "의미가": 5127,
      "##시스템": 5128,
      "##던지": 5129,
      "##감독": 5130,
      "##해진": 5131,
      "##방에": 5132,
      "##학과": 5133,
      "##호가": 5134,
      "몰라": 5135,
      "대기": 5136,
      "사람의": 5137,
      "수원": 5138,
      "정작": 5139,
      "관광객": 5140,
      "##봤다": 5141,
      "디자인": 5142,
      "즐길": 5143,
      "부과": 5144,
      "정확한": 5145,
      "##시민": 5146,
      "12일": 5147,
      "앞에": 5148,
      "##겹다": 5149,
      "이나라": 5150,
      "아시": 5151,
      "##었으면": 5152,
      "갈라": 5153,
      "명예": 5154,
      "11일": 5155,
      "한국이": 5156,
      "손가락": 5157,
      "없으니": 5158,
      "것처럼": 5159,
      "저질": 5160,
      "해체": 5161,
      "회장": 5162,
      "20일": 5163,
      "등등": 5164,
      "##진을": 5165,
      "저거": 5166,
      "##먹은": 5167,
      "##머리": 5168,
      "가라": 5169,
      "##법이": 5170,
      "추정": 5171,
      "대장동": 5172,
      "느그": 5173,
      "##카오": 5174,
      "플랫폼": 5175,
      "거다": 5176,
      "불구하고": 5177,
      "금액": 5178,
      "##TV": 5179,
      "통화": 5180,
      "깨끗": 5181,
      "아깝다": 5182,
      "##매매": 5183,
      "##하겠다고": 5184,
      "일제": 5185,
      "가격이": 5186,
      "새벽": 5187,
      "취급": 5188,
      "나와서": 5189,
      "법을": 5190,
      "월드": 5191,
      "대회": 5192,
      "진정": 5193,
      "##일까": 5194,
      "##었지만": 5195,
      "부인": 5196,
      "주차": 5197,
      "##그래": 5198,
      "나누": 5199,
      "태양광": 5200,
      "전정권": 5201,
      "찾는": 5202,
      "주말": 5203,
      "개념": 5204,
      "사장": 5205,
      "디지": 5206,
      "혹시": 5207,
      "대표는": 5208,
      "무엇보다": 5209,
      "##없어": 5210,
      "2018년": 5211,
      "전면": 5212,
      "후반": 5213,
      "한국인": 5214,
      "초등": 5215,
      "##카드": 5216,
      "마음을": 5217,
      "전투": 5218,
      "페미": 5219,
      "흔들": 5220,
      "##보드": 5221,
      "##NS": 5222,
      "공공기관": 5223,
      "결과가": 5224,
      "그만큼": 5225,
      "소비자": 5226,
      "##절한": 5227,
      "##성장": 5228,
      "미국에": 5229,
      "누구나": 5230,
      "##까지는": 5231,
      "##이든": 5232,
      "신설": 5233,
      "멍청한": 5234,
      "치고": 5235,
      "투기": 5236,
      "배달": 5237,
      "##점에": 5238,
      "##상에서": 5239,
      "대놓고": 5240,
      "바탕": 5241,
      "##거면": 5242,
      "갈수록": 5243,
      "2일": 5244,
      "언제까지": 5245,
      "27일": 5246,
      "이와": 5247,
      "이용해": 5248,
      "논문": 5249,
      "##당에": 5250,
      "##우가": 5251,
      "##사에서": 5252,
      "직업": 5253,
      "발표한": 5254,
      "스포츠": 5255,
      "##항공": 5256,
      "다녀": 5257,
      "여기에": 5258,
      "잘하고": 5259,
      "이럴": 5260,
      "김영": 5261,
      "미안": 5262,
      "##지와": 5263,
      "완료": 5264,
      "외교참": 5265,
      "##상태": 5266,
      "찍어": 5267,
      "기가": 5268,
      "민노총": 5269,
      "살펴": 5270,
      "##리오": 5271,
      "지원을": 5272,
      "##좋은": 5273,
      "##는건": 5274,
      "##금으로": 5275,
      "매력": 5276,
      "폐기": 5277,
      "하지말고": 5278,
      "SK": 5279,
      "시원": 5280,
      "보조": 5281,
      "##해가": 5282,
      "확실히": 5283,
      "##페인": 5284,
      "8일": 5285,
      "시진핑": 5286,
      "18일": 5287,
      "견찰": 5288,
      "출발": 5289,
      "##형을": 5290,
      "소유": 5291,
      "신용": 5292,
      "##사항": 5293,
      "여러분": 5294,
      "기부": 5295,
      "자막": 5296,
      "이라며": 5297,
      "협박": 5298,
      "##경이": 5299,
      "35": 5300,
      "##리카": 5301,
      "##려나": 5302,
      "그녀는": 5303,
      "긴장": 5304,
      "애초에": 5305,
      "이리": 5306,
      "체결": 5307,
      "2014년": 5308,
      "내내": 5309,
      "##보가": 5310,
      "##역을": 5311,
      "교사": 5312,
      "##부지": 5313,
      "음주운전": 5314,
      "마누": 5315,
      "15일": 5316,
      "자영업": 5317,
      "키워": 5318,
      "끝난": 5319,
      "분노": 5320,
      "준석이": 5321,
      "##류가": 5322,
      "방안을": 5323,
      "너무나": 5324,
      "5년간": 5325,
      "눈이": 5326,
      "국가가": 5327,
      "나오면": 5328,
      "받지": 5329,
      "전기차": 5330,
      "평양": 5331,
      "##원전": 5332,
      "##바닥": 5333,
      "인간들이": 5334,
      "생기": 5335,
      "##집단": 5336,
      "##만들": 5337,
      "심지어": 5338,
      "이벤": 5339,
      "이들은": 5340,
      "##기준": 5341,
      "예상된다": 5342,
      "생겼": 5343,
      "환불": 5344,
      "##신을": 5345,
      "##차례": 5346,
      "군대": 5347,
      "왜이": 5348,
      "조합": 5349,
      "##짓을": 5350,
      "차이가": 5351,
      "모르겠다": 5352,
      "2번": 5353,
      "선언": 5354,
      "개입": 5355,
      "신속": 5356,
      "어른": 5357,
      "회원": 5358,
      "애플": 5359,
      "제거": 5360,
      "통계": 5361,
      "19일": 5362,
      "##리네": 5363,
      "20대": 5364,
      "사상": 5365,
      "14일": 5366,
      "커피": 5367,
      "##간에": 5368,
      "##했지": 5369,
      "점이": 5370,
      "철저히": 5371,
      "##러스": 5372,
      "##줘라": 5373,
      "동일": 5374,
      "말해": 5375,
      "법인": 5376,
      "씨가": 5377,
      "LG": 5378,
      "인수": 5379,
      "시각": 5380,
      "##었나": 5381,
      "##미래": 5382,
      "못했다": 5383,
      "##잖아요": 5384,
      "사람도": 5385,
      "정치를": 5386,
      "싱가": 5387,
      "##스토": 5388,
      "##요금": 5389,
      "취재": 5390,
      "할인": 5391,
      "##시킬": 5392,
      "##진흥": 5393,
      "엄청난": 5394,
      "해보": 5395,
      "검증": 5396,
      "##방울": 5397,
      "이래서": 5398,
      "##이의": 5399,
      "그래야": 5400,
      "##식에": 5401,
      "말한": 5402,
      "흥미": 5403,
      "##서에": 5404,
      "카메라": 5405,
      "생각합니다": 5406,
      "한심하다": 5407,
      "##보호": 5408,
      "주둥": 5409,
      "##쳐서": 5410,
      "선제": 5411,
      "##다는게": 5412,
      "어울": 5413,
      "##행정": 5414,
      "##분기": 5415,
      "휴대": 5416,
      "##언론": 5417,
      "법원": 5418,
      "이른": 5419,
      "##리며": 5420,
      "덧붙였다": 5421,
      "브라": 5422,
      "##자치": 5423,
      "##했네": 5424,
      "##싶은": 5425,
      "30일": 5426,
      "##주를": 5427,
      "##럽다": 5428,
      "대가": 5429,
      "있나요": 5430,
      "똑똑": 5431,
      "압박": 5432,
      "##협력": 5433,
      "부족한": 5434,
      "지하철": 5435,
      "공천": 5436,
      "28일": 5437,
      "실행": 5438,
      "인공": 5439,
      "##구는": 5440,
      "SNS": 5441,
      "나라의": 5442,
      "남녀": 5443,
      "아무도": 5444,
      "##림픽": 5445,
      "##직원": 5446,
      "##체를": 5447,
      "않도록": 5448,
      "많고": 5449,
      "모바": 5450,
      "1조": 5451,
      "국회의": 5452,
      "권한": 5453,
      "##시기": 5454,
      "이상이": 5455,
      "##비용": 5456,
      "승인": 5457,
      "##자들을": 5458,
      "기회가": 5459,
      "죽은": 5460,
      "##라가": 5461,
      "##협회": 5462,
      "최소한": 5463,
      "김문수": 5464,
      "##금지": 5465,
      "##됐다고": 5466,
      "스토킹": 5467,
      "##두환": 5468,
      "##는데도": 5469,
      "##주로": 5470,
      "##예술": 5471,
      "이런거": 5472,
      "안철수": 5473,
      "해소": 5474,
      "##버스": 5475,
      "챙겨": 5476,
      "##면서도": 5477,
      "##위원장": 5478,
      "6일": 5479,
      "외부": 5480,
      "아닙니다": 5481,
      "실질": 5482,
      "윤가": 5483,
      "모아": 5484,
      "노출": 5485,
      "쉽지": 5486,
      "세상에": 5487,
      "없어요": 5488,
      "##체인": 5489,
      "공장": 5490,
      "##할듯": 5491,
      "##정부가": 5492,
      "심각한": 5493,
      "인력": 5494,
      "##ar": 5495,
      "##비는": 5496,
      "법카": 5497,
      "많은데": 5498,
      "##중앙": 5499,
      "시급": 5500,
      "##같은데": 5501,
      "구입": 5502,
      "남탓": 5503,
      "카카오": 5504,
      "냄새": 5505,
      "명작": 5506,
      "##훈련": 5507,
      "자리를": 5508,
      "협의": 5509,
      "내는": 5510,
      "죽을": 5511,
      "조만": 5512,
      "##이즈": 5513,
      "##구조": 5514,
      "##목을": 5515,
      "사진을": 5516,
      "동맹": 5517,
      "이러니": 5518,
      "##했는지": 5519,
      "##유치": 5520,
      "건희": 5521,
      "보낸": 5522,
      "48": 5523,
      "한테": 5524,
      "끌고": 5525,
      "수백": 5526,
      "##xx": 5527,
      "##주년": 5528,
      "사고가": 5529,
      "몰랐": 5530,
      "방식으로": 5531,
      "##명한": 5532,
      "##구로": 5533,
      "##세력": 5534,
      "소상공": 5535,
      "##생이": 5536,
      "지자체": 5537,
      "##건축": 5538,
      "거니": 5539,
      "없나": 5540,
      "##tt": 5541,
      "##대고": 5542,
      "논리": 5543,
      "허용": 5544,
      "진실": 5545,
      "미세먼지": 5546,
      "9일": 5547,
      "##페이": 5548,
      "성범죄": 5549,
      "##놀이": 5550,
      "동영": 5551,
      "와서": 5552,
      "코미디": 5553,
      "한국어": 5554,
      "방탄": 5555,
      "##고를": 5556,
      "##친다": 5557,
      "이자": 5558,
      "평소": 5559,
      "아이들이": 5560,
      "들어서": 5561,
      "받아야": 5562,
      "접수": 5563,
      "##배우": 5564,
      "선동질": 5565,
      "나름": 5566,
      "사면": 5567,
      "##되는데": 5568,
      "생각하고": 5569,
      "##아버": 5570,
      "##안부": 5571,
      "김정": 5572,
      "놈들이": 5573,
      "질병": 5574,
      "생명": 5575,
      "##타임": 5576,
      "선물": 5577,
      "##제한": 5578,
      "##씨를": 5579,
      "26일": 5580,
      "멀티": 5581,
      "##회견": 5582,
      "##본부": 5583,
      "25일": 5584,
      "최초로": 5585,
      "기득": 5586,
      "##리자": 5587,
      "##고도": 5588,
      "늙은": 5589,
      "폭염": 5590,
      "쓰레": 5591,
      "##화로": 5592,
      "장악": 5593,
      "1인": 5594,
      "21일": 5595,
      "17일": 5596,
      "공약": 5597,
      "콘서": 5598,
      "제품을": 5599,
      "모바일": 5600,
      "흐름": 5601,
      "##라스": 5602,
      "대한민국이": 5603,
      "폭발": 5604,
      "13일": 5605,
      "##있어": 5606,
      "23일": 5607,
      "찢재명": 5608,
      "빼고": 5609,
      "공직": 5610,
      "되는데": 5611,
      "##포르": 5612,
      "개편": 5613,
      "22일": 5614,
      "한편": 5615,
      "##어리": 5616,
      "게임은": 5617,
      "삶을": 5618,
      "전용": 5619,
      "##졌네": 5620,
      "##경기": 5621,
      "겨우": 5622,
      "답변": 5623,
      "인기를": 5624,
      "##식품": 5625,
      "##제품": 5626,
      "연장": 5627,
      "법이": 5628,
      "시장이": 5629,
      "일하는": 5630,
      "##체육": 5631,
      "도민": 5632,
      "농업": 5633,
      "몰입": 5634,
      "쌍욕": 5635,
      "올린": 5636,
      "웃기": 5637,
      "태극": 5638,
      "##조리": 5639,
      "개검": 5640,
      "대다": 5641,
      "지능": 5642,
      "##금리": 5643,
      "##필요": 5644,
      "개가": 5645,
      "대박": 5646,
      "##아도": 5647,
      "왜곡": 5648,
      "##가능": 5649,
      "발굴": 5650,
      "혼란": 5651,
      "##니스": 5652,
      "너의": 5653,
      "단지": 5654,
      "동원": 5655,
      "##부대": 5656,
      "##네시아": 5657,
      "##있음": 5658,
      "보이고": 5659,
      "적은": 5660,
      "뭐라": 5661,
      "입만": 5662,
      "디지털": 5663,
      "하시": 5664,
      "다소": 5665,
      "##의도": 5666,
      "떨어지는": 5667,
      "규모의": 5668,
      "임기": 5669,
      "하나의": 5670,
      "않을까": 5671,
      "후원": 5672,
      "적폐": 5673,
      "##방을": 5674,
      "능력이": 5675,
      "후회": 5676,
      "운영하는": 5677,
      "일상": 5678,
      "예측": 5679,
      "##at": 5680,
      "다수": 5681,
      "출근": 5682,
      "않습니다": 5683,
      "진입": 5684,
      "언론이": 5685,
      "불이": 5686,
      "하는짓": 5687,
      "##데타": 5688,
      "##었어요": 5689,
      "지역의": 5690,
      "넘게": 5691,
      "배출": 5692,
      "24일": 5693,
      "아내": 5694,
      "##점으로": 5695,
      "##구역": 5696,
      "법률": 5697,
      "손을": 5698,
      "감염": 5699,
      "##연이": 5700,
      "나머지": 5701,
      "##했음": 5702,
      "나쁘": 5703,
      "설계": 5704,
      "힘이": 5705,
      "##추고": 5706,
      "개미": 5707,
      "관련된": 5708,
      "무서운": 5709,
      "##om": 5710,
      "##외교": 5711,
      "##al": 5712,
      "분위기": 5713,
      "끝나": 5714,
      "윤재앙": 5715,
      "##워크": 5716,
      "기상": 5717,
      "담긴": 5718,
      "자가": 5719,
      "초등학교": 5720,
      "강력한": 5721,
      "몰려": 5722,
      "좋고": 5723,
      "##보수": 5724,
      "인도네시아": 5725,
      "버그": 5726,
      "수업": 5727,
      "적당히": 5728,
      "측은": 5729,
      "##시험": 5730,
      "##겠죠": 5731,
      "경제가": 5732,
      "##중한": 5733,
      "##에서의": 5734,
      "198": 5735,
      "내려와": 5736,
      "검색": 5737,
      "주거": 5738,
      "상당": 5739,
      "##하더니": 5740,
      "##공화국": 5741,
      "##했냐": 5742,
      "국민연금": 5743,
      "##했으나": 5744,
      "존나": 5745,
      "경호": 5746,
      "구분": 5747,
      "연계": 5748,
      "조사를": 5749,
      "측면": 5750,
      "보여주는": 5751,
      "조만간": 5752,
      "1도": 5753,
      "##놈들이": 5754,
      "우리도": 5755,
      "치킨": 5756,
      "##들여": 5757,
      "##트는": 5758,
      "##었음": 5759,
      "마세요": 5760,
      "##은혜": 5761,
      "위치한": 5762,
      "위기": 5763,
      "입주": 5764,
      "##시를": 5765,
      "##선언": 5766,
      "##너무": 5767,
      "기자회견": 5768,
      "윤리": 5769,
      "들여": 5770,
      "##나무": 5771,
      "공정과": 5772,
      "##마저": 5773,
      "싸움": 5774,
      "국힘당": 5775,
      "##해주세요": 5776,
      "적극적으로": 5777,
      "부르": 5778,
      "심판": 5779,
      "이것은": 5780,
      "어렵다": 5781,
      "내세": 5782,
      "##조직": 5783,
      "간다": 5784,
      "그들은": 5785,
      "##문란": 5786,
      "긴급": 5787,
      "떨어지": 5788,
      "취약": 5789,
      "##소는": 5790,
      "이모": 5791,
      "##였는데": 5792,
      "##구의": 5793,
      "요금": 5794,
      "##으로부터": 5795,
      "방침이다": 5796,
      "비가": 5797,
      "생태": 5798,
      "이중": 5799,
      "했습니다": 5800,
      "자신을": 5801,
      "초기": 5802,
      "##효과": 5803,
      "수는": 5804,
      "지속적으로": 5805,
      "한달": 5806,
      "보면서": 5807,
      "공산주의": 5808,
      "##게요": 5809,
      "수용": 5810,
      "##해주는": 5811,
      "안돼": 5812,
      "지배": 5813,
      "합리": 5814,
      "##트로": 5815,
      "사건이": 5816,
      "전개": 5817,
      "##길래": 5818,
      "##있냐": 5819,
      "초청": 5820,
      "안타깝": 5821,
      "훌륭한": 5822,
      "보상": 5823,
      "##이들이": 5824,
      "##오고": 5825,
      "##보를": 5826,
      "달려": 5827,
      "##료가": 5828,
      "진술": 5829,
      "서울대": 5830,
      "대단한": 5831,
      "매국노": 5832,
      "싱가포르": 5833,
      "아빠": 5834,
      "##율을": 5835,
      "무대": 5836,
      "뭔지": 5837,
      "우파": 5838,
      "##인들의": 5839,
      "골프": 5840,
      "가난": 5841,
      "쇼핑": 5842,
      "##영이": 5843,
      "##다시": 5844,
      "꾸준히": 5845,
      "##고가": 5846,
      "##노조": 5847,
      "##케팅": 5848,
      "##향이": 5849,
      "##로를": 5850,
      "##한번": 5851,
      "태풍": 5852,
      "##식은": 5853,
      "##증이": 5854,
      "측근": 5855,
      "##퓨터": 5856,
      "관측": 5857,
      "국기": 5858,
      "세력": 5859,
      "리더": 5860,
      "싫다": 5861,
      "##었지": 5862,
      "정권이": 5863,
      "완화": 5864,
      "##산이": 5865,
      "##지말": 5866,
      "예비": 5867,
      "캐나다": 5868,
      "##규직": 5869,
      "전형": 5870,
      "문죄인": 5871,
      "실내": 5872,
      "폭락": 5873,
      "형성": 5874,
      "맞고": 5875,
      "##사들이": 5876,
      "일본이": 5877,
      "추억": 5878,
      "저렴": 5879,
      "##었다는": 5880,
      "##산물": 5881,
      "##터리": 5882,
      "29일": 5883,
      "멋진": 5884,
      "간단": 5885,
      "블랙": 5886,
      "##것같": 5887,
      "한전": 5888,
      "##거임": 5889,
      "페이스": 5890,
      "힘내": 5891,
      "2013년": 5892,
      "##까봐": 5893,
      "감사합니다": 5894,
      "횡령": 5895,
      "##과정": 5896,
      "몇년": 5897,
      "속에": 5898,
      "속에서": 5899,
      "##속에": 5900,
      "답이": 5901,
      "심사": 5902,
      "세대": 5903,
      "자극": 5904,
      "사건을": 5905,
      "##시켜야": 5906,
      "자원": 5907,
      "협상": 5908,
      "화면": 5909,
      "시작한": 5910,
      "가까운": 5911,
      "##없네": 5912,
      "느낄": 5913,
      "반면": 5914,
      "##르신": 5915,
      "썩은": 5916,
      "에라이": 5917,
      "촉구": 5918,
      "##소에서": 5919,
      "우리나라는": 5920,
      "##방이": 5921,
      "전날": 5922,
      "9년": 5923,
      "##건의": 5924,
      "거기에": 5925,
      "##하고자": 5926,
      "바탕으로": 5927,
      "슈퍼": 5928,
      "##버린": 5929,
      "##로가": 5930,
      "기대하고": 5931,
      "이름을": 5932,
      "##서관": 5933,
      "뒤에": 5934,
      "부패": 5935,
      "주제로": 5936,
      "##되서": 5937,
      "##겠어": 5938,
      "##진짜": 5939,
      "어휴": 5940,
      "응답": 5941,
      "##구에": 5942,
      "##뿐만": 5943,
      "한국을": 5944,
      "감안": 5945,
      "덕분에": 5946,
      "##하려면": 5947,
      "16일": 5948,
      "도움을": 5949,
      "근본": 5950,
      "##안은": 5951,
      "##떨어": 5952,
      "##류를": 5953,
      "##것들은": 5954,
      "##가의": 5955,
      "아이가": 5956,
      "이유를": 5957,
      "봤다": 5958,
      "된다는": 5959,
      "##었어": 5960,
      "36": 5961,
      "##함에": 5962,
      "##우면": 5963,
      "##조합": 5964,
      "자금": 5965,
      "##계의": 5966,
      "대우": 5967,
      "보였다": 5968,
      "상당히": 5969,
      "문제다": 5970,
      "윤도": 5971,
      "이탈": 5972,
      "대한민국을": 5973,
      "똑바로": 5974,
      "##일은": 5975,
      "##추행": 5976,
      "30분": 5977,
      "안됨": 5978,
      "##우스": 5979,
      "##판에": 5980,
      "아니야": 5981,
      "##하지않": 5982,
      "신기": 5983,
      "밝힌": 5984,
      "해제": 5985,
      "##았고": 5986,
      "대폭": 5987,
      "훼손": 5988,
      "전두환": 5989,
      "##리어": 5990,
      "않게": 5991,
      "##하셨": 5992,
      "이민": 5993,
      "공항": 5994,
      "박정": 5995,
      "배치": 5996,
      "##해를": 5997,
      "##소로": 5998,
      "놀고": 5999,
      "저게": 6000,
      "기업의": 6001,
      "피해가": 6002,
      "그린": 6003,
      "이준석은": 6004,
      "할머니": 6005,
      "##했나": 6006,
      "##로지": 6007,
      "##리나": 6008,
      "모집": 6009,
      "##국제": 6010,
      "##있나": 6011,
      "나라는": 6012,
      "제주도": 6013,
      "보이지": 6014,
      "그들의": 6015,
      "어려워": 6016,
      "그들이": 6017,
      "##통수": 6018,
      "사항": 6019,
      "적자": 6020,
      "특별한": 6021,
      "3개월": 6022,
      "엉망": 6023,
      "##시코": 6024,
      "##독교": 6025,
      "미군": 6026,
      "##프트": 6027,
      "30년": 6028,
      "고령": 6029,
      "시끄": 6030,
      "말아먹": 6031,
      "실력": 6032,
      "열고": 6033,
      "##유의": 6034,
      "특검": 6035,
      "고마": 6036,
      "##리다": 6037,
      "어린이집": 6038,
      "참여하는": 6039,
      "실무": 6040,
      "전년": 6041,
      "##관련": 6042,
      "벗어나": 6043,
      "처음이다": 6044,
      "유출": 6045,
      "보여주": 6046,
      "대로": 6047,
      "하긴": 6048,
      "성과를": 6049,
      "감정": 6050,
      "철수": 6051,
      "교육을": 6052,
      "그려": 6053,
      "말아": 6054,
      "베이": 6055,
      "축제": 6056,
      "어지": 6057,
      "자세": 6058,
      "필수": 6059,
      "글을": 6060,
      "나를": 6061,
      "착각": 6062,
      "했으면": 6063,
      "##파크": 6064,
      "소설": 6065,
      "##니깐": 6066,
      "##프라": 6067,
      "조기": 6068,
      "실적": 6069,
      "국민들을": 6070,
      "물고": 6071,
      "비싼": 6072,
      "##질환": 6073,
      "길을": 6074,
      "##재가": 6075,
      "##호를": 6076,
      "재명이": 6077,
      "광우": 6078,
      "때까지": 6079,
      "미술": 6080,
      "주사": 6081,
      "친환경": 6082,
      "앞으로도": 6083,
      "강원도": 6084,
      "부문": 6085,
      "##리트": 6086,
      "##경을": 6087,
      "나아": 6088,
      "지휘": 6089,
      "하다가": 6090,
      "##처가": 6091,
      "33": 6092,
      "에어": 6093,
      "회장이": 6094,
      "##공산": 6095,
      "민영화": 6096,
      "방치": 6097,
      "##인들은": 6098,
      "맞춤": 6099,
      "애니": 6100,
      "식당": 6101,
      "##운영": 6102,
      "##st": 6103,
      "##위의": 6104,
      "폭력": 6105,
      "##하시는": 6106,
      "##건설": 6107,
      "실수": 6108,
      "##en": 6109,
      "##사람들": 6110,
      "일찍": 6111,
      "##장히": 6112,
      "##애들": 6113,
      "프레임": 6114,
      "뜻을": 6115,
      "여자가": 6116,
      "국회에서": 6117,
      "##이네요": 6118,
      "##아이": 6119,
      "셈이다": 6120,
      "시기": 6121,
      "엔딩": 6122,
      "장관은": 6123,
      "##해지": 6124,
      "##있게": 6125,
      "연극": 6126,
      "모른다": 6127,
      "중국에": 6128,
      "호주": 6129,
      "개봉": 6130,
      "세워": 6131,
      "##쓰레기": 6132,
      "5년동안": 6133,
      "##팀이": 6134,
      "열어": 6135,
      "예고": 6136,
      "폭등": 6137,
      "400": 6138,
      "선진국": 6139,
      "##안하고": 6140,
      "##하긴": 6141,
      "재난": 6142,
      "부분이": 6143,
      "세상을": 6144,
      "좋지": 6145,
      "박용": 6146,
      "봉사": 6147,
      "부작": 6148,
      "##으려": 6149,
      "##단에": 6150,
      "3개": 6151,
      "##긴다": 6152,
      "불공": 6153,
      "퇴출": 6154,
      "##기기": 6155,
      "지금의": 6156,
      "가까이": 6157,
      "수수": 6158,
      "정은": 6159,
      "##거리는": 6160,
      "교수는": 6161,
      "카페": 6162,
      "##단지": 6163,
      "##자동": 6164,
      "거듭": 6165,
      "신선": 6166,
      "##목이": 6167,
      "32": 6168,
      "혐오": 6169,
      "##분야": 6170,
      "김성": 6171,
      "##드라마": 6172,
      "김대": 6173,
      "기대된다": 6174,
      "##리는데": 6175,
      "##통이": 6176,
      "신문": 6177,
      "컴퓨터": 6178,
      "##형이": 6179,
      "목소리": 6180,
      "보복": 6181,
      "돈벌": 6182,
      "된다고": 6183,
      "벌금": 6184,
      "가을": 6185,
      "오픈": 6186,
      "쿠데타": 6187,
      "괴롭": 6188,
      "문을": 6189,
      "##ps": 6190,
      "##가라": 6191,
      "하려고": 6192,
      "살해": 6193,
      "연봉": 6194,
      "혐의를": 6195,
      "복귀": 6196,
      "적발": 6197,
      "##쓰는": 6198,
      "차기": 6199,
      "##봤는데": 6200,
      "경고": 6201,
      "쓸데": 6202,
      "##스티": 6203,
      "사이에": 6204,
      "충남": 6205,
      "원인": 6206,
      "이달": 6207,
      "조중": 6208,
      "증명": 6209,
      "하이": 6210,
      "포함한": 6211,
      "##액이": 6212,
      "앉아": 6213,
      "죽여": 6214,
      "##원과": 6215,
      "시작했다": 6216,
      "조건": 6217,
      "충격": 6218,
      "##대출": 6219,
      "##진은": 6220,
      "기준으로": 6221,
      "암호": 6222,
      "##자금": 6223,
      "##한것": 6224,
      "윤무": 6225,
      "##마자": 6226,
      "##곳에서": 6227,
      "##합시다": 6228,
      "성폭행": 6229,
      "안해": 6230,
      "##스와": 6231,
      "부부": 6232,
      "저희": 6233,
      "2012년": 6234,
      "연간": 6235,
      "형수": 6236,
      "##달라": 6237,
      "때마다": 6238,
      "##용으로": 6239,
      "간신": 6240,
      "대가리": 6241,
      "눈길을": 6242,
      "뭐하냐": 6243,
      "등은": 6244,
      "효율": 6245,
      "##사랑": 6246,
      "정상적인": 6247,
      "국무위원": 6248,
      "명확": 6249,
      "임시": 6250,
      "##치게": 6251,
      "눈물": 6252,
      "자리에": 6253,
      "##가에": 6254,
      "증권": 6255,
      "안타까": 6256,
      "퇴직": 6257,
      "빨아": 6258,
      "이것이": 6259,
      "만난": 6260,
      "##주인": 6261,
      "연합": 6262,
      "채널": 6263,
      "환자": 6264,
      "##명에": 6265,
      "버티": 6266,
      "##드로": 6267,
      "다시는": 6268,
      "##비로": 6269,
      "2019년": 6270,
      "검새": 6271,
      "개막": 6272,
      "깊은": 6273,
      "##만원을": 6274,
      "##투표": 6275,
      "##일뿐": 6276,
      "##뮤니": 6277,
      "1점": 6278,
      "윤씨": 6279,
      "검찰총": 6280,
      "lt": 6281,
      "##명과": 6282,
      "마이크": 6283,
      "법무부": 6284,
      "단독": 6285,
      "바른미래": 6286,
      "국민들의": 6287,
      "어려움을": 6288,
      "기울": 6289,
      "제3": 6290,
      "알지": 6291,
      "##산을": 6292,
      "##차별": 6293,
      "##계약": 6294,
      "좋을": 6295,
      "과정을": 6296,
      "##전에서": 6297,
      "##석을": 6298,
      "##지사가": 6299,
      "##겠어요": 6300,
      "##오면": 6301,
      "오직": 6302,
      "나라에서": 6303,
      "기득권": 6304,
      "그것이": 6305,
      "승리": 6306,
      "없지만": 6307,
      "잘하는": 6308,
      "##치면": 6309,
      "상황에": 6310,
      "대단하다": 6311,
      "화려": 6312,
      "##대상": 6313,
      "기술을": 6314,
      "포장": 6315,
      "##세에": 6316,
      "발달": 6317,
      "##스탄": 6318,
      "##조를": 6319,
      "많아서": 6320,
      "##실에": 6321,
      "전북": 6322,
      "뇌물": 6323,
      "상황이다": 6324,
      "주변에": 6325,
      "유사": 6326,
      "실현": 6327,
      "지적이": 6328,
      "##억원을": 6329,
      "파업": 6330,
      "걸린": 6331,
      "안하는": 6332,
      "##책임": 6333,
      "꼬라지": 6334,
      "##정상회담": 6335,
      "목적": 6336,
      "억지": 6337,
      "지옥": 6338,
      "어르신": 6339,
      "##때도": 6340,
      "전해졌다": 6341,
      "참으로": 6342,
      "키우": 6343,
      "합격": 6344,
      "##됐고": 6345,
      "##40": 6346,
      "##관에": 6347,
      "##준표": 6348,
      "하나님": 6349,
      "선호": 6350,
      "직후": 6351,
      "##사람은": 6352,
      "4차": 6353,
      "동남": 6354,
      "흘러": 6355,
      "##석은": 6356,
      "나라에": 6357,
      "그러니까": 6358,
      "김경": 6359,
      "##할지": 6360,
      "일이다": 6361,
      "타령": 6362,
      "아베": 6363,
      "##ou": 6364,
      "##저리": 6365,
      "마음에": 6366,
      "식품": 6367,
      "지식": 6368,
      "##위기": 6369,
      "##성의": 6370,
      "##해온": 6371,
      "##었을": 6372,
      "10점": 6373,
      "무리": 6374,
      "지원하는": 6375,
      "형사": 6376,
      "여론조사": 6377,
      "광역": 6378,
      "끝내": 6379,
      "기억이": 6380,
      "생존": 6381,
      "돈으로": 6382,
      "탈원전": 6383,
      "피의": 6384,
      "##능력": 6385,
      "상장": 6386,
      "창피": 6387,
      "안되고": 6388,
      "질문": 6389,
      "##말은": 6390,
      "파괴": 6391,
      "모를": 6392,
      "이들의": 6393,
      "##공간": 6394,
      "다니는": 6395,
      "##이와": 6396,
      "아시안": 6397,
      "유아": 6398,
      "소리를": 6399,
      "상상": 6400,
      "페이스북": 6401,
      "욕을": 6402,
      "추락": 6403,
      "노후": 6404,
      "당사": 6405,
      "두려": 6406,
      "영원히": 6407,
      "참여한": 6408,
      "올랐": 6409,
      "##속도로": 6410,
      "##층이": 6411,
      "많았다": 6412,
      "##정의": 6413,
      "명령": 6414,
      "저도": 6415,
      "활발": 6416,
      "입고": 6417,
      "직무": 6418,
      "##경영": 6419,
      "있으": 6420,
      "##행위": 6421,
      "동아": 6422,
      "##가야": 6423,
      "지역에": 6424,
      "감기": 6425,
      "##사도": 6426,
      "##주도": 6427,
      "##빨리": 6428,
      "수요가": 6429,
      "이지": 6430,
      "하겠다": 6431,
      "달성": 6432,
      "싶습니다": 6433,
      "저기": 6434,
      "향해": 6435,
      "교회": 6436,
      "넘겨": 6437,
      "당연한": 6438,
      "가치가": 6439,
      "수정": 6440,
      "의혹을": 6441,
      "산다": 6442,
      "유리": 6443,
      "상대적으로": 6444,
      "안들": 6445,
      "최선을": 6446,
      "크리스": 6447,
      "##지방": 6448,
      "생각은": 6449,
      "괜히": 6450,
      "입법": 6451,
      "##자들에게": 6452,
      "인지": 6453,
      "##자체가": 6454,
      "##쪽으로": 6455,
      "쌍방울": 6456,
      "##사무": 6457,
      "상징": 6458,
      "안다": 6459,
      "걸려": 6460,
      "##진당": 6461,
      "애국": 6462,
      "태국": 6463,
      "틀니": 6464,
      "##세기": 6465,
      "시장에": 6466,
      "1등": 6467,
      "일도": 6468,
      "전력": 6469,
      "종북": 6470,
      "##트워크": 6471,
      "아무런": 6472,
      "프로그램을": 6473,
      "##공개": 6474,
      "중국인": 6475,
      "마케팅": 6476,
      "만들기": 6477,
      "성매매": 6478,
      "##르기": 6479,
      "##le": 6480,
      "프로젝트": 6481,
      "##되어야": 6482,
      "한거": 6483,
      "##도와": 6484,
      "##사기": 6485,
      "한두": 6486,
      "##류의": 6487,
      "남한": 6488,
      "후에": 6489,
      "일본은": 6490,
      "누굴": 6491,
      "방안": 6492,
      "즉시": 6493,
      "##사태": 6494,
      "##주지": 6495,
      "역대급": 6496,
      "홍준표": 6497,
      "##이프": 6498,
      "##당하고": 6499,
      "##총리": 6500,
      "살기": 6501,
      "입을": 6502,
      "두번": 6503,
      "하라고": 6504,
      "##된다고": 6505,
      "문재앙이": 6506,
      "중요하다": 6507,
      "나갈": 6508,
      "데리고": 6509,
      "센터": 6510,
      "##일로": 6511,
      "##아지": 6512,
      "대표적인": 6513,
      "더듬어": 6514,
      "패션": 6515,
      "삭제": 6516,
      "비서": 6517,
      "##차는": 6518,
      "##입니까": 6519,
      "##인트": 6520,
      "이웃": 6521,
      "부활": 6522,
      "소름": 6523,
      "생겨": 6524,
      "아닌가요": 6525,
      "이것도": 6526,
      "죽음": 6527,
      "했다는": 6528,
      "##장도": 6529,
      "##ic": 6530,
      "인간의": 6531,
      "블록체인": 6532,
      "혹은": 6533,
      "하나로": 6534,
      "인기가": 6535,
      "문정권": 6536,
      "평점이": 6537,
      "수준의": 6538,
      "강하게": 6539,
      "팔아": 6540,
      "괜찮은": 6541,
      "45": 6542,
      "적어도": 6543,
      "일본의": 6544,
      "##공단": 6545,
      "아이들": 6546,
      "다를": 6547,
      "상호": 6548,
      "안에서": 6549,
      "##혐의": 6550,
      "##세계": 6551,
      "2019": 6552,
      "존경": 6553,
      "##시의": 6554,
      "새롭게": 6555,
      "해양": 6556,
      "연설": 6557,
      "좋다고": 6558,
      "밝히": 6559,
      "만들어서": 6560,
      "인하": 6561,
      "비밀": 6562,
      "##드리": 6563,
      "최대한": 6564,
      "미래를": 6565,
      "화가": 6566,
      "##분의": 6567,
      "##하지도": 6568,
      "뿐이다": 6569,
      "##자원": 6570,
      "사용하는": 6571,
      "분들이": 6572,
      "양성": 6573,
      "작용": 6574,
      "좋아요": 6575,
      "분리": 6576,
      "미쳤": 6577,
      "금감": 6578,
      "스트레스": 6579,
      "목소리가": 6580,
      "규정": 6581,
      "##단계": 6582,
      "##장판": 6583,
      "아이돌": 6584,
      "로봇": 6585,
      "없냐": 6586,
      "호남": 6587,
      "##향을": 6588,
      "##우드": 6589,
      "퍼즐": 6590,
      "정부와": 6591,
      "끌어내": 6592,
      "믿을": 6593,
      "옹호": 6594,
      "정기": 6595,
      "물건": 6596,
      "삶의": 6597,
      "정체": 6598,
      "좋은데": 6599,
      "실험": 6600,
      "38": 6601,
      "180": 6602,
      "개인적으로": 6603,
      "단일": 6604,
      "걸어": 6605,
      "실천": 6606,
      "둘다": 6607,
      "놀라": 6608,
      "만날": 6609,
      "대부분의": 6610,
      "연령": 6611,
      "##지다": 6612,
      "##힌다": 6613,
      "데려": 6614,
      "죄를": 6615,
      "세월호": 6616,
      "##졌고": 6617,
      "##었네": 6618,
      "위원장이": 6619,
      "##해봐라": 6620,
      "##티브": 6621,
      "##곳이": 6622,
      "하지마라": 6623,
      "대처": 6624,
      "설정": 6625,
      "수천": 6626,
      "문자": 6627,
      "##나간": 6628,
      "##사실": 6629,
      "##할거": 6630,
      "있어도": 6631,
      "##회장": 6632,
      "삼성전자": 6633,
      "5G": 6634,
      "김종": 6635,
      "날이": 6636,
      "서버": 6637,
      "커뮤니": 6638,
      "##업계": 6639,
      "##님들": 6640,
      "평가를": 6641,
      "등에서": 6642,
      "상위": 6643,
      "집을": 6644,
      "##아닌가": 6645,
      "구글": 6646,
      "짓을": 6647,
      "호소": 6648,
      "오늘은": 6649,
      "기독교": 6650,
      "진상": 6651,
      "##페이지": 6652,
      "북한에": 6653,
      "##그릇": 6654,
      "##역이": 6655,
      "htt": 6656,
      "가끔": 6657,
      "어이가": 6658,
      "##열이": 6659,
      "시작된": 6660,
      "출범": 6661,
      "##전거": 6662,
      "##중인": 6663,
      "7년": 6664,
      "KT": 6665,
      "레이": 6666,
      "운행": 6667,
      "일주": 6668,
      "떠오": 6669,
      "##재단": 6670,
      "국가의": 6671,
      "떨어져": 6672,
      "장사": 6673,
      "##타령": 6674,
      "##하는것": 6675,
      "길이": 6676,
      "법적": 6677,
      "경제적": 6678,
      "노예": 6679,
      "##수석": 6680,
      "바이오": 6681,
      "만한": 6682,
      "운운": 6683,
      "##세는": 6684,
      "복잡": 6685,
      "참석했다": 6686,
      "계산": 6687,
      "보지": 6688,
      "영웅": 6689,
      "예약": 6690,
      "하라": 6691,
      "##물에": 6692,
      "문정부": 6693,
      "##라라": 6694,
      "당부": 6695,
      "##ㅉㅉ": 6696,
      "죄가": 6697,
      "##공원": 6698,
      "부모가": 6699,
      "현장에서": 6700,
      "짓거리": 6701,
      "나오지": 6702,
      "의혹이": 6703,
      "박범": 6704,
      "백악": 6705,
      "재건축": 6706,
      "효과를": 6707,
      "오로지": 6708,
      "설득": 6709,
      "수능": 6710,
      "부여": 6711,
      "##연을": 6712,
      "##부터는": 6713,
      "받게": 6714,
      "##동맹": 6715,
      "여부를": 6716,
      "##좋아": 6717,
      "말이다": 6718,
      "매각": 6719,
      "##이라서": 6720,
      "행사를": 6721,
      "갖다": 6722,
      "봅니다": 6723,
      "진행된": 6724,
      "차단": 6725,
      "옮겨": 6726,
      "초대": 6727,
      "##겠니": 6728,
      "경험이": 6729,
      "그렇다고": 6730,
      "뭐하는": 6731,
      "이영화": 6732,
      "사업이": 6733,
      "아니지만": 6734,
      "국민에게": 6735,
      "청소": 6736,
      "##미애": 6737,
      "ㄷㄷ": 6738,
      "극복": 6739,
      "정황": 6740,
      "국기문란": 6741,
      "##서야": 6742,
      "##되자": 6743,
      "생각하면": 6744,
      "추가로": 6745,
      "##공동": 6746,
      "공짜": 6747,
      "암호화폐": 6748,
      "65": 6749,
      "석열이": 6750,
      "그간": 6751,
      "자기들": 6752,
      "정상이": 6753,
      "줄여": 6754,
      "##리티": 6755,
      "##리면서": 6756,
      "재미있게": 6757,
      "진단": 6758,
      "피부": 6759,
      "##겠네요": 6760,
      "세금을": 6761,
      "월드컵": 6762,
      "어리": 6763,
      "##저히": 6764,
      "기생": 6765,
      "재벌": 6766,
      "회계": 6767,
      "대사": 6768,
      "만남": 6769,
      "공무": 6770,
      "빠진": 6771,
      "##공무원": 6772,
      "600": 6773,
      "##인도": 6774,
      "보안": 6775,
      "행사가": 6776,
      "너같은": 6777,
      "들은": 6778,
      "수립": 6779,
      "난다": 6780,
      "필리": 6781,
      "구라": 6782,
      "무한": 6783,
      "힘들어": 6784,
      "집안": 6785,
      "##니가": 6786,
      "##집니다": 6787,
      "##십니다": 6788,
      "정비": 6789,
      "사람들의": 6790,
      "##용을": 6791,
      "한화": 6792,
      "그렇고": 6793,
      "우울": 6794,
      "펠로시": 6795,
      "의한": 6796,
      "##했기": 6797,
      "모조리": 6798,
      "34": 6799,
      "법정": 6800,
      "공개된": 6801,
      "보자": 6802,
      "##님은": 6803,
      "##하지마라": 6804,
      "마누라": 6805,
      "곳에": 6806,
      "낭비": 6807,
      "앞장": 6808,
      "대깨문": 6809,
      "그에": 6810,
      "어떠": 6811,
      "연습": 6812,
      "기름": 6813,
      "##해질": 6814,
      "##프레": 6815,
      "살아라": 6816,
      "박수": 6817,
      "커지고": 6818,
      "규모가": 6819,
      "##종의": 6820,
      "기재": 6821,
      "경찰의": 6822,
      "아닐까": 6823,
      "천안": 6824,
      "출마": 6825,
      "##장관이": 6826,
      "낫다": 6827,
      "그지": 6828,
      "들었다": 6829,
      "##위원회가": 6830,
      "브라질": 6831,
      "우주": 6832,
      "방문해": 6833,
      "무엇을": 6834,
      "가족이": 6835,
      "##여행": 6836,
      "##줘서": 6837,
      "러시아가": 6838,
      "난민": 6839,
      "못한다": 6840,
      "살려": 6841,
      "주민들이": 6842,
      "감방": 6843,
      "근처": 6844,
      "터키": 6845,
      "고작": 6846,
      "민주당의": 6847,
      "150": 6848,
      "교도": 6849,
      "##패스": 6850,
      "기대한다": 6851,
      "IT": 6852,
      "뒤에서": 6853,
      "##국을": 6854,
      "시범": 6855,
      "체포": 6856,
      "맞추": 6857,
      "한가": 6858,
      "느낌이": 6859,
      "결제": 6860,
      "비추": 6861,
      "##는다고": 6862,
      "##으라고": 6863,
      "정치권": 6864,
      "스타트": 6865,
      "무기징": 6866,
      "비속": 6867,
      "위로": 6868,
      "##∼1": 6869,
      "있었는데": 6870,
      "##하겠습니다": 6871,
      "미쳐": 6872,
      "반대로": 6873,
      "확장": 6874,
      "##하겠지": 6875,
      "제공하는": 6876,
      "옆에": 6877,
      "원작": 6878,
      "5천": 6879,
      "##스런": 6880,
      "##했어": 6881,
      "##테크": 6882,
      "##았습니다": 6883,
      "사랑을": 6884,
      "99": 6885,
      "김은혜": 6886,
      "말만": 6887,
      "오염": 6888,
      "##해놓고": 6889,
      "##품이": 6890,
      "##구먼": 6891,
      "##학력": 6892,
      "낮아": 6893,
      "달고": 6894,
      "죄명이": 6895,
      "탄생": 6896,
      "##아내": 6897,
      "감독의": 6898,
      "드러났다": 6899,
      "혜택을": 6900,
      "##해지는": 6901,
      "##처벌": 6902,
      "재미가": 6903,
      "자리에서": 6904,
      "한데": 6905,
      "이내": 6906,
      "##률을": 6907,
      "일으키": 6908,
      "박정희": 6909,
      "기자가": 6910,
      "##해지고": 6911,
      "면서": 6912,
      "환영": 6913,
      "##재판": 6914,
      "사서": 6915,
      "##시로": 6916,
      "권력을": 6917,
      "맞게": 6918,
      "##내내": 6919,
      "##때문": 6920,
      "참석해": 6921,
      "기도": 6922,
      "육성": 6923,
      "일부러": 6924,
      "악화": 6925,
      "##러워": 6926,
      "##조원": 6927,
      "미국에서": 6928,
      "이승": 6929,
      "강요": 6930,
      "들어간": 6931,
      "시민들이": 6932,
      "있으나": 6933,
      "인간은": 6934,
      "방어": 6935,
      "한국과": 6936,
      "보게": 6937,
      "디자": 6938,
      "##수에": 6939,
      "뭐라고": 6940,
      "바라는": 6941,
      "최우": 6942,
      "걸쳐": 6943,
      "언론에": 6944,
      "연예인": 6945,
      "내다": 6946,
      "이끌어": 6947,
      "시나": 6948,
      "자치": 6949,
      "##지자": 6950,
      "몰라도": 6951,
      "시군": 6952,
      "##한지": 6953,
      "고등학교": 6954,
      "##리라": 6955,
      "##아는": 6956,
      "성적": 6957,
      "충성": 6958,
      "##후보": 6959,
      "이행": 6960,
      "담은": 6961,
      "발악": 6962,
      "배려": 6963,
      "입에": 6964,
      "시간에": 6965,
      "교육부": 6966,
      "이어질": 6967,
      "CC": 6968,
      "간담": 6969,
      "인민": 6970,
      "주의": 6971,
      "언젠": 6972,
      "왜냐": 6973,
      "호구": 6974,
      "부채": 6975,
      "치열": 6976,
      "나라꼴": 6977,
      "##만도": 6978,
      "##교회": 6979,
      "##가격": 6980,
      "대학생": 6981,
      "4개": 6982,
      "메이": 6983,
      "##물고": 6984,
      "##평등": 6985,
      "필리핀": 6986,
      "##민주주의": 6987,
      "모으": 6988,
      "테러": 6989,
      "한강": 6990,
      "출입": 6991,
      "안될": 6992,
      "##에겐": 6993,
      "의견이": 6994,
      "끝날": 6995,
      "마트": 6996,
      "했고": 6997,
      "경찰을": 6998,
      "처음부터": 6999,
      "1시간": 7000,
      "같음": 7001,
      "##운이": 7002,
      "문제로": 7003,
      "유명한": 7004,
      "아웃": 7005,
      "선출": 7006,
      "털어": 7007,
      "기온": 7008,
      "때도": 7009,
      "인성": 7010,
      "태극기": 7011,
      "개고기": 7012,
      "여의도": 7013,
      "정답": 7014,
      "설명이다": 7015,
      "외교참사": 7016,
      "##대에서": 7017,
      "초딩": 7018,
      "##란드": 7019,
      "##놈은": 7020,
      "줄어들": 7021,
      "담겨": 7022,
      "##보지": 7023,
      "너가": 7024,
      "클럽": 7025,
      "##학을": 7026,
      "##70": 7027,
      "민정": 7028,
      "성추행": 7029,
      "응급": 7030,
      "이틀": 7031,
      "감독은": 7032,
      "우습": 7033,
      "장르": 7034,
      "2찍들": 7035,
      "일베": 7036,
      "예정이": 7037,
      "외치": 7038,
      "유전": 7039,
      "전정부": 7040,
      "##무를": 7041,
      "나에게": 7042,
      "뿐만": 7043,
      "##는구나": 7044,
      "기업들이": 7045,
      "기사가": 7046,
      "##있으면": 7047,
      "##∼2": 7048,
      "거예요": 7049,
      "박살": 7050,
      "과도": 7051,
      "##무시": 7052,
      "죽어": 7053,
      "생각보다": 7054,
      "실시간": 7055,
      "오지": 7056,
      "전직": 7057,
      "대한민국은": 7058,
      "발사": 7059,
      "##들이나": 7060,
      "##관의": 7061,
      "반박": 7062,
      "여성이": 7063,
      "저리": 7064,
      "뭐야": 7065,
      "급격": 7066,
      "절차": 7067,
      "##짓거리": 7068,
      "부실": 7069,
      "심리": 7070,
      "참사": 7071,
      "##조정": 7072,
      "바이든이": 7073,
      "당한": 7074,
      "안나오": 7075,
      "##답게": 7076,
      "##선수": 7077,
      "##길이": 7078,
      "애들은": 7079,
      "은퇴": 7080,
      "##모델": 7081,
      "전국민": 7082,
      "##그리": 7083,
      "입은": 7084,
      "##때마다": 7085,
      "조중동": 7086,
      "겁나": 7087,
      "유도": 7088,
      "큰일": 7089,
      "##든가": 7090,
      "거론": 7091,
      "아르": 7092,
      "##행동": 7093,
      "다이": 7094,
      "해봐라": 7095,
      "##땜에": 7096,
      "삶은": 7097,
      "예수": 7098,
      "##때부터": 7099,
      "반려": 7100,
      "##르지": 7101,
      "중국산": 7102,
      "쓰레기들": 7103,
      "머리가": 7104,
      "못하면": 7105,
      "축소": 7106,
      "한명": 7107,
      "국토교통": 7108,
      "김동": 7109,
      "##였고": 7110,
      "##ㅜㅜ": 7111,
      "폭망": 7112,
      "가동": 7113,
      "개별": 7114,
      "것인지": 7115,
      "법안": 7116,
      "손흥": 7117,
      "##잡아": 7118,
      "##하면서도": 7119,
      "뒤집어": 7120,
      "해명": 7121,
      "나타나": 7122,
      "가자": 7123,
      "집어": 7124,
      "순수": 7125,
      "아버지": 7126,
      "안맞": 7127,
      "##교사": 7128,
      "##성애": 7129,
      "##예산": 7130,
      "단어": 7131,
      "다운": 7132,
      "어릴": 7133,
      "##개선": 7134,
      "##었냐": 7135,
      "##때까지": 7136,
      "분들": 7137,
      "싸우": 7138,
      "언어": 7139,
      "##구석": 7140,
      "##된다는": 7141,
      "때가": 7142,
      "맘에": 7143,
      "고맙": 7144,
      "우영": 7145,
      "##년간": 7146,
      "언제나": 7147,
      "꼴통": 7148,
      "##셔야": 7149,
      "##니아": 7150,
      "참여해": 7151,
      "게시": 7152,
      "돌파": 7153,
      "유일한": 7154,
      "##당과": 7155,
      "##상과": 7156,
      "인물이": 7157,
      "중립": 7158,
      "##력과": 7159,
      "관계자": 7160,
      "도덕": 7161,
      "##보세요": 7162,
      "이번이": 7163,
      "갓겜": 7164,
      "강경": 7165,
      "안가": 7166,
      "이죄명": 7167,
      "##정도로": 7168,
      "##이던": 7169,
      "5개": 7170,
      "##피해": 7171,
      "##쓴다": 7172,
      "사립": 7173,
      "##란히": 7174,
      "##죄로": 7175,
      "에이": 7176,
      "이나": 7177,
      "폐쇄": 7178,
      "##판을": 7179,
      "프리미": 7180,
      "있는거": 7181,
      "김진": 7182,
      "말레이": 7183,
      "##전은": 7184,
      "##른다": 7185,
      "정책이": 7186,
      "그것을": 7187,
      "든다": 7188,
      "했어요": 7189,
      "알려진": 7190,
      "##저기": 7191,
      "##이라며": 7192,
      "막을": 7193,
      "상영": 7194,
      "점이다": 7195,
      "최적": 7196,
      "##배가": 7197,
      "31일": 7198,
      "##자들과": 7199,
      "영상을": 7200,
      "주제에": 7201,
      "초과": 7202,
      "##거리가": 7203,
      "##좌파": 7204,
      "갔다": 7205,
      "오세": 7206,
      "##지에서": 7207,
      "##ew": 7208,
      "수준으로": 7209,
      "수작": 7210,
      "연말": 7211,
      "검찰에": 7212,
      "따뜻한": 7213,
      "IM": 7214,
      "열린다": 7215,
      "##았네": 7216,
      "내린": 7217,
      "둘이": 7218,
      "##해주고": 7219,
      "##력으로": 7220,
      "쪽팔려서": 7221,
      "눈을": 7222,
      "늘고": 7223,
      "만들었다": 7224,
      "수박": 7225,
      "주주": 7226,
      "스릴": 7227,
      "말한다": 7228,
      "라며": 7229,
      "이득": 7230,
      "자전거": 7231,
      "##팔이": 7232,
      "태어": 7233,
      "##리스트": 7234,
      "##처를": 7235,
      "계획을": 7236,
      "##권도": 7237,
      "##해줄": 7238,
      "풀이": 7239,
      "##버리고": 7240,
      "##나와": 7241,
      "정도의": 7242,
      "KBS": 7243,
      "체계": 7244,
      "##시부터": 7245,
      "##상담": 7246,
      "##하고는": 7247,
      "아이폰": 7248,
      "공기업": 7249,
      "##범이": 7250,
      "뜨거운": 7251,
      "평택": 7252,
      "##기구": 7253,
      "뒤로": 7254,
      "퇴근": 7255,
      "중국과": 7256,
      "이혼": 7257,
      "필요하다는": 7258,
      "가능성을": 7259,
      "미디어": 7260,
      "압도": 7261,
      "투명": 7262,
      "##금은": 7263,
      "##it": 7264,
      "오랜만에": 7265,
      "주제": 7266,
      "방법을": 7267,
      "여가": 7268,
      "짧은": 7269,
      "영화의": 7270,
      "A씨가": 7271,
      "넣어": 7272,
      "할줄": 7273,
      "2011년": 7274,
      "올리고": 7275,
      "조치를": 7276,
      "##됐던": 7277,
      "##건가요": 7278,
      "조문": 7279,
      "타격": 7280,
      "##데이트": 7281,
      "분명히": 7282,
      "##비에": 7283,
      "##박한": 7284,
      "##돈으로": 7285,
      "않음": 7286,
      "그를": 7287,
      "##법은": 7288,
      "##루킹": 7289,
      "정권을": 7290,
      "보세요": 7291,
      "소환": 7292,
      "요리": 7293,
      "추미애": 7294,
      "##참에": 7295,
      "변화가": 7296,
      "잠재": 7297,
      "정부에서": 7298,
      "올해는": 7299,
      "비중이": 7300,
      "##가며": 7301,
      "강릉": 7302,
      "역사를": 7303,
      "절대로": 7304,
      "지역에서": 7305,
      "##소리를": 7306,
      "##워라": 7307,
      "진행된다": 7308,
      "존중": 7309,
      "##국으로": 7310,
      "##였습니다": 7311,
      "##급이": 7312,
      "가구": 7313,
      "끝에": 7314,
      "사유": 7315,
      "사용할": 7316,
      "커뮤니티": 7317,
      "##군의": 7318,
      "올바": 7319,
      "겪고": 7320,
      "얻어": 7321,
      "건립": 7322,
      "매번": 7323,
      "통해서": 7324,
      "기술이": 7325,
      "2만": 7326,
      "52": 7327,
      "##댓글": 7328,
      "대표팀": 7329,
      "##안보": 7330,
      "맛이": 7331,
      "##아니고": 7332,
      "내용은": 7333,
      "Pop": 7334,
      "##많이": 7335,
      "경찰청": 7336,
      "김기": 7337,
      "않지만": 7338,
      "##테타": 7339,
      "##이었던": 7340,
      "특징이다": 7341,
      "구체적인": 7342,
      "의도": 7343,
      "잠시": 7344,
      "##테니": 7345,
      "입증": 7346,
      "2010년": 7347,
      "발의": 7348,
      "수학": 7349,
      "엠비": 7350,
      "##표를": 7351,
      "##생을": 7352,
      "##망이": 7353,
      "아이를": 7354,
      "사로": 7355,
      "핵무": 7356,
      "##다리": 7357,
      "시민단체": 7358,
      "철도": 7359,
      "##시티": 7360,
      "있는게": 7361,
      "경기도와": 7362,
      "개방": 7363,
      "##나네": 7364,
      "광화": 7365,
      "음식을": 7366,
      "##법에": 7367,
      "준다": 7368,
      "##스에": 7369,
      "일본에": 7370,
      "극단": 7371,
      "자료를": 7372,
      "국방부": 7373,
      "감시": 7374,
      "알아야": 7375,
      "방법이": 7376,
      "수치": 7377,
      "하지마": 7378,
      "국내외": 7379,
      "기타": 7380,
      "제명": 7381,
      "하반기": 7382,
      "실종": 7383,
      "##만하고": 7384,
      "시장에서": 7385,
      "깡패": 7386,
      "말할": 7387,
      "버리고": 7388,
      "전원": 7389,
      "맘대로": 7390,
      "스페인": 7391,
      "##력은": 7392,
      "##줌마": 7393,
      "그런거": 7394,
      "확인할": 7395,
      "상반기": 7396,
      "##벌레": 7397,
      "공연을": 7398,
      "##물로": 7399,
      "방해": 7400,
      "출전": 7401,
      "##지능": 7402,
      "##비리": 7403,
      "부담이": 7404,
      "책을": 7405,
      "현금": 7406,
      "##연구원": 7407,
      "것이고": 7408,
      "교류": 7409,
      "##기면": 7410,
      "보유한": 7411,
      "친일파": 7412,
      "시작으로": 7413,
      "세계적인": 7414,
      "기대를": 7415,
      "제정": 7416,
      "##장면": 7417,
      "##화는": 7418,
      "가짜뉴스": 7419,
      "##편이": 7420,
      "계열": 7421,
      "##양이": 7422,
      "국민들에게": 7423,
      "https": 7424,
      "탄압": 7425,
      "##re": 7426,
      "##돼야": 7427,
      "3차": 7428,
      "ㄹㅇ": 7429,
      "김혜": 7430,
      "보인": 7431,
      "장모": 7432,
      "##있지": 7433,
      "동남아": 7434,
      "말레이시아": 7435,
      "가치를": 7436,
      "홈페이지": 7437,
      "재미없": 7438,
      "##으론": 7439,
      "힘들다": 7440,
      "##가게": 7441,
      "있음을": 7442,
      "총리": 7443,
      "표절": 7444,
      "30대": 7445,
      "올리는": 7446,
      "2030": 7447,
      "보냈": 7448,
      "##앞에": 7449,
      "서민들": 7450,
      "아프리카": 7451,
      "동료": 7452,
      "예전에": 7453,
      "##법인": 7454,
      "##버렸": 7455,
      "김태": 7456,
      "##위한": 7457,
      "복합": 7458,
      "쉬운": 7459,
      "##선에": 7460,
      "개의": 7461,
      "살다": 7462,
      "##아님": 7463,
      "자빠졌네": 7464,
      "포항": 7465,
      "행태": 7466,
      "##하이": 7467,
      "##리냐": 7468,
      "선수들이": 7469,
      "정확히": 7470,
      "하야": 7471,
      "대상이": 7472,
      "용인": 7473,
      "지껄": 7474,
      "##바이오": 7475,
      "##함으로써": 7476,
      "늘어난": 7477,
      "##재산": 7478,
      "##시간에": 7479,
      "유발": 7480,
      "##하라는": 7481,
      "##정부는": 7482,
      "해야한다": 7483,
      "발표했다": 7484,
      "2020년": 7485,
      "곳은": 7486,
      "주어": 7487,
      "##정으로": 7488,
      "동반": 7489,
      "되는거": 7490,
      "##았다고": 7491,
      "##무가": 7492,
      "##럽고": 7493,
      "중국에서": 7494,
      "필요하다고": 7495,
      "성인": 7496,
      "##트에": 7497,
      "전부터": 7498,
      "팔아먹": 7499,
      "##됐다는": 7500,
      "사람들을": 7501,
      "##식의": 7502,
      "##벌이": 7503,
      "했을": 7504,
      "##he": 7505,
      "갖춘": 7506,
      "개그": 7507,
      "충북": 7508,
      "특혜": 7509,
      "해놓고": 7510,
      "##전으로": 7511,
      "남자가": 7512,
      "그것은": 7513,
      "받으": 7514,
      "폼페이": 7515,
      "대해서도": 7516,
      "##성으로": 7517,
      "고급": 7518,
      "세일": 7519,
      "잘한다": 7520,
      "##건강": 7521,
      "##기능": 7522,
      "역겨": 7523,
      "##증권": 7524,
      "되냐": 7525,
      "박원": 7526,
      "보완": 7527,
      "제정신": 7528,
      "##년이": 7529,
      "품질": 7530,
      "##가다": 7531,
      "중국을": 7532,
      "의미를": 7533,
      "여기저기": 7534,
      "할까": 7535,
      "##놈의": 7536,
      "대부분이": 7537,
      "분이": 7538,
      "업데이트": 7539,
      "##의료": 7540,
      "##탄압": 7541,
      "이미지": 7542,
      "스테": 7543,
      "체육": 7544,
      "##거같": 7545,
      "##서도": 7546,
      "폼페이오": 7547,
      "메뉴": 7548,
      "##우디": 7549,
      "##친구": 7550,
      "갈라치기": 7551,
      "37": 7552,
      "급여": 7553,
      "급증": 7554,
      "아깝": 7555,
      "##재를": 7556,
      "2천": 7557,
      "더럽게": 7558,
      "후속": 7559,
      "반대하는": 7560,
      "##하시고": 7561,
      "##장난": 7562,
      "PC": 7563,
      "김학": 7564,
      "매달": 7565,
      "##리니": 7566,
      "계기로": 7567,
      "남을": 7568,
      "높이": 7569,
      "하니까": 7570,
      "##피언": 7571,
      "발생하는": 7572,
      "바른미래당": 7573,
      "가맹": 7574,
      "경상": 7575,
      "행위": 7576,
      "##이사": 7577,
      "##바다": 7578,
      "외교부": 7579,
      "자국": 7580,
      "##화와": 7581,
      "종료": 7582,
      "종부": 7583,
      "파면": 7584,
      "##조치": 7585,
      "노력을": 7586,
      "시대에": 7587,
      "조롱": 7588,
      "마시고": 7589,
      "하더니": 7590,
      "##율은": 7591,
      "들어가는": 7592,
      "고정": 7593,
      "이참에": 7594,
      "좀비": 7595,
      "##거리를": 7596,
      "##넘들": 7597,
      "나은": 7598,
      "느낀": 7599,
      "밝혔": 7600,
      "시장을": 7601,
      "허가": 7602,
      "개나": 7603,
      "고쳐": 7604,
      "##장한": 7605,
      "경기가": 7606,
      "북부": 7607,
      "##개로": 7608,
      "##시장이": 7609,
      "##00원": 7610,
      "이용할": 7611,
      "대충": 7612,
      "소리가": 7613,
      "예능": 7614,
      "있었지만": 7615,
      "믿는": 7616,
      "같네요": 7617,
      "차원에서": 7618,
      "##처분": 7619,
      "지지자": 7620,
      "시장의": 7621,
      "사례가": 7622,
      "2000": 7623,
      "우린": 7624,
      "##기자": 7625,
      "##주에": 7626,
      "##한테는": 7627,
      "##보도": 7628,
      "##하에": 7629,
      "##60": 7630,
      "관세": 7631,
      "돈은": 7632,
      "방지": 7633,
      "민심": 7634,
      "아닌지": 7635,
      "출석": 7636,
      "이익을": 7637,
      "##나보네": 7638,
      "##사이": 7639,
      "국힘은": 7640,
      "소식": 7641,
      "##해준": 7642,
      "##시간이": 7643,
      "각자": 7644,
      "견제": 7645,
      "뮤지": 7646,
      "어떡": 7647,
      "즉각": 7648,
      "폭탄": 7649,
      "떠들": 7650,
      "당신을": 7651,
      "그만하고": 7652,
      "고등": 7653,
      "오를": 7654,
      "행동을": 7655,
      "구성된": 7656,
      "##피스": 7657,
      "##미를": 7658,
      "##날이": 7659,
      "추구": 7660,
      "##싸움": 7661,
      "##돌이": 7662,
      "##끄는": 7663,
      "감당": 7664,
      "서서": 7665,
      "건지": 7666,
      "많네": 7667,
      "싶어요": 7668,
      "뛰어난": 7669,
      "시나리오": 7670,
      "비중": 7671,
      "부모님": 7672,
      "가계": 7673,
      "설마": 7674,
      "##됐지만": 7675,
      "검찰의": 7676,
      "소상공인": 7677,
      "경상도": 7678,
      "원자": 7679,
      "죽는": 7680,
      "특허": 7681,
      "##분쯤": 7682,
      "##전과": 7683,
      "##신문": 7684,
      "따라서": 7685,
      "##알고": 7686,
      "##특별": 7687,
      "보내고": 7688,
      "##아니라": 7689,
      "우수한": 7690,
      "귀여": 7691,
      "망가": 7692,
      "부적": 7693,
      "##네들": 7694,
      "##겁게": 7695,
      "확인됐다": 7696,
      "지내": 7697,
      "##졌다고": 7698,
      "좌파들": 7699,
      "부대": 7700,
      "##거니": 7701,
      "합시다": 7702,
      "저소득층": 7703,
      "회사가": 7704,
      "무기징역": 7705,
      "유입": 7706,
      "현행": 7707,
      "##동의": 7708,
      "되어야": 7709,
      "이런게": 7710,
      "오늘도": 7711,
      "주사파": 7712,
      "맞이": 7713,
      "배운": 7714,
      "##부한": 7715,
      "하나가": 7716,
      "##연히": 7717,
      "##여자": 7718,
      "이재명을": 7719,
      "구간": 7720,
      "부품": 7721,
      "대책을": 7722,
      "##업자": 7723,
      "##mp": 7724,
      "197": 7725,
      "선전": 7726,
      "도심": 7727,
      "수소": 7728,
      "알려져": 7729,
      "자존": 7730,
      "기록했다": 7731,
      "씨는": 7732,
      "##스키": 7733,
      "##봉사": 7734,
      "김치": 7735,
      "매수": 7736,
      "##겠는데": 7737,
      "##았으면": 7738,
      "##사업을": 7739,
      "정착": 7740,
      "국민대": 7741,
      "국민세": 7742,
      "##만원이": 7743,
      "대통령도": 7744,
      "방탄소년": 7745,
      "바퀴": 7746,
      "뿌리": 7747,
      "협약": 7748,
      "##우기": 7749,
      "##하는구나": 7750,
      "적극적인": 7751,
      "저지른": 7752,
      "전공": 7753,
      "##상승": 7754,
      "전교": 7755,
      "지연": 7756,
      "피곤": 7757,
      "항의": 7758,
      "##지나": 7759,
      "##활동을": 7760,
      "본격적인": 7761,
      "xx": 7762,
      "기계": 7763,
      "대거": 7764,
      "집계": 7765,
      "##것만": 7766,
      "##진의": 7767,
      "붕괴": 7768,
      "태어나": 7769,
      "로맨": 7770,
      "수영": 7771,
      "유기": 7772,
      "일방": 7773,
      "##시와": 7774,
      "4대": 7775,
      "무당": 7776,
      "##씨와": 7777,
      "때문입니다": 7778,
      "그렇다": 7779,
      "독특": 7780,
      "##분간": 7781,
      "##인권": 7782,
      "발행": 7783,
      "신체": 7784,
      "붙어": 7785,
      "웃음": 7786,
      "##독재": 7787,
      "멀리": 7788,
      "종목": 7789,
      "##원들이": 7790,
      "##션을": 7791,
      "문화를": 7792,
      "당하고": 7793,
      "씨부": 7794,
      "죽어나": 7795,
      "##당에서": 7796,
      "사람들에게": 7797,
      "행복한": 7798,
      "깜빵": 7799,
      "##체험": 7800,
      "대학교": 7801,
      "이야기가": 7802,
      "약간": 7803,
      "##줄이": 7804,
      "지는": 7805,
      "행사는": 7806,
      "아니냐는": 7807,
      "열렸다": 7808,
      "##천지": 7809,
      "##웨이": 7810,
      "##질은": 7811,
      "51": 7812,
      "##월드": 7813,
      "##계층": 7814,
      "##감도": 7815,
      "찬양": 7816,
      "기각": 7817,
      "##지며": 7818,
      "##직을": 7819,
      "##쳐먹": 7820,
      "건의": 7821,
      "농촌": 7822,
      "매체": 7823,
      "투자를": 7824,
      "##비아": 7825,
      "문재인은": 7826,
      "간호": 7827,
      "무고": 7828,
      "중독": 7829,
      "칭찬": 7830,
      "편안": 7831,
      "##익을": 7832,
      "75": 7833,
      "핑계": 7834,
      "##군은": 7835,
      "현실을": 7836,
      "포함해": 7837,
      "서초": 7838,
      "졸라": 7839,
      "##선의": 7840,
      "곳에서": 7841,
      "네트워크": 7842,
      "##위에서": 7843,
      "친구가": 7844,
      "합법": 7845,
      "##👍👍": 7846,
      "사업은": 7847,
      "##살이": 7848,
      "미래가": 7849,
      "유포": 7850,
      "인용": 7851,
      "##치료": 7852,
      "인공지능": 7853,
      "전형적인": 7854,
      "IC": 7855,
      "신분": 7856,
      "출동": 7857,
      "##함과": 7858,
      "다름": 7859,
      "시장은": 7860,
      "앞뒤": 7861,
      "관련한": 7862,
      "돋보": 7863,
      "##종합": 7864,
      "##평화": 7865,
      "짐승": 7866,
      "드루킹": 7867,
      "사람에게": 7868,
      "고집": 7869,
      "매장": 7870,
      "맞은": 7871,
      "##해져": 7872,
      "55": 7873,
      "##되나": 7874,
      "주장이": 7875,
      "한참": 7876,
      "사회주의": 7877,
      "있을지": 7878,
      "##되냐": 7879,
      "##후에": 7880,
      "것이에요": 7881,
      "이제와서": 7882,
      "물타": 7883,
      "바쁘": 7884,
      "주지": 7885,
      "##책을": 7886,
      "한마디로": 7887,
      "되나": 7888,
      "민원": 7889,
      "편하게": 7890,
      "##객이": 7891,
      "인데": 7892,
      "##80": 7893,
      "도저히": 7894,
      "아들이": 7895,
      "거기서": 7896,
      "쯧쯧": 7897,
      "##동물": 7898,
      "국가를": 7899,
      "계기가": 7900,
      "보일": 7901,
      "향상": 7902,
      "##현이": 7903,
      "##해서는": 7904,
      "##아니냐": 7905,
      "가로": 7906,
      "재개": 7907,
      "##감은": 7908,
      "10억": 7909,
      "한다면": 7910,
      "지방자치": 7911,
      "했는지": 7912,
      "후보가": 7913,
      "무료로": 7914,
      "게다가": 7915,
      "산불": 7916,
      "인프라": 7917,
      "종사": 7918,
      "##와는": 7919,
      "정부에": 7920,
      "2개": 7921,
      "한게": 7922,
      "주목된다": 7923,
      "이따": 7924,
      "광우병": 7925,
      "##이너": 7926,
      "##종이": 7927,
      "아니라는": 7928,
      "IMF": 7929,
      "문통": 7930,
      "욕심": 7931,
      "등과": 7932,
      "시내": 7933,
      "장비": 7934,
      "##상품": 7935,
      "단축": 7936,
      "총장": 7937,
      "##아리": 7938,
      "단순히": 7939,
      "가상": 7940,
      "끝났": 7941,
      "현직": 7942,
      "시키고": 7943,
      "내리": 7944,
      "번역": 7945,
      "스토리가": 7946,
      "인건": 7947,
      "##말도": 7948,
      "##았지만": 7949,
      "받아들이": 7950,
      "싹다": 7951,
      "잡을": 7952,
      "##덩어리": 7953,
      "정신이": 7954,
      "이어지고": 7955,
      "유력": 7956,
      "##권에": 7957,
      "떨어질": 7958,
      "김대중": 7959,
      "김현": 7960,
      "무관": 7961,
      "##여명의": 7962,
      "이용한": 7963,
      "대리": 7964,
      "장제": 7965,
      "##분은": 7966,
      "##면을": 7967,
      "구속영": 7968,
      "점도": 7969,
      "편집": 7970,
      "##력에": 7971,
      "준석아": 7972,
      "기원": 7973,
      "속도": 7974,
      "41": 7975,
      "미만": 7976,
      "해주세요": 7977,
      "혈세": 7978,
      "##니터": 7979,
      "모임": 7980,
      "활약": 7981,
      "피해자가": 7982,
      "2009년": 7983,
      "것들은": 7984,
      "안산": 7985,
      "트위": 7986,
      "##관과": 7987,
      "##마니": 7988,
      "노동자": 7989,
      "검은": 7990,
      "무게": 7991,
      "정상화": 7992,
      "40대": 7993,
      "몽골": 7994,
      "싸이": 7995,
      "차이": 7996,
      "##이기도": 7997,
      "##지구": 7998,
      "##생산": 7999,
      "민주당과": 8000,
      "정신나간": 8001,
      "##하나요": 8002,
      "발생했다": 8003,
      "목숨을": 8004,
      "강간": 8005,
      "이정": 8006,
      "이때": 8007,
      "이정도면": 8008,
      "받는다": 8009,
      "시킨": 8010,
      "##이게": 8011,
      "##내서": 8012,
      "추진하는": 8013,
      "시켜라": 8014,
      "어우": 8015,
      "##할것": 8016,
      "선생님": 8017,
      "외환": 8018,
      "물리": 8019,
      "아이디": 8020,
      "힘들게": 8021,
      "올랐다": 8022,
      "##잘못": 8023,
      "우리나라가": 8024,
      "위원장": 8025,
      "제외한": 8026,
      "##역에서": 8027,
      "##사인": 8028,
      "경기를": 8029,
      "밥그릇": 8030,
      "##설팅": 8031,
      "##만으로도": 8032,
      "보급": 8033,
      "##시작": 8034,
      "연관": 8035,
      "북한은": 8036,
      "돌아가는": 8037,
      "나불": 8038,
      "내에": 8039,
      "당이": 8040,
      "조절": 8041,
      "##배를": 8042,
      "첨단": 8043,
      "1천": 8044,
      "1심": 8045,
      "놀이": 8046,
      "물을": 8047,
      "보다는": 8048,
      "집회": 8049,
      "함부로": 8050,
      "##조사를": 8051,
      "##경쟁": 8052,
      "보육": 8053,
      "맞춤형": 8054,
      "분열": 8055,
      "관계가": 8056,
      "확진자": 8057,
      "나아가": 8058,
      "박지": 8059,
      "특성": 8060,
      "사고를": 8061,
      "이유다": 8062,
      "개성": 8063,
      "달라고": 8064,
      "중도": 8065,
      "##동네": 8066,
      "##수와": 8067,
      "##는거임": 8068,
      "박사": 8069,
      "##기전에": 8070,
      "분석했다": 8071,
      "활용해": 8072,
      "교수가": 8073,
      "재활": 8074,
      "지인": 8075,
      "##근로": 8076,
      "리스크": 8077,
      "보관": 8078,
      "이끄는": 8079,
      "종전": 8080,
      "치는": 8081,
      "당당": 8082,
      "##지니": 8083,
      "##만든": 8084,
      "발생할": 8085,
      "점은": 8086,
      "##제의": 8087,
      "민주화": 8088,
      "코스피": 8089,
      "##래도": 8090,
      "CCTV": 8091,
      "꿈을": 8092,
      "당을": 8093,
      "밑에": 8094,
      "소녀": 8095,
      "이낙": 8096,
      "##다니는": 8097,
      "없애고": 8098,
      "##스티벌": 8099,
      "수비": 8100,
      "적응": 8101,
      "지원이": 8102,
      "기능을": 8103,
      "고향": 8104,
      "##다는거": 8105,
      "말에": 8106,
      "소화": 8107,
      "할배": 8108,
      "##대비": 8109,
      "사회에": 8110,
      "반전": 8111,
      "##피아": 8112,
      "부진": 8113,
      "학원": 8114,
      "동해": 8115,
      "39": 8116,
      "즐기": 8117,
      "향한": 8118,
      "##하자는": 8119,
      "##안되는": 8120,
      "과학기술": 8121,
      "EU": 8122,
      "나면": 8123,
      "선임": 8124,
      "식으로": 8125,
      "##종을": 8126,
      "민주노총": 8127,
      "당부했다": 8128,
      "못된": 8129,
      "부추": 8130,
      "나가서": 8131,
      "행정부": 8132,
      "##재미": 8133,
      "관계를": 8134,
      "듣는": 8135,
      "직원이": 8136,
      "##박이": 8137,
      "선수가": 8138,
      "의문": 8139,
      "##드폰": 8140,
      "배신자": 8141,
      "콘서트": 8142,
      "노사": 8143,
      "표시": 8144,
      "##번에": 8145,
      "하는구나": 8146,
      "전문가들은": 8147,
      "귀가": 8148,
      "볼만": 8149,
      "수석": 8150,
      "어째": 8151,
      "사랑하는": 8152,
      "요구하는": 8153,
      "고기": 8154,
      "우즈": 8155,
      "##정과": 8156,
      "##워요": 8157,
      "이름이": 8158,
      "옳은": 8159,
      "잔인": 8160,
      "좋겠습니다": 8161,
      "부끄러운": 8162,
      "##자동차": 8163,
      "공통": 8164,
      "아이고": 8165,
      "##티스트": 8166,
      "비율이": 8167,
      "그만해라": 8168,
      "부처": 8169,
      "음성": 8170,
      "##렀다": 8171,
      "정권의": 8172,
      "재밌다": 8173,
      "연기가": 8174,
      "분위기가": 8175,
      "명품": 8176,
      "정지": 8177,
      "제로": 8178,
      "진심으로": 8179,
      "광화문": 8180,
      "금방": 8181,
      "몇번": 8182,
      "올림픽": 8183,
      "2008년": 8184,
      "시대가": 8185,
      "##봐요": 8186,
      "경기도의": 8187,
      "배제": 8188,
      "빼앗": 8189,
      "##했으니": 8190,
      "잘못을": 8191,
      "입국": 8192,
      "##민의": 8193,
      "##아주": 8194,
      "정도가": 8195,
      "조언": 8196,
      "##하하": 8197,
      "##봤자": 8198,
      "XX": 8199,
      "속이": 8200,
      "##생에": 8201,
      "살아남": 8202,
      "거짓말을": 8203,
      "##연맹": 8204,
      "##량의": 8205,
      "##판이": 8206,
      "문제지": 8207,
      "외에": 8208,
      "치료를": 8209,
      "요즘은": 8210,
      "가시": 8211,
      "경력": 8212,
      "공영": 8213,
      "다루": 8214,
      "않아요": 8215,
      "##메이션": 8216,
      "목소리를": 8217,
      "##심한": 8218,
      "사이비": 8219,
      "##야말로": 8220,
      "##물질": 8221,
      "당초": 8222,
      "뭔데": 8223,
      "##통을": 8224,
      "스타일": 8225,
      "나대": 8226,
      "불리는": 8227,
      "무시하고": 8228,
      "##최고": 8229,
      "있었고": 8230,
      "구제": 8231,
      "서해": 8232,
      "좋습니다": 8233,
      "##인상": 8234,
      "##단으로": 8235,
      "하셨": 8236,
      "##중공": 8237,
      "##빠진": 8238,
      "##타격": 8239,
      "2시간": 8240,
      "싫은": 8241,
      "악의": 8242,
      "좌우": 8243,
      "뻔한": 8244,
      "창의": 8245,
      "자아": 8246,
      "##줬다": 8247,
      "##쪽에": 8248,
      "120": 8249,
      "직전": 8250,
      "합동": 8251,
      "스타트업": 8252,
      "내에서": 8253,
      "부상": 8254,
      "##내용": 8255,
      "##클럽": 8256,
      "자격이": 8257,
      "##혁신": 8258,
      "##토록": 8259,
      "문제인": 8260,
      "나선다": 8261,
      "숨진": 8262,
      "찾은": 8263,
      "##가도": 8264,
      "끝나고": 8265,
      "##km": 8266,
      "김용": 8267,
      "보좌": 8268,
      "비즈": 8269,
      "안하면": 8270,
      "##인에": 8271,
      "건데": 8272,
      "남성이": 8273,
      "드는": 8274,
      "점차": 8275,
      "com": 8276,
      "며칠": 8277,
      "수사가": 8278,
      "구청장": 8279,
      "의식": 8280,
      "아닌듯": 8281,
      "##카페": 8282,
      "##세상": 8283,
      "경제를": 8284,
      "##망을": 8285,
      "고려해": 8286,
      "먹은": 8287,
      "죽이": 8288,
      "표준": 8289,
      "사로잡": 8290,
      "고교": 8291,
      "양반": 8292,
      "##음악": 8293,
      "하나같이": 8294,
      "##연기": 8295,
      "걸렸": 8296,
      "국격": 8297,
      "도박": 8298,
      "목적으로": 8299,
      "제약": 8300,
      "##수있는": 8301,
      "넘쳐": 8302,
      "놀랍": 8303,
      "놓은": 8304,
      "떠올": 8305,
      "악질": 8306,
      "##전략": 8307,
      "내려와라": 8308,
      "상환": 8309,
      "일대": 8310,
      "나라냐": 8311,
      "이준석을": 8312,
      "조선일보": 8313,
      "한번도": 8314,
      "곳으로": 8315,
      "하였다": 8316,
      "##받았다": 8317,
      "위원장은": 8318,
      "공수": 8319,
      "변화를": 8320,
      "##망신": 8321,
      "일관": 8322,
      "입으로": 8323,
      "평범": 8324,
      "##리는게": 8325,
      "시기에": 8326,
      "##모를": 8327,
      "##버리": 8328,
      "보낼": 8329,
      "세뇌": 8330,
      "없었던": 8331,
      "진실을": 8332,
      "후진": 8333,
      "이용하는": 8334,
      "질환": 8335,
      "##훈이": 8336,
      "영화다": 8337,
      "아시안게임": 8338,
      "모색": 8339,
      "##메달": 8340,
      "날아": 8341,
      "##출산": 8342,
      "##했다가": 8343,
      "본인의": 8344,
      "##직한": 8345,
      "들어갈": 8346,
      "있었습니다": 8347,
      "끔찍": 8348,
      "배송": 8349,
      "석렬": 8350,
      "하네요": 8351,
      "##되니": 8352,
      "수사에": 8353,
      "챙기": 8354,
      "건강한": 8355,
      "ㅇㅇ": 8356,
      "살아야": 8357,
      "외면": 8358,
      "이겨": 8359,
      "착용": 8360,
      "탈출": 8361,
      "2억": 8362,
      "너나": 8363,
      "하는건": 8364,
      "성폭력": 8365,
      "58": 8366,
      "고의": 8367,
      "지겹다": 8368,
      "학생이": 8369,
      "강남구": 8370,
      "거대": 8371,
      "의존": 8372,
      "호흡": 8373,
      "##만하면": 8374,
      "##프로그램": 8375,
      "##것처럼": 8376,
      "##대문": 8377,
      "##등급": 8378,
      "##주행": 8379,
      "##협의": 8380,
      "기존의": 8381,
      "가려": 8382,
      "거품": 8383,
      "기후": 8384,
      "의뢰": 8385,
      "취득": 8386,
      "탁월": 8387,
      "##표가": 8388,
      "##됨에": 8389,
      "전라": 8390,
      "##교체": 8391,
      "듯한": 8392,
      "안됩니다": 8393,
      "##화하고": 8394,
      "공기": 8395,
      "말라": 8396,
      "명절": 8397,
      "##살인": 8398,
      "##사람들이": 8399,
      "정신병자": 8400,
      "고시": 8401,
      "고스": 8402,
      "마땅": 8403,
      "분석이": 8404,
      "패싱": 8405,
      "##였음": 8406,
      "고객이": 8407,
      "남는": 8408,
      "적합": 8409,
      "##자리에": 8410,
      "##해진다": 8411,
      "##스테": 8412,
      "높아지고": 8413,
      "##십시오": 8414,
      "##느니": 8415,
      "발언을": 8416,
      "##ing": 8417,
      "검사가": 8418,
      "스크": 8419,
      "세계에서": 8420,
      "뇌가": 8421,
      "하노": 8422,
      "##러진": 8423,
      "##부족": 8424,
      "##감한": 8425,
      "CE": 8426,
      "들을": 8427,
      "##시켰다": 8428,
      "질질": 8429,
      "철회": 8430,
      "##자산": 8431,
      "자유를": 8432,
      "비정": 8433,
      "지방선거": 8434,
      "나락": 8435,
      "연방": 8436,
      "이화": 8437,
      "되길": 8438,
      "전쟁을": 8439,
      "간의": 8440,
      "갑질": 8441,
      "권리": 8442,
      "마인": 8443,
      "미치": 8444,
      "##사용": 8445,
      "수준을": 8446,
      "내용도": 8447,
      "무섭다": 8448,
      "아까운": 8449,
      "다르게": 8450,
      "신호": 8451,
      "유해": 8452,
      "지은": 8453,
      "##유예": 8454,
      "않았지만": 8455,
      "신한": 8456,
      "안좋": 8457,
      "##꺼다": 8458,
      "팬들이": 8459,
      "##파가": 8460,
      "##졌다는": 8461,
      "사업에": 8462,
      "객관": 8463,
      "빨간": 8464,
      "산림": 8465,
      "##선에서": 8466,
      "가능성도": 8467,
      "개설": 8468,
      "심한": 8469,
      "##배상": 8470,
      "윤이": 8471,
      "##민족": 8472,
      "##가스": 8473,
      "##호텔": 8474,
      "만들어야": 8475,
      "탄핵이": 8476,
      "갈아": 8477,
      "감싸": 8478,
      "법과": 8479,
      "손님": 8480,
      "찾을": 8481,
      "사회가": 8482,
      "동참": 8483,
      "즐거": 8484,
      "##차이즈": 8485,
      "시스템을": 8486,
      "43": 8487,
      "##영웅": 8488,
      "양국": 8489,
      "화물": 8490,
      "##하더라": 8491,
      "##치로": 8492,
      "##오염": 8493,
      "##순간": 8494,
      "팀이": 8495,
      "현대차": 8496,
      "시점": 8497,
      "운용": 8498,
      "##대와": 8499,
      "##학습": 8500,
      "##oo": 8501,
      "어떻게든": 8502,
      "되기": 8503,
      "##감과": 8504,
      "기획재": 8505,
      "멸공": 8506,
      "##시즌": 8507,
      "##동에": 8508,
      "마포": 8509,
      "##법으로": 8510,
      "##부채": 8511,
      "##화점": 8512,
      "이재명의": 8513,
      "너를": 8514,
      "지어": 8515,
      "##버그": 8516,
      "##놈들은": 8517,
      "이외": 8518,
      "경험을": 8519,
      "정의당": 8520,
      "공작": 8521,
      "기어": 8522,
      "슬프": 8523,
      "42": 8524,
      "얻고": 8525,
      "어쩔수": 8526,
      "죽이고": 8527,
      "##100": 8528,
      "##내려": 8529,
      "이른바": 8530,
      "결승": 8531,
      "수리": 8532,
      "안전한": 8533,
      "이탈리아": 8534,
      "기분이": 8535,
      "동성애": 8536,
      "영구": 8537,
      "해먹": 8538,
      "대통령으로": 8539,
      "##검찰": 8540,
      "##하기는": 8541,
      "감히": 8542,
      "##정당": 8543,
      "##있으니": 8544,
      "##하다니": 8545,
      "나만": 8546,
      "파견": 8547,
      "다르다": 8548,
      "깔끔": 8549,
      "재미도": 8550,
      "##문학": 8551,
      "이번엔": 8552,
      "어려울": 8553,
      "보여준": 8554,
      "머리를": 8555,
      "웃긴": 8556,
      "##면에": 8557,
      "##경은": 8558,
      "이수": 8559,
      "한동훈이": 8560,
      "불공정": 8561,
      "##졌습니다": 8562,
      "##었는지": 8563,
      "##낸다": 8564,
      "모르나": 8565,
      "거냐": 8566,
      "지상": 8567,
      "친중": 8568,
      "통상": 8569,
      "선사": 8570,
      "잘라": 8571,
      "##리즘": 8572,
      "2배": 8573,
      "아픈": 8574,
      "익숙": 8575,
      "국힘이": 8576,
      "1회": 8577,
      "##일도": 8578,
      "##나니": 8579,
      "##적으로는": 8580,
      "유행": 8581,
      "##발을": 8582,
      "떨어지고": 8583,
      "발휘": 8584,
      "성능": 8585,
      "앞둔": 8586,
      "죽고": 8587,
      "##원도": 8588,
      "미국을": 8589,
      "공연이": 8590,
      "화성": 8591,
      "개인의": 8592,
      "50대": 8593,
      "독도": 8594,
      "디스": 8595,
      "진작": 8596,
      "자연스럽게": 8597,
      "나가는": 8598,
      "어설": 8599,
      "평등": 8600,
      "부담을": 8601,
      "성격": 8602,
      "죄송": 8603,
      "중에서": 8604,
      "침해": 8605,
      "##하노": 8606,
      "않냐": 8607,
      "전작": 8608,
      "##하든": 8609,
      "##개국": 8610,
      "##승을": 8611,
      "우리에게": 8612,
      "생각도": 8613,
      "줄이고": 8614,
      "##미는": 8615,
      "스파": 8616,
      "알았다": 8617,
      "영양": 8618,
      "업무를": 8619,
      "정신차려라": 8620,
      "부당": 8621,
      "##기나": 8622,
      "##고는": 8623,
      "##화하는": 8624,
      "##됐으며": 8625,
      "범죄를": 8626,
      "##액을": 8627,
      "재미는": 8628,
      "분위기를": 8629,
      "불가피": 8630,
      "가지가": 8631,
      "손에": 8632,
      "이주": 8633,
      "장소": 8634,
      "##드려": 8635,
      "##너스": 8636,
      "패거리": 8637,
      "##데이터": 8638,
      "공무원이": 8639,
      "불리": 8640,
      "사우디": 8641,
      "작업을": 8642,
      "##계에": 8643,
      "##상식": 8644,
      "공개했다": 8645,
      "간부": 8646,
      "의회": 8647,
      "##계는": 8648,
      "##그라": 8649,
      "##즈아": 8650,
      "휴대폰": 8651,
      "스케": 8652,
      "##하죠": 8653,
      "박용진": 8654,
      "몸에": 8655,
      "##보다도": 8656,
      "모든게": 8657,
      "재앙이": 8658,
      "넘치는": 8659,
      "달하는": 8660,
      "##인물": 8661,
      "지역은": 8662,
      "아직까지": 8663,
      "관여": 8664,
      "마시": 8665,
      "##매가": 8666,
      "자유롭게": 8667,
      "하여간": 8668,
      "김명": 8669,
      "모니터": 8670,
      "증시": 8671,
      "작품을": 8672,
      "##하시길": 8673,
      "말하고": 8674,
      "매입": 8675,
      "이념": 8676,
      "##했다면": 8677,
      "김재": 8678,
      "일시": 8679,
      "충청": 8680,
      "당신에게": 8681,
      "버닝": 8682,
      "용서": 8683,
      "토착": 8684,
      "##어준": 8685,
      "##먼트": 8686,
      "여성의": 8687,
      "인정하고": 8688,
      "걸릴": 8689,
      "나이가": 8690,
      "대화를": 8691,
      "어마": 8692,
      "이전에": 8693,
      "있구나": 8694,
      "##내야": 8695,
      "##모가": 8696,
      "참여할": 8697,
      "가벼": 8698,
      "계좌": 8699,
      "광복": 8700,
      "막아": 8701,
      "미치는": 8702,
      "저장": 8703,
      "파트": 8704,
      "한일": 8705,
      "조사하고": 8706,
      "끝이": 8707,
      "늦게": 8708,
      "아우": 8709,
      "##으신": 8710,
      "##선택": 8711,
      "언론의": 8712,
      "##자료": 8713,
      "##준비": 8714,
      "경우도": 8715,
      "도지사": 8716,
      "없던": 8717,
      "추석": 8718,
      "##대사": 8719,
      "##여성": 8720,
      "##하겠네": 8721,
      "소식이": 8722,
      "##만은": 8723,
      "하려": 8724,
      "##권은": 8725,
      "##트롤": 8726,
      "44": 8727,
      "걸고": 8728,
      "달아": 8729,
      "둘째": 8730,
      "소각": 8731,
      "##발이": 8732,
      "##실한": 8733,
      "인간들은": 8734,
      "때부터": 8735,
      "아티스트": 8736,
      "##권의": 8737,
      "내용의": 8738,
      "뜯어": 8739,
      "리그": 8740,
      "뭐지": 8741,
      "##적이지": 8742,
      "게임입니다": 8743,
      "##센터가": 8744,
      "목표로": 8745,
      "건너": 8746,
      "꼬라": 8747,
      "잠깐": 8748,
      "이번에는": 8749,
      "오랫": 8750,
      "웃기는": 8751,
      "이렇": 8752,
      "테스트": 8753,
      "##익이": 8754,
      "윤석열을": 8755,
      "##교육을": 8756,
      "소수": 8757,
      "전수": 8758,
      "올바른": 8759,
      "amp": 8760,
      "권고": 8761,
      "노릇": 8762,
      "비트": 8763,
      "석유": 8764,
      "영혼": 8765,
      "협조": 8766,
      "호응": 8767,
      "증거가": 8768,
      "교과": 8769,
      "많지": 8770,
      "충돌": 8771,
      "2022년": 8772,
      "제2의": 8773,
      "오리": 8774,
      "읽어": 8775,
      "진료": 8776,
      "##거라고": 8777,
      "##축구": 8778,
      "언제부터": 8779,
      "주장하는": 8780,
      "비속어": 8781,
      "방사": 8782,
      "##량은": 8783,
      "한국영화": 8784,
      "상태에서": 8785,
      "안타깝다": 8786,
      "막기": 8787,
      "탈북": 8788,
      "한국당": 8789,
      "연애": 8790,
      "##갑니다": 8791,
      "진행되는": 8792,
      "박홍": 8793,
      "예를": 8794,
      "무엇인지": 8795,
      "49": 8796,
      "강제로": 8797,
      "##점검": 8798,
      "##순환": 8799,
      "##위원회는": 8800,
      "않아도": 8801,
      "본격적으로": 8802,
      "46": 8803,
      "동생": 8804,
      "불거": 8805,
      "##XX": 8806,
      "이런걸": 8807,
      "그녀의": 8808,
      "기사는": 8809,
      "끌려": 8810,
      "많을": 8811,
      "재수": 8812,
      "토대로": 8813,
      "##훼손": 8814,
      "의결": 8815,
      "##단과": 8816,
      "생길": 8817,
      "작동": 8818,
      "##늦게": 8819,
      "거리두": 8820,
      "그다": 8821,
      "했지": 8822,
      "행안부": 8823,
      "##아냐": 8824,
      "전망이": 8825,
      "병역": 8826,
      "##∼20": 8827,
      "발전을": 8828,
      "방향으로": 8829,
      "면접": 8830,
      "역겹다": 8831,
      "종로": 8832,
      "##재밌": 8833,
      "10시": 8834,
      "대답": 8835,
      "산하": 8836,
      "유저": 8837,
      "지출": 8838,
      "##자유": 8839,
      "전망된다": 8840,
      "화려한": 8841,
      "차를": 8842,
      "클라": 8843,
      "##인에게": 8844,
      "##스팅": 8845,
      "##슬람": 8846,
      "맡은": 8847,
      "야구": 8848,
      "의사가": 8849,
      "주한": 8850,
      "##하던데": 8851,
      "창원": 8852,
      "집값이": 8853,
      "메시지를": 8854,
      "##주니": 8855,
      "##으로도": 8856,
      "다큐": 8857,
      "박탈": 8858,
      "스팀": 8859,
      "주면": 8860,
      "##구멍": 8861,
      "느끼는": 8862,
      "기생충": 8863,
      "소요": 8864,
      "##가면서": 8865,
      "##든다": 8866,
      "보니까": 8867,
      "시발": 8868,
      "##방에서": 8869,
      "##성한": 8870,
      "부정선거": 8871,
      "기아": 8872,
      "한인": 8873,
      "현상이": 8874,
      "##지네": 8875,
      "##워야": 8876,
      "##하고도": 8877,
      "하지말": 8878,
      "없애라": 8879,
      "없네요": 8880,
      "오토": 8881,
      "##플레": 8882,
      "##혀서": 8883,
      "어디로": 8884,
      "환경을": 8885,
      "기다려": 8886,
      "풀이된다": 8887,
      "검사를": 8888,
      "아기": 8889,
      "적지": 8890,
      "차가": 8891,
      "지금이": 8892,
      "나설": 8893,
      "돌봄": 8894,
      "원인이": 8895,
      "아이템": 8896,
      "읽고": 8897,
      "실시한": 8898,
      "이벤트": 8899,
      "##으세요": 8900,
      "##들에게는": 8901,
      "욕하는": 8902,
      "##되게": 8903,
      "영향으로": 8904,
      "나간": 8905,
      "부회": 8906,
      "유니": 8907,
      "저건": 8908,
      "정진": 8909,
      "주력": 8910,
      "##가자": 8911,
      "조금만": 8912,
      "재무": 8913,
      "한정": 8914,
      "둘러싼": 8915,
      "3대": 8916,
      "서류": 8917,
      "요양": 8918,
      "##드만": 8919,
      "##차로": 8920,
      "##봐서": 8921,
      "유동": 8922,
      "쿠테타": 8923,
      "총리가": 8924,
      "지지자들": 8925,
      "끼리": 8926,
      "인사를": 8927,
      "코리아": 8928,
      "클래": 8929,
      "##ST": 8930,
      "대대": 8931,
      "위하여": 8932,
      "후손": 8933,
      "##카르": 8934,
      "##재로": 8935,
      "##세다": 8936,
      "##농업": 8937,
      "저딴": 8938,
      "자신들의": 8939,
      "하루빨리": 8940,
      "멀한": 8941,
      "파티": 8942,
      "뭐하나": 8943,
      "일주일": 8944,
      "윤썩": 8945,
      "상생": 8946,
      "##신도": 8947,
      "##실히": 8948,
      "인생을": 8949,
      "만들어진": 8950,
      "자유민주주의": 8951,
      "동영상": 8952,
      "##으러": 8953,
      "분탕": 8954,
      "수집": 8955,
      "안한다": 8956,
      "##북부": 8957,
      "##받지": 8958,
      "건강보험": 8959,
      "제조업": 8960,
      "리얼": 8961,
      "##싱턴": 8962,
      "##선으로": 8963,
      "지들끼리": 8964,
      "문제에": 8965,
      "여유": 8966,
      "즐기는": 8967,
      "196": 8968,
      "##을까요": 8969,
      "긍정적인": 8970,
      "드러나": 8971,
      "##되는거": 8972,
      "위험한": 8973,
      "800": 8974,
      "목사": 8975,
      "회장은": 8976,
      "##색이": 8977,
      "##허가": 8978,
      "당일": 8979,
      "국민과": 8980,
      "현재까지": 8981,
      "막말": 8982,
      "비례": 8983,
      "잡는": 8984,
      "##중에도": 8985,
      "인간을": 8986,
      "지속적인": 8987,
      "유튜버": 8988,
      "내야": 8989,
      "언론사": 8990,
      "선포": 8991,
      "없도록": 8992,
      "탑승": 8993,
      "##타고": 8994,
      "##접한": 8995,
      "일자리를": 8996,
      "측이": 8997,
      "##부장": 8998,
      "사람들도": 8999,
      "알았는데": 9000,
      "남겨": 9001,
      "드디어": 9002,
      "또다시": 9003,
      "억지로": 9004,
      "자진": 9005,
      "정규직": 9006,
      "크고": 9007,
      "##소한": 9008,
      "##령을": 9009,
      "미개": 9010,
      "##이브": 9011,
      "##신청": 9012,
      "확인하고": 9013,
      "외에도": 9014,
      "질문에": 9015,
      "프리미엄": 9016,
      "1위를": 9017,
      "찾고": 9018,
      "##화의": 9019,
      "##코리아": 9020,
      "##론을": 9021,
      "##추진": 9022,
      "##센터에서": 9023,
      "##럭시": 9024,
      "트위터": 9025,
      "없게": 9026,
      "윤짜": 9027,
      "적절한": 9028,
      "##서의": 9029,
      "워낙": 9030,
      "자리가": 9031,
      "분야에서": 9032,
      "능력을": 9033,
      "코인": 9034,
      "한자리": 9035,
      "무려": 9036,
      "보존": 9037,
      "많음": 9038,
      "엄벌": 9039,
      "##아파트": 9040,
      "균형": 9041,
      "##대도": 9042,
      "경제는": 9043,
      "꿈꾸": 9044,
      "아줌마": 9045,
      "스트레": 9046,
      "국산": 9047,
      "높게": 9048,
      "부지": 9049,
      "원을": 9050,
      "일하고": 9051,
      "##19": 9052,
      "경우에는": 9053,
      "##공산당": 9054,
      "감성": 9055,
      "##그런": 9056,
      "##am": 9057,
      "결정을": 9058,
      "대국민": 9059,
      "의지를": 9060,
      "중고": 9061,
      "##하더라도": 9062,
      "##거는": 9063,
      "없어져야": 9064,
      "구멍": 9065,
      "시사": 9066,
      "싸게": 9067,
      "자발": 9068,
      "접촉": 9069,
      "유일하게": 9070,
      "최강": 9071,
      "오프": 9072,
      "##역에": 9073,
      "##세포": 9074,
      "##내기": 9075,
      "##래기": 9076,
      "9시": 9077,
      "김포": 9078,
      "업체가": 9079,
      "이같이": 9080,
      "##없으면": 9081,
      "장점": 9082,
      "##연한": 9083,
      "10만": 9084,
      "이뤄질": 9085,
      "보조금": 9086,
      "명백": 9087,
      "발목": 9088,
      "연주": 9089,
      "##키로": 9090,
      "정도면": 9091,
      "##신고": 9092,
      "다음달": 9093,
      "##해주면": 9094,
      "구경": 9095,
      "미중": 9096,
      "##과제": 9097,
      "미국도": 9098,
      "돈도": 9099,
      "##스에서": 9100,
      "하는것": 9101,
      "대표하는": 9102,
      "배상": 9103,
      "유능": 9104,
      "3천": 9105,
      "공중": 9106,
      "단기": 9107,
      "먹어": 9108,
      "잡은": 9109,
      "119": 9110,
      "망할": 9111,
      "정식": 9112,
      "파는": 9113,
      "몰래": 9114,
      "어깨": 9115,
      "##소의": 9116,
      "##낭비": 9117,
      "##인데도": 9118,
      "정권은": 9119,
      "공익": 9120,
      "무상": 9121,
      "##여야": 9122,
      "비행기": 9123,
      "적절": 9124,
      "지랄": 9125,
      "구태": 9126,
      "판문": 9127,
      "이어지는": 9128,
      "애를": 9129,
      "의사를": 9130,
      "임신": 9131,
      "##하느라": 9132,
      "##우지": 9133,
      "재밌는": 9134,
      "##부담": 9135,
      "쓰지": 9136,
      "해산": 9137,
      "##행사": 9138,
      "예산을": 9139,
      "자폐": 9140,
      "##드라": 9141,
      "상태다": 9142,
      "활용한": 9143,
      "로스": 9144,
      "상업": 9145,
      "##등록": 9146,
      "##집에": 9147,
      "##때가": 9148,
      "이러다": 9149,
      "##장애인": 9150,
      "깊이": 9151,
      "##쇼핑": 9152,
      "증가한": 9153,
      "포함된": 9154,
      "다주택": 9155,
      "만만": 9156,
      "삭감": 9157,
      "키우는": 9158,
      "안만": 9159,
      "퇴임": 9160,
      "##저씨": 9161,
      "검찰공화국": 9162,
      "하수": 9163,
      "##듯한": 9164,
      "벌레": 9165,
      "유족": 9166,
      "##가로": 9167,
      "##기관이": 9168,
      "사적": 9169,
      "62": 9170,
      "받으면": 9171,
      "비디오": 9172,
      "인종": 9173,
      "##겨서": 9174,
      "##인게": 9175,
      "했냐": 9176,
      "모르겠지만": 9177,
      "어디에": 9178,
      "학교에": 9179,
      "비용이": 9180,
      "검찰총장": 9181,
      "정도는": 9182,
      "부탁드립니다": 9183,
      "사전에": 9184,
      "착한": 9185,
      "할지": 9186,
      "박홍근": 9187,
      "결합": 9188,
      "전장": 9189,
      "##기록": 9190,
      "의원의": 9191,
      "곳이다": 9192,
      "특유의": 9193,
      "##값이": 9194,
      "대한민국에": 9195,
      "이어졌다": 9196,
      "개딸들": 9197,
      "##케이": 9198,
      "##억원의": 9199,
      "이길": 9200,
      "토지": 9201,
      "어쩌다": 9202,
      "보입니다": 9203,
      "소식을": 9204,
      "주기": 9205,
      "틀린": 9206,
      "##하지마": 9207,
      "대변인은": 9208,
      "많습니다": 9209,
      "육아": 9210,
      "재능": 9211,
      "보내는": 9212,
      "충분한": 9213,
      "##지마세요": 9214,
      "3만": 9215,
      "결코": 9216,
      "면역": 9217,
      "##하기를": 9218,
      "비교적": 9219,
      "궁금하다": 9220,
      "몇몇": 9221,
      "일에": 9222,
      "현황": 9223,
      "##하지는": 9224,
      "##하기가": 9225,
      "민주당에": 9226,
      "입원": 9227,
      "##건으로": 9228,
      "##ver": 9229,
      "##청에": 9230,
      "사고로": 9231,
      "물타기": 9232,
      "방북": 9233,
      "##신은": 9234,
      "자체를": 9235,
      "건가": 9236,
      "군인": 9237,
      "얻을": 9238,
      "편리": 9239,
      "##ct": 9240,
      "##레이드": 9241,
      "할아버": 9242,
      "##마리": 9243,
      "##호선": 9244,
      "##EC": 9245,
      "사건의": 9246,
      "개발한": 9247,
      "KB": 9248,
      "갑니다": 9249,
      "무더": 9250,
      "빌려": 9251,
      "대통령에게": 9252,
      "영화에": 9253,
      "들어오": 9254,
      "중간에": 9255,
      "한미동맹": 9256,
      "들려": 9257,
      "않다는": 9258,
      "연휴": 9259,
      "청약": 9260,
      "##트리": 9261,
      "##우를": 9262,
      "##무역": 9263,
      "스피": 9264,
      "##크로": 9265,
      "##타운": 9266,
      "그러면서": 9267,
      "놀아": 9268,
      "##소송": 9269,
      "##였지만": 9270,
      "경쟁력": 9271,
      "개돼지들": 9272,
      "운동권": 9273,
      "누군가": 9274,
      "성접": 9275,
      "오면": 9276,
      "이메": 9277,
      "징징": 9278,
      "평가가": 9279,
      "##정지": 9280,
      "국내에서": 9281,
      "놀러": 9282,
      "##린다고": 9283,
      "##들이랑": 9284,
      "못함": 9285,
      "얘기를": 9286,
      "임원": 9287,
      "항소": 9288,
      "##것같다": 9289,
      "화장실": 9290,
      "노력이": 9291,
      "메르": 9292,
      "문가": 9293,
      "심의": 9294,
      "욕하고": 9295,
      "총질": 9296,
      "포착": 9297,
      "사회의": 9298,
      "않는다는": 9299,
      "화장품": 9300,
      "월세": 9301,
      "처벌을": 9302,
      "무혐의": 9303,
      "충전": 9304,
      "##부인": 9305,
      "##합니까": 9306,
      "막장": 9307,
      "##모르": 9308,
      "청와대가": 9309,
      "확실한": 9310,
      "오세훈": 9311,
      "더블": 9312,
      "덮어": 9313,
      "비정상": 9314,
      "철학": 9315,
      "하도": 9316,
      "##메디": 9317,
      "##주년을": 9318,
      "워싱턴": 9319,
      "이은": 9320,
      "테마": 9321,
      "##폭탄": 9322,
      "지지를": 9323,
      "부끄럽": 9324,
      "국개의원": 9325,
      "하더라도": 9326,
      "기대가": 9327,
      "조금씩": 9328,
      "아는데": 9329,
      "탓에": 9330,
      "현장에": 9331,
      "##하는거지": 9332,
      "다수의": 9333,
      "##해왔다": 9334,
      "##석열": 9335,
      "경찰들": 9336,
      "60대": 9337,
      "망하게": 9338,
      "##로도": 9339,
      "학생들의": 9340,
      "넘어서": 9341,
      "못해서": 9342,
      "##있다고": 9343,
      "베이징": 9344,
      "몸을": 9345,
      "초등학생": 9346,
      "머물": 9347,
      "몸이": 9348,
      "1명": 9349,
      "A씨": 9350,
      "안쓰": 9351,
      "전파": 9352,
      "##인척": 9353,
      "##해졌다": 9354,
      "##으려는": 9355,
      "##적은": 9356,
      "그러다": 9357,
      "책임이": 9358,
      "개돼지로": 9359,
      "망쳐": 9360,
      "##단체가": 9361,
      "국정원": 9362,
      "총선에서": 9363,
      "교환": 9364,
      "뭐니": 9365,
      "이xx": 9366,
      "장례": 9367,
      "##름이": 9368,
      "대다수": 9369,
      "소중한": 9370,
      "##결이": 9371,
      "##줘도": 9372,
      "되었습니다": 9373,
      "추종": 9374,
      "##보복": 9375,
      "##더냐": 9376,
      "##션이": 9377,
      "정치가": 9378,
      "깜짝": 9379,
      "요새": 9380,
      "얼굴이": 9381,
      "차지하는": 9382,
      "원희": 9383,
      "##만들어": 9384,
      "##용차": 9385,
      "##수하고": 9386,
      "기업을": 9387,
      "진행됐다": 9388,
      "학교에서": 9389,
      "사과를": 9390,
      "아끼": 9391,
      "##스파": 9392,
      "##테인": 9393,
      "##풀이": 9394,
      "일어난": 9395,
      "구현": 9396,
      "그중": 9397,
      "내릴": 9398,
      "앞세": 9399,
      "영업이": 9400,
      "절차를": 9401,
      "중학교": 9402,
      "즐거운": 9403,
      "참모": 9404,
      "불쌍한": 9405,
      "분류": 9406,
      "##것다": 9407,
      "재미있는": 9408,
      "스토리도": 9409,
      "것인가": 9410,
      "다스": 9411,
      "싱글": 9412,
      "전주": 9413,
      "추방": 9414,
      "##누리": 9415,
      "정치인들": 9416,
      "북괴": 9417,
      "##였으면": 9418,
      "##버려": 9419,
      "박원순": 9420,
      "마치고": 9421,
      "올렸": 9422,
      "임영웅": 9423,
      "환자가": 9424,
      "##자다": 9425,
      "정치인이": 9426,
      "기다리고": 9427,
      "싶으면": 9428,
      "##도안": 9429,
      "것이란": 9430,
      "아름다": 9431,
      "막고": 9432,
      "승객": 9433,
      "식물": 9434,
      "직원들이": 9435,
      "기반으로": 9436,
      "9급": 9437,
      "급등": 9438,
      "##넘이": 9439,
      "3억": 9440,
      "##걸까": 9441,
      "하나는": 9442,
      "즐겨": 9443,
      "폭로": 9444,
      "##∼3": 9445,
      "어려움": 9446,
      "어떨": 9447,
      "이성": 9448,
      "##겠습니까": 9449,
      "##진과": 9450,
      "##견이": 9451,
      "내놓은": 9452,
      "떠나서": 9453,
      "잔잔": 9454,
      "포스코": 9455,
      "공개한": 9456,
      "방문한": 9457,
      "시키는": 9458,
      "대형마트": 9459,
      "일각": 9460,
      "다음에": 9461,
      "윤통이": 9462,
      "망신": 9463,
      "개인정보": 9464,
      "커녕": 9465,
      "##인사": 9466,
      "##bs": 9467,
      "10개": 9468,
      "윤도리": 9469,
      "수습": 9470,
      "##공장": 9471,
      "##하는거야": 9472,
      "각자도": 9473,
      "해주는": 9474,
      "여행을": 9475,
      "벤처": 9476,
      "##호는": 9477,
      "##해야함": 9478,
      "추진하고": 9479,
      "공정한": 9480,
      "영장": 9481,
      "좋게": 9482,
      "준서": 9483,
      "한계가": 9484,
      "편의점": 9485,
      "불확": 9486,
      "##않고": 9487,
      "물이": 9488,
      "지불": 9489,
      "채권": 9490,
      "##바리": 9491,
      "보증": 9492,
      "천공": 9493,
      "##았을": 9494,
      "형태로": 9495,
      "만났": 9496,
      "10대": 9497,
      "선도": 9498,
      "시켰": 9499,
      "이들을": 9500,
      "##지수": 9501,
      "세계적으로": 9502,
      "애니메이션": 9503,
      "미성": 9504,
      "욕먹": 9505,
      "임직원": 9506,
      "원숭": 9507,
      "좀더": 9508,
      "##분들이": 9509,
      "##잡이": 9510,
      "##론이": 9511,
      "세금이": 9512,
      "놈들은": 9513,
      "일정을": 9514,
      "줘야": 9515,
      "##00만원": 9516,
      "어느정도": 9517,
      "비호": 9518,
      "이쯤": 9519,
      "팬들의": 9520,
      "아름답": 9521,
      "딸이": 9522,
      "여자는": 9523,
      "이죄": 9524,
      "이슬람": 9525,
      "사건은": 9526,
      "6개": 9527,
      "끊임": 9528,
      "##보유": 9529,
      "지역을": 9530,
      "기사에": 9531,
      "논의가": 9532,
      "마감": 9533,
      "먹으면": 9534,
      "##답니다": 9535,
      "##좀해라": 9536,
      "종부세": 9537,
      "어케": 9538,
      "##es": 9539,
      "##체계": 9540,
      "이상민": 9541,
      "들어갔": 9542,
      "그런지": 9543,
      "시골": 9544,
      "현상": 9545,
      "##재는": 9546,
      "##선은": 9547,
      "하나님의": 9548,
      "경우는": 9549,
      "부분을": 9550,
      "김정숙": 9551,
      "가중": 9552,
      "나경": 9553,
      "설문": 9554,
      "제도를": 9555,
      "##is": 9556,
      "##폭력": 9557,
      "모은": 9558,
      "##어져": 9559,
      "##TA": 9560,
      "단순한": 9561,
      "내지": 9562,
      "##놨다": 9563,
      "##감사": 9564,
      "보건복지": 9565,
      "##시요": 9566,
      "##대응": 9567,
      "뒤를": 9568,
      "모인": 9569,
      "체크": 9570,
      "타임": 9571,
      "허구": 9572,
      "힐링": 9573,
      "##트랙": 9574,
      "##왔던": 9575,
      "이대": 9576,
      "##치한": 9577,
      "에게": 9578,
      "재명": 9579,
      "##부문": 9580,
      "##합의": 9581,
      "안되지": 9582,
      "업종": 9583,
      "채워": 9584,
      "##랑이": 9585,
      "전망했다": 9586,
      "완벽한": 9587,
      "내각": 9588,
      "치우": 9589,
      "##치의": 9590,
      "##반대": 9591,
      "대통령님": 9592,
      "늘어날": 9593,
      "에어컨": 9594,
      "배가": 9595,
      "요소": 9596,
      "##해봐야": 9597,
      "결과에": 9598,
      "##스럽고": 9599,
      "그릇": 9600,
      "수급": 9601,
      "지분": 9602,
      "한겨": 9603,
      "##인멸": 9604,
      "감옥에": 9605,
      "수수료": 9606,
      "민폐": 9607,
      "하던데": 9608,
      "##잔아": 9609,
      "그런가": 9610,
      "평가했다": 9611,
      "자본주의": 9612,
      "선제타격": 9613,
      "못차": 9614,
      "오죽": 9615,
      "이시": 9616,
      "##사령": 9617,
      "##맞고": 9618,
      "애기": 9619,
      "##에게도": 9620,
      "문제의": 9621,
      "그러고": 9622,
      "전쟁이": 9623,
      "돈주고": 9624,
      "##웠던": 9625,
      "2007년": 9626,
      "쓰면": 9627,
      "오르고": 9628,
      "점령": 9629,
      "##인건": 9630,
      "##ion": 9631,
      "사이트": 9632,
      "인간아": 9633,
      "##기업이": 9634,
      "살면서": 9635,
      "수사권": 9636,
      "##펀드": 9637,
      "이런데": 9638,
      "이상을": 9639,
      "금융당": 9640,
      "갈등이": 9641,
      "꺼져라": 9642,
      "식사": 9643,
      "##소시": 9644,
      "##할게": 9645,
      "##심사": 9646,
      "사이에서": 9647,
      "되겠네": 9648,
      "##드니": 9649,
      "##농단": 9650,
      "재판에": 9651,
      "같네": 9652,
      "늘려": 9653,
      "당첨": 9654,
      "싶어서": 9655,
      "티켓": 9656,
      "##이죠": 9657,
      "##질러": 9658,
      "가격을": 9659,
      "아마도": 9660,
      "허위사실": 9661,
      "말아야": 9662,
      "명복을": 9663,
      "인구가": 9664,
      "찍고": 9665,
      "##률은": 9666,
      "서울의": 9667,
      "올라가": 9668,
      "47": 9669,
      "합병": 9670,
      "##모습": 9671,
      "##촬영": 9672,
      "보이스": 9673,
      "승진": 9674,
      "##봅니다": 9675,
      "스티": 9676,
      "아쉬운": 9677,
      "원인을": 9678,
      "할만": 9679,
      "프로그램이": 9680,
      "곳곳에": 9681,
      "만세": 9682,
      "받아서": 9683,
      "쓰러": 9684,
      "영끌": 9685,
      "##있습니다": 9686,
      "##시간을": 9687,
      "보여주고": 9688,
      "A씨는": 9689,
      "매주": 9690,
      "머리에": 9691,
      "상당한": 9692,
      "선박": 9693,
      "옷을": 9694,
      "입맛": 9695,
      "비용을": 9696,
      "과정이": 9697,
      "신중": 9698,
      "올렸다": 9699,
      "##풍이": 9700,
      "##화한": 9701,
      "##올림픽": 9702,
      "만나는": 9703,
      "손해배상": 9704,
      "북송": 9705,
      "썩어": 9706,
      "좋아서": 9707,
      "##집을": 9708,
      "상품을": 9709,
      "뮤지컬": 9710,
      "북측": 9711,
      "뽑았": 9712,
      "사교육": 9713,
      "##리핑": 9714,
      "##졌는데": 9715,
      "장면이": 9716,
      "1개": 9717,
      "채택": 9718,
      "파주": 9719,
      "##관계를": 9720,
      "##작품": 9721,
      "과태": 9722,
      "서양": 9723,
      "한남": 9724,
      "##해봐": 9725,
      "안하냐": 9726,
      "##관계가": 9727,
      "##억달러": 9728,
      "함께하는": 9729,
      "삼성바이오": 9730,
      "가질": 9731,
      "날씨": 9732,
      "손실": 9733,
      "##심의": 9734,
      "##혁명": 9735,
      "언론탄압": 9736,
      "##연구소": 9737,
      "교통사고": 9738,
      "##ed": 9739,
      "정부를": 9740,
      "##정권이": 9741,
      "7시": 9742,
      "개고": 9743,
      "원희룡": 9744,
      "수여": 9745,
      "신흥": 9746,
      "##보이": 9747,
      "하나요": 9748,
      "머저리": 9749,
      "반응을": 9750,
      "마친": 9751,
      "##없는데": 9752,
      "배우고": 9753,
      "부천": 9754,
      "하여튼": 9755,
      "써라": 9756,
      "에너": 9757,
      "착수": 9758,
      "해줄": 9759,
      "##서로": 9760,
      "본인은": 9761,
      "보수가": 9762,
      "소위": 9763,
      "좌좀": 9764,
      "##해양": 9765,
      "##속으로": 9766,
      "##달아": 9767,
      "가난한": 9768,
      "골목": 9769,
      "세부": 9770,
      "위장": 9771,
      "포스터": 9772,
      "하겠지": 9773,
      "##그만": 9774,
      "어떠한": 9775,
      "당분간": 9776,
      "싫으면": 9777,
      "애가": 9778,
      "좋았다": 9779,
      "##들인": 9780,
      "철거": 9781,
      "##보며": 9782,
      "소년": 9783,
      "유죄": 9784,
      "##력도": 9785,
      "##마냥": 9786,
      "우리나라도": 9787,
      "마주": 9788,
      "준공": 9789,
      "컨트롤": 9790,
      "##구니": 9791,
      "##키스탄": 9792,
      "##값을": 9793,
      "##축제": 9794,
      "어쩌고": 9795,
      "고민정": 9796,
      "낮추": 9797,
      "라인": 9798,
      "일삼": 9799,
      "##나이": 9800,
      "##바라": 9801,
      "##되었고": 9802,
      "노래를": 9803,
      "법조": 9804,
      "##기다": 9805,
      "##질의": 9806,
      "싶은데": 9807,
      "##보건": 9808,
      "##PG": 9809,
      "국가에서": 9810,
      "정신을": 9811,
      "##정부의": 9812,
      "나섰": 9813,
      "보며": 9814,
      "컨텐츠": 9815,
      "컨설팅": 9816,
      "하청": 9817,
      "##시장은": 9818,
      "가졌다": 9819,
      "인명": 9820,
      "처먹": 9821,
      "##가구": 9822,
      "최신": 9823,
      "##줄알": 9824,
      "##둥이": 9825,
      "위원장의": 9826,
      "유투": 9827,
      "있네요": 9828,
      "화학": 9829,
      "##불가": 9830,
      "##곳을": 9831,
      "##토리": 9832,
      "집행유예": 9833,
      "##이구나": 9834,
      "##식과": 9835,
      "##사이트": 9836,
      "2시": 9837,
      "대안": 9838,
      "성동": 9839,
      "시정": 9840,
      "##터테인": 9841,
      "##빨갱": 9842,
      "문화가": 9843,
      "앞장서": 9844,
      "더한": 9845,
      "보네": 9846,
      "웃고": 9847,
      "저걸": 9848,
      "비서실": 9849,
      "놈은": 9850,
      "팔고": 9851,
      "##et": 9852,
      "##모로": 9853,
      "결국은": 9854,
      "불편한": 9855,
      "부작용": 9856,
      "부총": 9857,
      "패널": 9858,
      "##11": 9859,
      "##러가": 9860,
      "##닫고": 9861,
      "영향이": 9862,
      "저렴한": 9863,
      "김원": 9864,
      "얻은": 9865,
      "침략": 9866,
      "뭐든": 9867,
      "상속": 9868,
      "##있을": 9869,
      "정치경찰": 9870,
      "비즈니스": 9871,
      "건조": 9872,
      "인가": 9873,
      "탄탄": 9874,
      "10여": 9875,
      "북한과": 9876,
      "명분": 9877,
      "##요일에": 9878,
      "하나하나": 9879,
      "그러게": 9880,
      "주둥이": 9881,
      "것이라": 9882,
      "뒤통수": 9883,
      "변동": 9884,
      "부부가": 9885,
      "사찰": 9886,
      "안되면": 9887,
      "하겠다는": 9888,
      "##음에도": 9889,
      "면허": 9890,
      "트렌": 9891,
      "##국인": 9892,
      "국가와": 9893,
      "현재의": 9894,
      "##이었는데": 9895,
      "계약을": 9896,
      "표적": 9897,
      "##티즌": 9898,
      "두산": 9899,
      "아는게": 9900,
      "##마가": 9901,
      "##물은": 9902,
      "하늘을": 9903,
      "독특한": 9904,
      "반등": 9905,
      "##처먹": 9906,
      "##정책을": 9907,
      "걸로": 9908,
      "격려": 9909,
      "없어도": 9910,
      "잇따라": 9911,
      "점유": 9912,
      "##에다": 9913,
      "##였다고": 9914,
      "내려오": 9915,
      "공을": 9916,
      "그날": 9917,
      "이르": 9918,
      "입시": 9919,
      "조사됐다": 9920,
      "비대위": 9921,
      "김경수": 9922,
      "너거": 9923,
      "보다가": 9924,
      "이스": 9925,
      "##웨어": 9926,
      "윤석열과": 9927,
      "바람이": 9928,
      "날려": 9929,
      "원활": 9930,
      "매출이": 9931,
      "4분기": 9932,
      "것만": 9933,
      "엉뚱": 9934,
      "할때": 9935,
      "윤석열의": 9936,
      "필요합니다": 9937,
      "다해": 9938,
      "분당": 9939,
      "안할": 9940,
      "##네ㅋㅋ": 9941,
      "##퇴근": 9942,
      "##미나": 9943,
      "##살을": 9944,
      "언론은": 9945,
      "경기에서": 9946,
      "##못하고": 9947,
      "국회가": 9948,
      "증거인멸": 9949,
      "원장": 9950,
      "위안부": 9951,
      "잊혀": 9952,
      "##급을": 9953,
      "민주당을": 9954,
      "어렵게": 9955,
      "어색": 9956,
      "진지": 9957,
      "짜고": 9958,
      "##감에": 9959,
      "##라는게": 9960,
      "운영하고": 9961,
      "올릴": 9962,
      "추적": 9963,
      "텐데": 9964,
      "48초": 9965,
      "4명": 9966,
      "길게": 9967,
      "데다": 9968,
      "말자": 9969,
      "##라며": 9970,
      "##케이션": 9971,
      "##시설을": 9972,
      "비판했다": 9973,
      "이낙연": 9974,
      "강추": 9975,
      "증언": 9976,
      "한쪽": 9977,
      "##는것": 9978,
      "##자식": 9979,
      "##철도": 9980,
      "만진당": 9981,
      "중증": 9982,
      "##ED": 9983,
      "방향을": 9984,
      "넣고": 9985,
      "찾기": 9986,
      "##국에서": 9987,
      "##질에": 9988,
      "공부를": 9989,
      "창작": 9990,
      "흥행": 9991,
      "##FC": 9992,
      "왜냐하면": 9993,
      "벗어": 9994,
      "비하면": 9995,
      "윤미": 9996,
      "정수": 9997,
      "기준을": 9998,
      "쓸데없는": 9999,
      "과도한": 10000,
      "신도시": 10001,
      "##못하는": 10002,
      "간편": 10003,
      "기자들": 10004,
      "전당": 10005,
      "쪽으로": 10006,
      "##하의": 10007,
      "진행될": 10008,
      "24시간": 10009,
      "가즈아": 10010,
      "속도를": 10011,
      "식민": 10012,
      "지금이라도": 10013,
      "러시아는": 10014,
      "정상회담을": 10015,
      "노잼": 10016,
      "매도": 10017,
      "열면": 10018,
      "나서서": 10019,
      "기자회견을": 10020,
      "피의자": 10021,
      "1층": 10022,
      "ㅈㄴ": 10023,
      "목격": 10024,
      "불량": 10025,
      "집으로": 10026,
      "파렴": 10027,
      "##로만": 10028,
      "##담당": 10029,
      "##례를": 10030,
      "기준이": 10031,
      "갖춰": 10032,
      "공시": 10033,
      "나토": 10034,
      "진행하는": 10035,
      "구체적으로": 10036,
      "##두창": 10037,
      "##00만": 10038,
      "우습게": 10039,
      "사안": 10040,
      "조현": 10041,
      "##치에": 10042,
      "##종일": 10043,
      "이해를": 10044,
      "증가하고": 10045,
      "대중교통": 10046,
      "가슴이": 10047,
      "2명": 10048,
      "오르는": 10049,
      "위대한": 10050,
      "있는가": 10051,
      "사실이다": 10052,
      "상태로": 10053,
      "배터리": 10054,
      "창조": 10055,
      "##기한": 10056,
      "##회의를": 10057,
      "계속해서": 10058,
      "시켜야": 10059,
      "에서는": 10060,
      "##데이": 10061,
      "능력도": 10062,
      "선배": 10063,
      "저학력": 10064,
      "한층": 10065,
      "##광역": 10066,
      "노조가": 10067,
      "강의": 10068,
      "중반": 10069,
      "##벤처": 10070,
      "진행하고": 10071,
      "문화재": 10072,
      "행사에는": 10073,
      "CEO": 10074,
      "건보": 10075,
      "불어": 10076,
      "지사는": 10077,
      "참신": 10078,
      "경기도지사가": 10079,
      "사실은": 10080,
      "여론이": 10081,
      "뻔뻔한": 10082,
      "귀엽": 10083,
      "대량": 10084,
      "미칠": 10085,
      "벤츠": 10086,
      "저항": 10087,
      "나오는데": 10088,
      "차지했다": 10089,
      "모으고": 10090,
      "미성년": 10091,
      "미마": 10092,
      "베네": 10093,
      "##였어": 10094,
      "이제야": 10095,
      "대한민국에서": 10096,
      "정책에": 10097,
      "대책이": 10098,
      "경계": 10099,
      "동기": 10100,
      "삶이": 10101,
      "##속히": 10102,
      "##현실": 10103,
      "##건에": 10104,
      "##나도": 10105,
      "##약품": 10106,
      "경쟁력을": 10107,
      "행사에": 10108,
      "전교조": 10109,
      "넘들": 10110,
      "구역": 10111,
      "매매": 10112,
      "복원": 10113,
      "없기": 10114,
      "죽일": 10115,
      "##중의": 10116,
      "제품이": 10117,
      "##은행이": 10118,
      "면제": 10119,
      "수의": 10120,
      "스페": 10121,
      "애쓴다": 10122,
      "##팀은": 10123,
      "우리나라의": 10124,
      "그녀가": 10125,
      "철저한": 10126,
      "오랫동안": 10127,
      "버려": 10128,
      "않아서": 10129,
      "이쁘": 10130,
      "현장을": 10131,
      "무역전쟁": 10132,
      "관람객": 10133,
      "공략": 10134,
      "불륜": 10135,
      "시달": 10136,
      "일할": 10137,
      "적정": 10138,
      "종이": 10139,
      "##하기에": 10140,
      "이해할": 10141,
      "위험이": 10142,
      "성형": 10143,
      "통보": 10144,
      "##고에": 10145,
      "##졌지만": 10146,
      "##뿐이다": 10147,
      "고용노동": 10148,
      "기무": 10149,
      "심화": 10150,
      "엄격": 10151,
      "##겠군": 10152,
      "##옵니다": 10153,
      "판단했다": 10154,
      "힘내세요": 10155,
      "높이고": 10156,
      "만화": 10157,
      "손잡고": 10158,
      "은혜": 10159,
      "##각을": 10160,
      "각자도생": 10161,
      "물류": 10162,
      "##서와": 10163,
      "기업에": 10164,
      "시선을": 10165,
      "더듬당": 10166,
      "바쁜": 10167,
      "생기는": 10168,
      "시대를": 10169,
      "여태": 10170,
      "##령이": 10171,
      "만든다": 10172,
      "받기": 10173,
      "사드": 10174,
      "사장이": 10175,
      "캠프": 10176,
      "##즈를": 10177,
      "활성화를": 10178,
      "##주인공": 10179,
      "파트너": 10180,
      "당내": 10181,
      "안심": 10182,
      "측정": 10183,
      "##속에서": 10184,
      "##수지": 10185,
      "##사범": 10186,
      "부장판": 10187,
      "상임": 10188,
      "좋음": 10189,
      "##겠구나": 10190,
      "##하는거냐": 10191,
      "연기를": 10192,
      "##하가": 10193,
      "##치도": 10194,
      "##애들이": 10195,
      "##설이": 10196,
      "아이들을": 10197,
      "권성동이": 10198,
      "재발": 10199,
      "##공연": 10200,
      "##생명": 10201,
      "10명": 10202,
      "구형": 10203,
      "소외": 10204,
      "외무": 10205,
      "##결을": 10206,
      "정말로": 10207,
      "국가대표": 10208,
      "수면": 10209,
      "저출산": 10210,
      "조카": 10211,
      "##견을": 10212,
      "걱정이": 10213,
      "자는": 10214,
      "해준": 10215,
      "##목으로": 10216,
      "지나가는": 10217,
      "일으킨": 10218,
      "##공자": 10219,
      "##회의에서": 10220,
      "분야의": 10221,
      "굥이": 10222,
      "대해선": 10223,
      "##아들": 10224,
      "5억": 10225,
      "것보다": 10226,
      "마구": 10227,
      "방영": 10228,
      "스웨": 10229,
      "이간": 10230,
      "##졌던": 10231,
      "##없지": 10232,
      "##있어요": 10233,
      "##꼴통": 10234,
      "경찰과": 10235,
      "왜이리": 10236,
      "침체": 10237,
      "티비": 10238,
      "##참여": 10239,
      "아이디어": 10240,
      "그리스": 10241,
      "집무": 10242,
      "##였네": 10243,
      "##배는": 10244,
      "못하면서": 10245,
      "싶지": 10246,
      "한나라": 10247,
      "##시지": 10248,
      "비정규직": 10249,
      "거두": 10250,
      "대외": 10251,
      "맞을": 10252,
      "셀프": 10253,
      "에스": 10254,
      "##자마자": 10255,
      "##바람": 10256,
      "소비자가": 10257,
      "3D": 10258,
      "56": 10259,
      "열었다": 10260,
      "##님을": 10261,
      "##되길": 10262,
      "부끄러": 10263,
      "계엄": 10264,
      "국세": 10265,
      "내렸다": 10266,
      "술을": 10267,
      "아파": 10268,
      "여기는": 10269,
      "할말": 10270,
      "작품이": 10271,
      "넘어가": 10272,
      "잘살": 10273,
      "증상이": 10274,
      "##전의": 10275,
      "##임에도": 10276,
      "##위원장이": 10277,
      "기본적인": 10278,
      "겪는": 10279,
      "써야": 10280,
      "오만": 10281,
      "##외로": 10282,
      "서울중앙": 10283,
      "##전문가": 10284,
      "손바닥": 10285,
      "접대": 10286,
      "##순위": 10287,
      "공론": 10288,
      "##부부": 10289,
      "북한을": 10290,
      "국익을": 10291,
      "말하면": 10292,
      "물려": 10293,
      "입장에서": 10294,
      "##사진": 10295,
      "중심의": 10296,
      "신임": 10297,
      "교육이": 10298,
      "##하겠냐": 10299,
      "기간이": 10300,
      "담아": 10301,
      "천재": 10302,
      "파리": 10303,
      "할일": 10304,
      "##환자": 10305,
      "재밌음": 10306,
      "비판이": 10307,
      "사망자": 10308,
      "죽인": 10309,
      "##서울": 10310,
      "##구리": 10311,
      "##ol": 10312,
      "보여준다": 10313,
      "얘기다": 10314,
      "늘어나고": 10315,
      "피고": 10316,
      "보고도": 10317,
      "부분은": 10318,
      "고속도로": 10319,
      "일어날": 10320,
      "네티즌": 10321,
      "세운": 10322,
      "아울": 10323,
      "주범": 10324,
      "##래요": 10325,
      "막상": 10326,
      "성별": 10327,
      "##이유": 10328,
      "##없어서": 10329,
      "기업은": 10330,
      "결과는": 10331,
      "서비스가": 10332,
      "6시": 10333,
      "모여서": 10334,
      "상습": 10335,
      "의장": 10336,
      "장식": 10337,
      "재배": 10338,
      "프랜": 10339,
      "##없다고": 10340,
      "##되도록": 10341,
      "SBS": 10342,
      "공화": 10343,
      "꺼내": 10344,
      "되게": 10345,
      "뒤늦게": 10346,
      "지목": 10347,
      "펀드": 10348,
      "##인력": 10349,
      "이런건": 10350,
      "사용한": 10351,
      "음악을": 10352,
      "나빠": 10353,
      "많다는": 10354,
      "시는": 10355,
      "확충": 10356,
      "##il": 10357,
      "난이도": 10358,
      "연루": 10359,
      "이르는": 10360,
      "사건에": 10361,
      "이뤄진": 10362,
      "기능이": 10363,
      "실질적인": 10364,
      "검출": 10365,
      "방식이": 10366,
      "소프트": 10367,
      "위법": 10368,
      "인류": 10369,
      "인스타": 10370,
      "##롭고": 10371,
      "195": 10372,
      "격리": 10373,
      "박물": 10374,
      "지사": 10375,
      "권력에": 10376,
      "신뢰를": 10377,
      "##라스틱": 10378,
      "85": 10379,
      "가이드": 10380,
      "메인": 10381,
      "지긋": 10382,
      "추모": 10383,
      "##어는": 10384,
      "##람회": 10385,
      "있다가": 10386,
      "조사한": 10387,
      "하루에": 10388,
      "공동으로": 10389,
      "단체로": 10390,
      "넓은": 10391,
      "법사": 10392,
      "판사가": 10393,
      "##당으로": 10394,
      "##평양": 10395,
      "좋겠어요": 10396,
      "53": 10397,
      "따져": 10398,
      "심심": 10399,
      "치명": 10400,
      "##준이": 10401,
      "있다며": 10402,
      "정치에": 10403,
      "근로자": 10404,
      "검사는": 10405,
      "웃기고": 10406,
      "##락을": 10407,
      "##시켜서": 10408,
      "기관이": 10409,
      "무정부": 10410,
      "변명": 10411,
      "숙박": 10412,
      "않기": 10413,
      "영토": 10414,
      "찌질": 10415,
      "무서워": 10416,
      "##유치원": 10417,
      "높고": 10418,
      "숨겨": 10419,
      "의지가": 10420,
      "##가입": 10421,
      "##지는데": 10422,
      "##보증": 10423,
      "##잡을": 10424,
      "만들지": 10425,
      "2주": 10426,
      "##터가": 10427,
      "##사람들은": 10428,
      "공간을": 10429,
      "누적": 10430,
      "야외": 10431,
      "헤어": 10432,
      "경비": 10433,
      "널리": 10434,
      "비하": 10435,
      "##나가는": 10436,
      "##렸는데": 10437,
      "지구를": 10438,
      "잇따": 10439,
      "##았다는": 10440,
      "##층의": 10441,
      "##납니다": 10442,
      "대한항공": 10443,
      "수업을": 10444,
      "스위": 10445,
      "실업": 10446,
      "어서": 10447,
      "유쾌": 10448,
      "##쳐라": 10449,
      "10분": 10450,
      "말라고": 10451,
      "법원이": 10452,
      "부드": 10453,
      "상용": 10454,
      "우리나라에": 10455,
      "기록한": 10456,
      "엄마가": 10457,
      "석열아": 10458,
      "불확실": 10459,
      "강행": 10460,
      "시공": 10461,
      "##자본": 10462,
      "##질로": 10463,
      "##철수": 10464,
      "가능할": 10465,
      "##지않고": 10466,
      "거기다": 10467,
      "북미정상회담": 10468,
      "5000": 10469,
      "와이프": 10470,
      "줄줄이": 10471,
      "지났": 10472,
      "##료로": 10473,
      "##꾸로": 10474,
      "난이": 10475,
      "살짝": 10476,
      "죽어도": 10477,
      "진영": 10478,
      "##포를": 10479,
      "##반이": 10480,
      "마지막에": 10481,
      "목적이": 10482,
      "발급": 10483,
      "시가": 10484,
      "합류": 10485,
      "##앞에서": 10486,
      "민정수석": 10487,
      "같냐": 10488,
      "영상이": 10489,
      "##렸던": 10490,
      "지원할": 10491,
      "무엇이": 10492,
      "안타까운": 10493,
      "2명이": 10494,
      "무소": 10495,
      "신경쓰": 10496,
      "김씨는": 10497,
      "되면서": 10498,
      "청렴": 10499,
      "포인트": 10500,
      "해수": 10501,
      "손흥민": 10502,
      "8시": 10503,
      "주가가": 10504,
      "없다면": 10505,
      "돌아다니": 10506,
      "전기요금": 10507,
      "##지않은": 10508,
      "도가": 10509,
      "물에": 10510,
      "유독": 10511,
      "적어": 10512,
      "##15": 10513,
      "##못해": 10514,
      "##식에는": 10515,
      "숫자": 10516,
      "스튜": 10517,
      "싸가지": 10518,
      "아부": 10519,
      "무능하고": 10520,
      "기억에": 10521,
      "경쟁이": 10522,
      "얼굴을": 10523,
      "건진": 10524,
[...]
