[PAD]
[UNK]
[CLS]
[SEP]
[MASK]
!
%
(
)
*
,
.
/
0
1
2
3
4
5
6
7
8
9
?
A
B
C
D
E
F
G
H
I
J
K
L
M
N
O
P
R
S
T
U
V
W
X
Y
a
b
c
d
e
f
g
h
i
j
k
l
m
n
o
p
r
s
t
u
v
w
x
y
~
·
∼
ㄱ
ㄴ
ㄷ
ㄹ
ㅂ
ㅅ
ㅇ
ㅈ
ㅉ
ㅋ
ㅎ
ㅜ
ㅠ
ㅡ
ㆍ
가
각
간
갈
감
갑
값
갓
갔
강
갖
같
개
객
갱
걍
거
걱
건
걷
걸
검
겁
것
게
겐
겜
겟
겠
겨
격
겪
견
결
겸
겹
겼
경
계
고
곡
곤
곧
골
곳
공
과
관
광
괜
괴
교
굥
구
국
군
굳
굴
굿
궁
권
귀
규
균
그
극
근
글
금
급
긋
긍
기
긴
길
김
깊
까
깐
깔
깜
깝
깡
깨
꺼
껄
껏
께
껴
꼬
꼭
꼴
꼼
꼽
꽃
꾸
꾼
꿀
꿈
꿔
뀌
끄
끈
끊
끌
끔
끗
끝
끼
낀
낄
낌
나
낙
난
날
남
납
낫
났
낭
낮
낳
내
낸
낼
냄
냈
냉
냐
냥
너
넌
널
넓
넘
넣
네
넷
녀
녁
년
념
녕
노
녹
논
놀
놈
농
높
놓
놔
놨
뇌
누
눈
뉴
느
는
늘
늙
능
늦
니
닉
닌
닐
님
닙
닝
다
닥
단
닫
달
닭
담
답
당
대
댄
댓
더
덕
던
덜
덤
덧
덩
덮
데
델
도
독
돈
돋
돌
돕
동
돼
됐
되
된
될
됨
됩
두
둑
둔
둘
둥
둬
뒤
뒷
드
득
든
듣
들
듬
듭
듯
등
디
딜
딩
따
딱
딴
딸
땅
때
땐
땜
떠
떡
떤
떨
떻
떼
또
똑
똘
똥
뚜
뚱
뛰
뜨
뜯
뜻
라
락
란
랄
람
랍
랐
랑
래
랙
랜
램
랫
랬
략
량
러
럭
런
럴
럼
럽
렀
렁
렇
레
렉
렌
려
력
련
렬
렴
렵
렸
령
례
로
록
론
롤
롭
롯
롱
뢰
료
룡
루
룸
룹
뤄
류
륙
륜
률
륭
르
른
를
름
릇
릉
리
릭
린
릴
림
립
릿
링
마
막
만
많
말
맘
맙
맛
망
맞
맡
매
맥
맨
맹
머
먹
먼
멀
멈
멋
멍
메
멘
멤
며
면
멸
명
몇
모
목
몬
몰
몸
못
몽
묘
무
묵
문
묻
물
뭉
뭐
뭔
뭘
뮤
므
미
민
믿
밀
밌
밍
및
밑
바
박
밖
반
받
발
밝
밤
밥
방
배
백
뱅
버
번
벌
범
법
벗
베
벤
벨
벼
벽
변
별
병
보
복
본
볼
봄
봅
봇
봉
봐
봤
부
북
분
불
붕
붙
뷰
브
블
비
빅
빈
빌
빙
빚
빛
빠
빡
빨
빵
빼
뻔
뽑
뽕
뿌
뿐
쁘
쁜
사
삭
산
살
삶
삼
샀
상
새
색
생
샤
서
석
선
설
섬
섭
섰
성
세
센
셀
셈
셔
션
셨
소
속
손
솔
송
쇄
쇠
쇼
수
숙
순
술
숨
숫
숭
쉬
쉽
슈
스
슨
슬
슴
습
슷
승
시
식
신
실
싫
심
십
싱
싶
싸
싹
싼
쌀
쌍
쌓
써
썩
썼
쏘
쏟
쏠
쓰
쓴
쓸
씀
씌
씨
씩
씬
아
악
안
앉
않
알
암
압
앗
았
앙
앞
애
액
앤
앱
야
약
양
얘
어
억
언
얻
얼
엄
업
없
엇
었
엉
에
엑
엔
엘
엠
여
역
연
열
염
엽
였
영
옆
예
옛
오
옥
온
올
옮
옳
옴
옵
옷
옹
와
완
왔
왕
왜
외
요
욕
용
우
욱
운
울
움
웃
웅
워
원
월
웠
웨
위
윈
유
육
윤
율
융
으
은
을
음
읍
응
의
이
익
인
일
읽
잃
임
입
잇
있
잉
잊
자
작
잔
잖
잘
잠
잡
장
재
잼
쟁
저
적
전
절
젊
점
접
정
제
젝
젠
젤
져
졌
조
족
존
졸
좀
종
좋
좌
죄
죠
주
죽
준
줄
줌
줍
중
줘
줬
쥐
즈
즉
즌
즐
즘
증
지
직
진
질
짐
집
짓
징
짖
짜
짝
짤
짧
짱
째
쩌
쩔
쪼
쪽
쫓
쯤
쯧
찌
찍
찢
차
착
찬
찮
찰
참
창
찾
채
책
챙
처
척
천
철
첨
첩
첫
청
체
쳐
쳤
초
촉
촌
총
촬
최
추
축
춘
출
춤
충
춰
취
츠
측
층
치
칙
친
칠
침
칭
카
칼
캐
캠
커
컨
컬
컴
컵
케
켓
켜
켰
코
콘
콜
콩
쾌
쿠
퀴
큐
크
큰
클
큼
키
킨
킬
킹
타
탁
탄
탈
탐
탑
탓
탕
태
택
터
턴
털
테
텐
텔
템
토
톡
톤
통
퇴
투
튀
튜
트
특
튼
틀
티
틱
틴
팀
팅
파
판
팔
패
팩
팬
팽
퍼
펀
페
펜
펠
펴
편
펼
평
폐
포
폭
폰
폴
폼
표
푸
풀
품
풍
퓨
프
픈
플
피
픽
핀
필
핑
하
학
한
할
함
합
항
해
핵
햇
했
행
향
허
헌
헐
험
헛
헤
헬
혀
혁
현
혈
혐
협
혔
형
혜
호
혹
혼
홀
홈
홍
화
확
환
활
황
회
획
횡
효
후
훈
훌
훨
훼
휘
휴
흉
흐
흑
흔
흘
흠
흡
흥
희
히
힌
힐
힘
️
🐕
👍
##께
##져
##요
##휘
##하
##는
##것
##이
##픽
##업
##명
##기
##거
##자
##료
##챙
##겨
##서
##금
##도
##월
##1
##4
##일
##인
##데
##로
##라
##결
##해
##악
##산
##국
##립
##공
##원
##은
##소
##리
##네
##8
##정
##한
##건
##남
##시
##민
##급
##구
##조
##대
##가
##땅
##에
##ㆍ
##발
##못
##붙
##게
##야
##다
##들
##을
##법
##지
##만
##천
##위
##개
##잘
##계
##분
##식
##치
##방
##즘
##염
##병
##관
##빼
##냐
##싱
##용
##품
##유
##커
##피
##단
##겠
##고
##팔
##와
##송
##나
##말
##투
##비
##걸
##차
##년
##속
##전
##란
##k
##님
##포
##통
##장
##르
##그
##러
##며
##답
##임
##바
##닥
##묵
##면
##신
##의
##술
##i
##r
##v
##오
##력
##니
##파
##꾼
##동
##당
##연
##마
##워
##노
##럼
##아
##찰
##총
##부
##터
##달
##여
##량
##권
##으
##졌
##진
##수
##실
##없
##락
##카
##형
##환
##경
##점
##등
##킬
##려
##스
##목
##풍
##간
##어
##온
##2
##7
##억
##R
##역
##봐
##교
##K
##텔
##레
##했
##ㅋ
##북
##받
##았
##0
##3
##었
##재
##짝
##봤
##회
##되
##셈
##히
##할
##갈
##준
##세
##두
##5
##집
##ㅠ
##얼
##프
##트
##웨
##사
##놓
##침
##까
##합
##케
##학
##죽
##주
##절
##곤
##를
##화
##뿐
##흥
##련
##y
##e
##착
##올
##눈
##성
##질
##줘
##보
##상
##던
##불
##쏘
##줄
##안
##끊
##O
##테
##애
##선
##호
##과
##쓰
##취
##표
##싸
##B
##중
##삼
##막
##색
##적
##우
##높
##무
##짓
##겁
##편
##휴
##내
##십
##복
##둘
##째
##빠
##찬
##영
##광
##였
##생
##셨
##태
##틀
##드
##담
##밀
##래
##활
##더
##체
##삶
##죠
##따
##퍼
##센
##난
##람
##알
##랑
##디
##풀
##논
##율
##입
##넘
##록
##죄
##석
##획
##종
##땜
##꼬
##셔
##크
##왜
##판
##플
##탕
##밥
##렸
##낌
##좀
##런
##직
##초
##돌
##C
##G
##강
##변
##퇴
##햇
##모
##제
##출
##키
##군
##탓
##행
##심
##놨
##겼
##ㅡ
##류
##있
##끝
##예
##쇠
##w
##o
##t
##h
##박
##미
##느
##D
##슷
##링
##패
##J
##P
##좌
##놀
##ㅇ
##써
##희
##현
##외
##저
##긋
##름
##값
##린
##배
##처
##타
##뤄
##루
##됐
##너
##티
##매
##왕
##운
##났
##엔
##액
##후
##ㅎ
##폰
##설
##됩
##함
##쌍
##버
##범
##친
##새
##든
##욕
##션
##렁
##쳐
##창
##필
##짖
##맹
##약
##숭
##갔
##앗
##끼
##Y
##독
##감
##택
##참
##협
##닐
##쏟
##잡
##때
##망
##습
##측
##육
##녀
##울
##몰
##빵
##봅
##슬
##릴
##9
##충
##능
##ㅉ
##험
##몬
##문
##욱
##탄
##듯
##떻
##책
##검
##김
##️
##효
##듭
##된
##낀
##옥
##층
##겟
##견
##N
##S
##놈
##멸
##림
##핵
##른
##컬
##음
##돼
##메
##긴
##승
##각
##령
##딸
##및
##짤
##l
##될
##작
##릇
##팀
##베
##봄
##페
##ㅜ
##언
##맞
##6
##족
##쇼
##응
##뜻
##례
##럭
##코
##왔
##a
##x
##덕
##청
##별
##렇
##홍
##c
##잔
##n
##s
##클
##같
##먼
##압
##맛
##섭
##녕
##떨
##누
##반
##살
##즈
##밌
##많
##혁
##먹
##곳
##폭
##률
##론
##잇
##푸
##뜨
##옴
##꿔
##굴
##탈
##브
##헬
##맙
##쥐
##또
##랜
##낮
##줌
##앙
##양
##웠
##쏠
##봉
##촌
##혐
##쪼
##궁
##싶
##벗
##캠
##핑
##뒷
##읽
##증
##농
##움
##렬
##킨
##걱
##허
##닝
##랄
##램
##골
##본
##물
##앤
##념
##∼
##항
##추
##길
##향
##납
##번
##득
##훈
##뻔
##존
##탁
##징
##륜
##퓨
##끄
##닌
##텐
##ㅅ
##슈
##순
##댓
##익
##얘
##믿
##u
##g
##혀
##쫓
##좋
##쟁
##랐
##뭐
##빌
##큼
##빈
##냥
##특
##극
##줬
##톡
##젤
##m
##접
##객
##숙
##볼
##껄
##큐
##셀
##격
##켜
##낭
##엇
##콜
##돈
##p
##꼽
##딩
##채
##않
##굿
##캐
##열
##ㄴ
##토
##폐
##팅
##즌
##랍
##d
##슨
##손
##윈
##밑
##촉
##H
##댄
##킹
##괴
##뢰
##떼
##빛
##잖
##황
##엄
##칼
##확
##찾
##둥
##헌
##밖
##M
##b
##탑
##엑
##짜
##쯤
##글
##평
##겜
##ㄱ
##W
##팽
##칠
##혼
##백
##규
##앞
##첨
##흡
##쁘
##깝
##쳤
##슴
##랬
##쩌
##릭
##옷
##T
##꼴
##깔
##씨
##읍
##머
##졸
##룡
##켰
##덤
##벽
##혔
##윤
##깐
##칭
##f
##썼
##힘
##넷
##뱅
##롭
##맨
##갑
##듬
##찍
##싹
##싼
##웃
##I
##쉬
##떡
##겸
##럽
##척
##놔
##찌
##철
##깨
##잉
##맥
##땐
##벤
##펀
##빙
##벌
##끌
##둑
##렀
##U
##똘
##암
##흔
##늘
##털
##뉴
##짐
##축
##날
##ㄷ
##X
##딴
##숨
##L
##튼
##쩔
##츠
##꺼
##홀
##뚱
##퀴
##짱
##잼
##뜯
##웅
##략
##갱
##춰
##빨
##륙
##A
##엘
##ㄹ
##템
##몽
##녹
##컴
##쌀
##뒤
##균
##딱
##됨
##턴
##껴
##쇄
##낸
##솔
##👍
##뭉
##춘
##깡
##융
##옵
##튜
##벨
##냈
##F
##근
##낳
##낼
##팩
##흉
##헛
##쓸
##완
##떤
##넣
##콘
##탐
##뿌
##횡
##곡
##쉽
##쪽
##렉
##몸
##V
##뭘
##E
##켓
##봇
##흑
##긍
##둔
##뇌
##붕
##떠
##널
##멍
##옮
##핀
##씩
##젠
##최
##톤
##덮
##혜
##랙
##컵
##튀
##뷰
##귀
##혈
##렵
##펜
##릿
##싫
##옹
##덩
##블
##찢
##쌓
##룹
##넌
##홈
##렴
##끔
##샤
##씌
##닭
##멘
##쁜
##맘
##폼
##럴
##썩
##콩
##겐
##꾸
##꿀
##씀
##앱
##릉
##멋
##씬
##칙
##묻
##j
##뭔
##틴
##섬
##뮤
##닉
##닙
##엽
##녁
##픈
##굥
##춤
##빡
##롱
##므
##흐
##묘
##롤
##겹
##촬
##밍
##꿈
##훼
##팬
##둬
##똑
##렌
##밝
##냄
##줍
##삭
##뽑
##힐
##찮
##몇
##빚
##앉
##덜
##걷
##쓴
##룸
##쿠
##ㅈ
##훌
##뚜
##혹
##낙
##헤
##듣
##ㅂ
##딜
##괜
##첩
##꼭
##잊
##밤
##잃
##폴
##펴
##낄
##섰
##랫
##뀌
##즐
##잠
##컨
##첫
##힌
##멀
##똥
##륭
##흠
##돕
##뽕
##낫
##꽃
##즉
##갖
##맡
##큰
##옛
##젊
##짧
##델
##껏
##끈
##쾌
##벼
##곧
##엠
##깊
##젝
##갓
##틱
##숫
##얻
##걍
##끗
##엉
##늙
##꼼
##옆
##롯
##샀
##뛰
##🐕
##깜
##닫
##흘
##돋
##펠
##옳
##냉
##늦
##헐
##멈
##훨
##넓
##쯧
##굳
##덧
##멤
##빅
##겪
##펼
##으로
##에서
##하는
##하고
##니다
##들이
##이다
##했다
있다
##는데
ㅋㅋ
##다고
있는
국민
##지만
##다는
##라고
사람
아니
##통령
##들은
##까지
##면서
##00
##습니다
한국
대통령
##하게
##에게
##한다
##해서
하는
우리
대한
##부터
##이라
20
생각
##으면
##이나
##하다
##에는
##적으로
##적인
나라
미국
##하면
##었다
##하지
영화
이런
##기도
##리고
경찰
##대로
민주
지난
##들의
중국
지금
문제
것으로
##해야
진짜
##보다
너무
##는거
정부
10
하고
만들
정치
##렇게
##세요
##하기
민주당
##네요
##인데
##리는
##이고
##니까
때문
윤석
위해
그냥
##입니다
같은
##된다
문재
##자가
##되는
##어요
한다
지지
##재명
##ㅋㅋ
이번
##어서
하나
서울
##들을
것이
윤석열
##지는
필요
##합니다
이상
없는
##라는
게임
인간
##기를
##지고
##사가
ㅋㅋㅋ
그래
경기도
이재명
201
정말
##장이
##인이
모르
가능
##해라
들어
##에도
아닌
일본
##리가
##도록
##라도
##기가
다른
##사를
##겠다
##구나
국가
지역
이제
북한
경제
많은
##처럼
그런
##원이
##나라
검찰
없다
##자는
보고
아이
##한테
많이
##성이
##려고
대표
##았다
##에서는
##민국
##이지
함께
시작
##같은
##시아
##리를
##명이
경우
기업
##어야
그러
##가는
##됐다
당신
다시
통해
대한민국
##혔다
무슨
시간
아니라
정신
아무
##정부
가장
관련
사회
##으니
##시간
것이다
세계
##기에
##이는
밝혔다
##기는
지원
사업
나오
아직
##이가
진행
그리고
모두
사실
문재인
했다
##하며
위한
##레기
##으며
##하면서
좋은
국회
##장을
##아서
이유
##이라고
##위원
##되고
나는
하지
자신
수사
교육
##준석
##기업
상황
##였다
언론
##인가
따라
때문에
##들에게
어떻
얼마
##는게
##지도
피해
##것도
내가
이준석
이어
관계
##하여
해야
##주의
모든
기대
##사는
재미
##사람
정권
어떻게
것은
정도
##장은
##는다
이게
##졌다
##들도
수준
계속
최고
##거나
##다가
##영화
##는지
##이라는
말했다
대해
##대표
국내
30
좋아
사용
19
##수가
있을
있어
사람이
있었
떨어
범죄
결과
##인지
이렇게
##보고
##운데
잘못
##상이
100
조사
##지가
어디
저런
이미
대통령이
##소리
특히
##력이
이용
것을
자기
전문
##력을
##해도
정책
관심
이후
처음
경기
##하네
##어나
내용
##있는
##만원
기사
##성을
##하나
##레이
만들어
##이냐
돌아
현재
##없는
##지를
##동안
12
누가
##자들
발생
그렇게
탄핵
##아야
세금
##잖아
정상
##놓고
##체가
최근
##대가
##겠지
##시키
가운데
쓰레기
제대로
11
참여
자유
보면
장관
##더니
프로
올해
##스트
##주는
##들아
그만
##상을
이해
바이
운영
댓글
등을
문화
다음
##정을
있다는
있습니다
얼마나
모습
사건
##거리
##이네
다양
지지율
국힘
200
##자를
##하는데
어려
러시아
바로
설명
좌파
확인
##학교
우리나라
하면
역시
##하냐
중요
지난해
##들과
학생
##없이
책임
##비스
##자들이
##말고
##로운
시장
사고
보여
##정이
##거지
##도가
된다
##어도
재밌
##에서도
##치는
어떤
##했다고
마음
알려
등이
##이야
거짓
그는
가족
언제
그럼
직접
##주고
외교
조선
15
추진
의원
##전에
##했던
공개
제발
이날
##의원
전국
##하겠
##정권
이라고
##르면
방송
배우
않은
투자
이야
여러
검사
##인다
나온
##사업
오늘
기술
않고
알고
##정도
사이
앞으로
아니고
##0년
##가지
여성
국민의
##시켜
빨리
다양한
계획
받아
##한다고
5년
개발
##나요
이러
ㅎㅎ
##화를
##적이
학교
금융
있도록
##라마
##교육
개인
되는
##자의
있는데
같이
보내
없이
한번
이건
보수
합니다
스토
않는
없어
사랑
당시
예정
살아
연구
더불
있고
##리에
##한거
18
근데
삼성
##들어
##치고
##이면
##기로
그래서
말고
대상
##하자
감독
##되어
##가가
말이
##되면
없고
시민
일부
외국
사진
과학
무능
##시는
나타
완전
아주
있다고
##시장
내려
##야지
결국
가격
이거
##드는
누구
발표
##무원
##기관
##제로
안전
##진다
만든
##리면
인정
아직도
ㅉㅉ
일반
##위원회
##부분
##보면
##로나
##하는거
현실
##식을
전쟁
##을까
찾아
##스크
##식이
소리
하루
##스로
##으나
나라가
##당이
조작
그렇
##개월
참석
산업
##동을
방문
국짐
대학
사기
해결
##가서
##센터
##하라
마약
사람들이
마련
사과
국제
##마다
아닌가
부산
높은
저는
반대
##하던
아니다
않았
##시다
구속
##의를
요즘
##하니
부모
##러운
##억원
해외
##같이
##이라도
##그램
본인
준비
절대
만큼
제품
##부가
##봐라
해라
때문이다
##려는
따르면
##정은
평가
##더라
친구
먼저
##문에
##리지
의미
##되지
감사
청와
50
주민
이것
더불어
##자리
바이든
선동
##동산
어느
##이었
선거
어린
##에요
제공
##도를
분석
환경
##돼지
노동
##겠네
수도
드라마
공정
##밖에
증가
문제가
포함
##없다
##있다
##스럽
새로운
만나
##났다
동안
주장
##치를
13
##관이
##했는데
기자
정부가
받고
전망
코로나
나왔
기준
당연
기억
서비스
판단
불법
문재앙
니가
국민들
추가
##다니
오후
여자
기본
##시고
##지역
##라이
최대
여기
##파트
세상
그게
14
예상
후보
정보
##프로
건강
영향
##텐데
##인을
##렸다
미래
##이랑
열린
이를
부동산
25
##지지
##거다
기록
거짓말
##대를
대부분
##위를
선택
##회를
##회가
보인다
##사의
##화가
##제를
현지
것도
소비
지방
16
##한다는
##먹고
보도
중심
##구만
##동훈
##던데
있었다
설치
한심
##중에
##장에서
##르고
기존
##해요
판매
##럼프
작품
##해주
##원은
올라
##씨가
요구
부족
안되
공무원
주변
##가고
##했고
보는
트럼프
인터
힘들
같다
처벌
개선
##수를
##명을
##하는게
지나
전기
##대통령
내부
엄청
해도
##명의
우리는
경쟁
하는데
조금
가지고
국민이
##아요
드러
##마라
한동훈
##점이
행사
결정
##조사
이름
국민을
##스가
해당
##대는
##원을
##게임
##었는데
##건데
24
발전
관리
사람들
보다
부분
무엇
나와
##부는
40
##인은
당대표
등의
전체
우려
과거
##려면
장애
지적
##시가
##안을
넘어
자리
##서는
위해서
##스템
확대
성공
공연
##마트
라고
인사
그래도
생산
공산
상태
##지막
더욱
있지만
##르는
공동
오는
##장의
##장에
도움
위원
##도로
청년
##건가
##제가
##회의
의혹
##것이
##단체
그동안
##시설
##한데
아파트
특별
##동이
##수는
개최
그리
생활
##아니
##치가
##랜드
##이트
##장관
프로그램
관계자는
##기고
##민주
##다면
스타
하지만
##인의
##대체
청와대
물론
출신
얘기
##보는
공공
스스로
마지막
집중
비교
##이스
국민들이
이뤄
17
인생
재판
빨갱
해서
전부
우리가
어렵
젊은
자동
##나는
효과
비롯
지속
##시에
##하지만
##자로
현대
##들만
##점을
##수록
##려서
전문가
규모
아님
매우
뭐가
##회담
일이
대단
받은
##물이
모르는
못한
##기술
응원
##지않
##만에
##방역
##금을
얼굴
도대체
활용
걱정
##이상
##건지
##산업
크게
서민
의견
전세
##하다고
방법
미친
##린다
경찰은
연기
선수
##조건
사라
남북
##건희
위험
강화
나라를
주요
과정
유치
필요한
추천
니들
유지
강조
1년
##ㅋㅋㅋ
집단
자신의
대구
##정책
##이니
##보니
여론
##문화
적극
내년
##이터
수출
##일이
ㅠㅠ
##지로
##란다
다니
적용
제일
##대에
광주
어쩌
가능성이
제주
관광
오전
살인
##지원
비판
남자
성장
##은행
##머니
2찍
##인들
서로
공매
대선
##었던
업무
분야
대체
##어라
##하다는
##식으로
회사
##때문에
다만
구성
도시
##이를
노력
나서
한다는
역할
##5년
##스를
시행
##인들이
##했지만
참가
##했다는
예산
괜찮
아니면
##내고
대해서
##계가
##으면서
유럽
거의
전과
권력
아무리
못하고
무식
예정이다
그걸
사는
##원의
못하는
##OO
##려라
설명했다
이야기
논란
##소년
기간
김건희
역사
##거야
먹고
부담
##000
##물을
국회의원
실시
잡아
##에선
##조작
##받고
공부
되고
되어
음악
경험
##BC
##세를
대깨
활동
상승
고객
느낌
대만
일을
없애
##근혜
존재
말을
##난다
##겠냐
또한
##위가
##연구
##전을
혐의
보호
선정
니들이
개돼지
고려
아니냐
##라인
##간다
사람은
##리아
##료를
경찰이
##소득
자연
인상
행복
##감이
##감을
##지면
21
글로
##국이
##경제
최소
##심히
##겠다는
##개발
##드시
신고
##자인
제작
##했습니다
##계를
휴가
##국민
전혀
##7년
사망
##씨는
직원
##하시
인천
##당은
정의
##주택
사형
한다고
##대한
투표
##하세요
무조건
성과
상대
차량
거래
시간이
행정
가는
결혼
고용
대통령은
##이란
##주세요
기다
##원에서
28
지켜
##두고
안되는
##음을
##구가
많다
안보
중소
맞는
나온다
자체
변호
##더라도
됐다
되었
빨갱이
##권을
##선을
##아라
우선
지들
##겠지만
##6년
##석이
##경찰
##원에
공격
##범죄
##스타
오래
60
나가
확실
대비
##르게
##수도
글로벌
신경
혼자
보니
##정한
##과의
두고
대응
하락
인도
열심히
당신이
000
나도
도입
궁금
##만큼
박근혜
대책
표현
재미있
미국이
##수사
바보
조직
증거
##히려
대상으로
##단이
##학생
실제
22
솔직
집값
##을때
높아
구조
제기
##일을
공급
이전
##이었다
오히려
받는
신청
은행
하면서
스토리
에서
있으며
의료
##환경
같은데
##것들
##업체
시키
##되었
부정
어찌
충분
여행
등에
강남
국정
중요한
구매
##해야지
분위
##당한
27
받을
이루
김정은
싶은
영상
##업을
주가
주식
않아
최저
능력
라는
##관리
않는다
##겠습니다
##분이
##위에
불가
하다
스마트
##나오
관심이
ㅡㅡ
정확
##안이
최악
##는거지
23
10년
이젠
반드시
가진
##일부터
했는데
합의
그녀
않을
조성
있으면
##것이다
##장과
##라면
건설
##어가
##자들은
##이며
##사회
안타
##이지만
2018
발견
업체
당장
으로
시스템
독립
이에
조용
시켜
너희
머리
가지
마스크
민생
자체가
최고의
지도
받았
따른
확보
##우는
어려운
좌빨
그대로
권성
##하겠다
##정보
아는
##내는
전에
##끼리
##져야
그런데
밖에
행동
고민
##이크
노조
##사고
단체
심각
한국의
70
공매도
##기간
##봐야
플레이
##선거
가서
생각이
교통
##부를
##서를
요청
늘어
희망
##아먹
##율이
처리
멍청
##지말고
##인간
##겠다고
나쁜
운동
##만한
##와서
정도로
각종
나이
##일까지
운전
않았다
##지에
##자들의
##어를
기관
불편
##하도록
뉴스
바람
핵심
평생
인권
차지
##할때
윤석열이
그때
푸틴
##할수
자살
논의
민간
그것
##소를
##로는
##나고
##워서
전했다
대법
발언
전라도
금리
갖고
나올
이래
있게
2년
일자리
##사와
그의
202
홍보
어린이
대출
##신이
윤통
주택
이유가
##대의
가까
앞서
##되었다
등으로
지구
##자기
소속
많아
자식
##들고
비용
##생활
이재명이
##우고
개딸
노래
무역
항상
국방
아름
##가를
##도는
나오는
과학방역
윤핵
##랍니다
알아
있어서
국무
비슷
수입
주고
인간이
자동차
##임을
경영
계약
##2년
##라서
없음
역대
있지
쪽팔
##까요
##소가
##텐츠
난리
대형
무서
우크
있나
영국
수가
##나서
음식
판결
26
저렇게
주는
##자와
이걸
밝혀
중앙
전통
분명
##하거나
보기
노인
만드는
##만이
의사
##세가
바뀌
##놈들
##려야
##생각
강력
##9년
있어요
##없고
OOO
아마
없었
##방송
인해
정부는
일단
주목
지루
검토
이하
##쟁이
사법
쉽게
MBC
하기
소득
##트남
솔직히
원래
##라리
##스터
들어가
있으니
##당의
상품
인터넷
안하고
##되면서
전시
경기도가
##아가
보험
미국의
자격
공간
돈을
민주당이
주인
##그룹
가능한
택시
치료
##금이
대신
##했을
##문을
##사에
##너지
무시
교수
##운동
이는
또는
바라
##량이
만에
##하기로
엄마
당신은
##등학교
##거래
시험
##국가
개판
##트를
##움을
한마
##왔다
독일
##성과
사례
유명
목표
수요
있음
사회적
도로
##진이
##이기
##지게
##사로
외국인
중인
##스는
베트남
평화
움직
있네
거지
없다는
##하였다
지금은
그나
gt
소개
폐지
##거냐
##장으로
##반도
끌어
용산
우크라
##해보
어디서
싶다
금지
안정
별로
제가
시설
이동
##아치
시절
근로
놓고
혁신
말도
애들
지키
##4년
반도
##롭게
법무
##비를
감동
규제
위치
모르고
##리기
##도시
##당히
달라
과정에서
##심이
지난달
정상회담
##관계
##님이
반성
##한게
##업이
단순
사람들은
##일에
보유
##전이
가져
대중
강원
중소기업
그가
대통령의
##립니다
윤석렬
모습을
있던
지급
##한국
나타났다
##보다는
독재
##비가
대통
차라리
##여서
3월
되면
##이팅
사람을
시청
우수
전달
공감
자꾸
지하
통과
만들고
부끄
2차
감소
비해
반영
##이자
민주당은
##수준
모지
총선
##회는
##다운
있어야
##오는
##행을
##회에
현장
가짜
없을
공식
무기
여전
최초
##시키고
사기꾼
##위는
자신이
지가
9월
##이라면
좋아하는
아시아
오른
윤핵관
정부의
##민이
느끼
재산
29
##놓은
##가리
10월
기능
이익
않다
##깝다
다들
최종
본격
안된다
평균
3년
영향을
벌어
소방
기획
음주
줄어
취업
중심으로
예술
석열
협력
##시길
##차가
대기업
이라
쓰고
장난
있기
너는
##지사
달러
알았
##차피
거기
근무
개정
##됩니다
전략
##수의
되지
가정
##하라고
출연
바랍니다
##3년
나왔다
다르
연결
##자도
강제
5월
철저
권성동
##들에
건물
마라
어차피
계획이다
조선족
문죄
##고기
하던
##규모
당연히
##임금
##질이
병원
##심을
##실을
도와
뭔가
수익
훨씬
체험
매일
월급
##리스
지금까지
감옥
각각
유승
제시
백신
영화를
역할을
반도체
스트
해야지
##문이
소재
개혁
살고
##노총
##자에게
##디어
활성
##지면서
##위로
상식
##많은
파악
강조했다
##er
본다
좋다
방역
본인이
이제는
끝까지
##30
구축
돈이
##것들이
7월
국민들은
80
배신
장면
##로남
##봐도
뻔뻔
##수있
하는거
관심을
##군요
한글
필요하다
그룹
##드를
제외
판사
##안에
##로남불
방향
싫어
비핵
것이라는
마을
##냐고
##수수
영어
##국의
물어
작은
4월
모른
힘든
사실을
거리
상황에서
##사건
신뢰
가만
순간
##시킨
문제를
중국이
그러니
더듬
중간
없는데
좋겠다
##거라
시즌
##민주당
##같다
전해
실제로
##바이
정당
검수
##적이고
국토
연예
##릭터
회의
해임
##받는
미세
북한이
그저
보이
없다고
달리
##에만
##보험
갑자기
##나게
6월
아무것도
그럴
##완박
뛰어
##받은
##복지
장기
##가락
31
사무
연출
동네
위반
이러한
##느라
맞아
매출
##20
담당
복지
##하려고
문제는
것입니다
당선
##인으로
##연금
제한
알려졌다
빠져
##bc
한류
광고
일으
고통
하는게
상관
##부모
기념
500
하네
했던
##나면
8월
청소년
##로부터
##으니까
온라인
##준다
무료
점을
남아
##기사
언급
모습이
##트가
##말이
유튜
##리도
군사
이유는
불쌍
##함을
##정상
입장
진출
맨날
##성은
공유
##듯이
의무
##정치
말씀
니네
인구
##놈이
필요가
도내
##사일
바꾸
##보네
가입
##1년
올려
불안
중구
좋았
자주
##상에
해주
##수로
혜택
300
정신차
사퇴
인근
도움이
##문제
통신
브랜드
장애인
##가요
훈련
##조차
하자
그거
누군
원내
조국
아래
있는지
##는거야
검찰이
제도
##구요
검수완박
쓰는
##하려
물가
##50
진심
번째
##한다면
정신병
봐라
##차를
##주가
##냈다
아닐
아프
하니
문재인이
##계획
##바로
선보
11월
원하는
들고
채용
##든지
의심
하여
##부에
자녀
여전히
##지마
2016년
##회에서
기반
##하였
내로남불
자유한국
12월
알아서
전환
없네
짜증
인물
검찰은
##먹는
##화에
여름
고소
##어야지
야당
##리즈
##지마라
지정
##개의
##률이
##것을
##리로
아버
고발
##자나
없었다
##달러
등장
제출
##섰다
##습니까
더러운
성폭
벌써
##이로
##성에
응원합니다
인간들
한마디
그나마
있냐
동물
이명
그건
바란다
이번에
##자체
이라는
##갔다
것들이
느껴
삼성전
##상은
수십
이란
소통
그림
##하는지
##거든
캐릭터
##구를
까지
남편
##드가
없어서
제2
##세대
기소
##아닌
화장
##교통
선생
무섭
비상
됩니다
그랬
이사
이끌
일어
서울시
##안전
##랑스
##것은
받았다
하늘
##투자
##겼다
##했어요
가수
점점
민주주의
1월
##줘야
경찰대
제조
##하기도
모델
##예요
뭐냐
말하는
부터
한반도
##정에
특징
답답
재앙
##이들
##리의
돌려
거부
낮은
##했으면
기레기
향후
일어나
평점
##으로는
##시대
##이도
##기만
다행
아침
##분을
국민은
정치인
봐도
갈등
것이라고
##상납
##제에
양아치
액션
돼지
한미
##부의
미세먼
타고
입니다
대화
부탁
이유로
생각을
화재
##공사
극우
##이션
##단을
어쩔
##서비스
이해가
한심한
관련해
사태
처럼
##상도
촬영
넘는
시간을
수준이
무능한
##겁니다
##느냐
불러
##어진
우크라이나
유승민
내용이
집에
##라지
##적을
전세계
고양
친일
통제
힘을
가슴
토론
##노동
그러나
##조선
##치기
설립
바꿔
포기
##인줄
코스
모지리
##약을
##잡고
상대로
생각하는
경우가
##회사
기업이
대장
이곳
보이는
범죄자
화이팅
창업
징역
##어버
공포
버스
유일
없습니다
늘어나
게임을
##량을
##인거
##in
확정
##원으로
##럽게
배경
돌아가
##도의
구체
2017년
##와의
##었고
뽑아
약속
오랜
환율
##법을
통일
바른
##하네요
##장애
종합
##이에요
주인공
##스러운
##BS
매년
이명박
제목
그것도
성상납
비난
징계
저지
##운전
애초
훌륭
원전
##포츠
##통신
수상
적이
##10
차별
반복
이기
가능하다
가스
경북
##검사
선고
##레스
과연
반응
상황이
제재
##디오
이준석이
날리면
모양
안철
##이버
##인과
취임
태양
##져서
##여명이
전화
##더만
경남
불구
##었습니다
##자에
출시
고생
##질을
경기도는
확산
근거
정리
영화가
관객
유통
방침
##던가
준석
롯데
##기의
국짐당
##시키는
##의가
##성도
실패
중단
콘텐츠
투입
미국은
성남
손해
##있고
##랐다
당신의
북미
##리게
가고
어이
최저임금
하게
##중이
##상공
동시에
인한
##있네
##재앙
눈에
충분히
##명은
##출신
모자
호텔
원내대표
##선동
##쳤다
대통령실
저러
물러
예방
남성
무너
##분에
아닌데
대변
수행
지금도
##무리
##건을
믿고
피해를
##on
이들이
중에
##관을
##나가
치매
전망이다
못할
바닥
##전쟁
아예
1일
도는
만족
##정신
데이터
않으면
아니라고
##격을
##받아
##때는
##0년대
통합
듣고
시도
간첩
카드
하냐
임대
비롯해
것에
##부장관
##리그
2월
남의
허위
##별로
점검
##만으로
도둑
이상한
나선
##이라니
##품을
##시오
스마트폰
##증을
따로
시대
##였던
말은
자료
##제도
내용을
시위
아쉬
여당
모르겠
혐의로
비핵화
##야한다
##ㅡㅡ
먹는
생각해
피해자
만약
수술
우리나
199
공산당
팩트
자율
논란이
소송
신규
##국은
90
변화
##전문
##거운
불과
앞두고
목소
양심
가득
하나도
임명
##격이
##시켜라
온갖
##활동
3일
개소리
수도권
무죄
홍콩
##만명
##하려는
##반기
불가능
##했으며
아들
주도
없으면
등록
##개가
##시면
##함이
지들이
##발전
##행이
##자고
##스럽게
회복
의원이
작업
##새끼
보도했다
비롯한
박진
mbc
도전
조심
대해서는
안에
하며
##선이
영화는
##학년
나중에
알바
봤는데
책임을
못하게
##8년
이상의
때는
자빠
##으려고
##없음
형태
똑같은
##이에
전자
##과는
해요
노무
부자
못해
겨울
특정
##수수색
대통령을
##히는
앞에서
##평가
결론
나머
##4범
사실이
기초
연락
같아
어제
##청은
전반
##되며
대통령과
선발
사실상
상담
지시
위해서는
예전
자랑
2015년
ㅎㅎㅎ
주가조작
##일보
오르
목숨
밀어
모여
##세로
선진
비리
##기와
##므로
국민의힘
##하겠다는
##쓰고
대표가
타이
##하다가
중공
##서가
##권이
더불어민주당
##대학
TV
압수수색
5일
억울
##병원
##상황
너도
##국에
항공
변호사
그러면
##가족
있다면
현지시간
##가면
펼쳐
쏟아
이정도
##소에
내일
올리
##지요
놈들
바다
##용이
가해
##는거다
국개
대전
자본
한국에
업계
우리의
##도에
##온다
##으로써
것들
나의
축구
##플레이
##적이다
실망
##께서
맞춰
고위
졸업
몰아
참고
##대책
##인듯
지지하는
##길을
이루어
비싸
김문
##들이다
양산
프랑스
긍정
##리한
수밖에
##스럽다
##겠나
윤대통령
##뉴스
생긴
되었다
조정
집행
감독이
너네
강한
조용히
사업을
##번째
미사일
정책을
##주면
옛날
##었다고
가르
좋겠
인식
##해야한다
만드
##위해
6개월
중국의
종교
##님의
반발
더이상
마찬
아동
아닙
떠나
한국은
인재
입학
##개혁
거쳐
##상의
변경
##싶다
에너지
다가
##an
##하신
##지의
건축
욕설
##져라
최악의
##건이
위협
##씨의
아까
##연합
제안
미리
##지어
전과4범
공사
매국
##관광
##부와
##실이
##스의
아냐
통한
##라니
##음이
잘못된
프레
자유한국당
##요일
명이
새끼
마음이
있었던
##군이
조치
가게
영원
네이버
놈이
보통
##하는건
회담
##있는데
내고
일은
들이
아니지
인터뷰
##할까
하세요
라이
임금
##상으로
##메라
##걸로
##화국
찬성
이들
나오고
잡고
네가
##분들
##에게는
헛소리
멤버
폭행
프리
차례
##개를
처음으로
의원은
이슈
말로
접근
관한
방식
4년
가면
##부로
##사람이
헌법
##의회
세월
게임이
절반
집권
봐야
크다
니들은
안된
도착
희생
##본다
마치
장관이
새로
높다
같습니다
위에
학부모
재밌게
##만의
프로젝
유튜브
##영업
##관은
무식한
##하니까
상황을
##널드
저녁
##과학
##짜리
##제는
이딴
##들한테
없지
아름다운
재정
직장
아나
경찰에
##이드
##기지
##결과
똑같
참석한
짱깨
이재
눈치
##인가요
사전
##처리
##은거
거주
당원
##을듯
##op
##ㅎㅎ
##하러
##랫폼
##스코
둘러
교체
##단은
##으로서
##을텐데
##ㅠㅠ
비행
노무현
작가
ㅉㅉㅉ
윤정부
##대학교
때려
##로서
모두가
##드립니다
수사를
원칙
20년
분양
곳이
##한건
##보자
1억
내부총
울산
케이
##마을
결과를
##가지고
##점은
##말로
##대회
##화된
학생들이
4일
윤석열은
꾸준
보장
나섰다
##금융
대법원
가치
마무리
국익
도널드
정치적
그렇지
정보를
관람
조폭
겁니다
취소
##관에서
내놓
똑같이
##단다
##간의
지적했다
입장을
##명으로
효과가
블록
발생한
##셔서
유치원
##되기
연속
학습
했다고
10일
싶어
한국에서
풀어
해석
##시절
ㅜㅜ
진보
맞지
창출
##유가
##죄명
##운드
##아야지
확진
초반
##화폐
마찬가지
여야
기여
제1
##조가
##공항
##만을
민족
영업
##단의
##실에서
생각한다
완전히
악마
열리는
##임이
##따라
구청
이재명은
무지
##는거냐
1000
##돌아
연금
##말을
##당을
##미디
굳이
##시켰
대규모
##어로
빠른
출산
않나
뉴욕
의해
했지만
같아요
안나
##주민
경찰국
이야기를
뒤집
맞다
것과
##하길
##리와
##지기
동의
지지율이
인기
##웠다
저소득
활성화
비대
진정한
자기가
기사를
이다
##주기
##주시
의견을
답이다
비슷한
기분
우려가
세상이
##았던
작년
##히고
##곳에
죄다
편의
따뜻
세금으로
대북
세종
그래픽
서비스를
작성
전남
1차
##들로
##치지
##진핑
가만히
일정
에휴
집에서
##보기
이놈
북한의
거야
나무
중국은
축하
명의
##나다
##or
대한민국의
##았는데
주로
##스러
##미가
국립
빠르게
단계
할수
##거고
어머니
공모
##달라고
우승
여기서
기회
덧붙
하는지
먹을
인증
떨어진
##악한
미국과
뽑은
있을까
주문
담배
수많은
##다른
아쉽
단속
안내
##는가
1위
7일
##보단
청구
자산
남은
마이
메시
알게
일자
##점에서
보건
##먹을
##움이
AI
주장했다
가야
##대가리
도망
펠로
1만
완벽
##청이
점에서
##보내
##복을
주관
특수
주최
활동을
기회를
중이다
##그러
##하지말고
완성
유엔
애들이
##이어
##받을
왔다
시리즈
주세요
찍은
내부총질
의미가
##시스템
##던지
##감독
##해진
##방에
##학과
##호가
몰라
대기
사람의
수원
정작
관광객
##봤다
디자인
즐길
부과
정확한
##시민
12일
앞에
##겹다
이나라
아시
##었으면
갈라
명예
11일
한국이
손가락
없으니
것처럼
저질
해체
회장
20일
등등
##진을
저거
##먹은
##머리
가라
##법이
추정
대장동
느그
##카오
플랫폼
거다
불구하고
금액
##TV
통화
깨끗
아깝다
##매매
##하겠다고
일제
가격이
새벽
취급
나와서
법을
월드
대회
진정
##일까
##었지만
부인
주차
##그래
나누
태양광
전정권
찾는
주말
개념
사장
디지
혹시
대표는
무엇보다
##없어
2018년
전면
후반
한국인
초등
##카드
마음을
전투
페미
흔들
##보드
##NS
공공기관
결과가
그만큼
소비자
##절한
##성장
미국에
누구나
##까지는
##이든
신설
멍청한
치고
투기
배달
##점에
##상에서
대놓고
바탕
##거면
갈수록
2일
언제까지
27일
이와
이용해
논문
##당에
##우가
##사에서
직업
발표한
스포츠
##항공
다녀
여기에
잘하고
이럴
김영
미안
##지와
완료
외교참
##상태
찍어
기가
민노총
살펴
##리오
지원을
##좋은
##는건
##금으로
매력
폐기
하지말고
SK
시원
보조
##해가
확실히
##페인
8일
시진핑
18일
견찰
출발
##형을
소유
신용
##사항
여러분
기부
자막
이라며
협박
##경이
35
##리카
##려나
그녀는
긴장
애초에
이리
체결
2014년
내내
##보가
##역을
교사
##부지
음주운전
마누
15일
자영업
키워
끝난
분노
준석이
##류가
방안을
너무나
5년간
눈이
국가가
나오면
받지
전기차
평양
##원전
##바닥
인간들이
생기
##집단
##만들
심지어
이벤
이들은
##기준
예상된다
생겼
환불
##신을
##차례
군대
왜이
조합
##짓을
차이가
모르겠다
2번
선언
개입
신속
어른
회원
애플
제거
통계
19일
##리네
20대
사상
14일
커피
##간에
##했지
점이
철저히
##러스
##줘라
동일
말해
법인
씨가
LG
인수
시각
##었나
##미래
못했다
##잖아요
사람도
정치를
싱가
##스토
##요금
취재
할인
##시킬
##진흥
엄청난
해보
검증
##방울
이래서
##이의
그래야
##식에
말한
흥미
##서에
카메라
생각합니다
한심하다
##보호
주둥
##쳐서
선제
##다는게
어울
##행정
##분기
휴대
##언론
법원
이른
##리며
덧붙였다
브라
##자치
##했네
##싶은
30일
##주를
##럽다
대가
있나요
똑똑
압박
##협력
부족한
지하철
공천
28일
실행
인공
##구는
SNS
나라의
남녀
아무도
##림픽
##직원
##체를
않도록
많고
모바
1조
국회의
권한
##시기
이상이
##비용
승인
##자들을
기회가
죽은
##라가
##협회
최소한
김문수
##금지
##됐다고
스토킹
##두환
##는데도
##주로
##예술
이런거
안철수
해소
##버스
챙겨
##면서도
##위원장
6일
외부
아닙니다
실질
윤가
모아
노출
쉽지
세상에
없어요
##체인
공장
##할듯
##정부가
심각한
인력
##ar
##비는
법카
많은데
##중앙
시급
##같은데
구입
남탓
카카오
냄새
명작
##훈련
자리를
협의
내는
죽을
조만
##이즈
##구조
##목을
사진을
동맹
이러니
##했는지
##유치
건희
보낸
48
한테
끌고
수백
##xx
##주년
사고가
몰랐
방식으로
##명한
##구로
##세력
소상공
##생이
지자체
##건축
거니
없나
##tt
##대고
논리
허용
진실
미세먼지
9일
##페이
성범죄
##놀이
동영
와서
코미디
한국어
방탄
##고를
##친다
이자
평소
아이들이
들어서
받아야
접수
##배우
선동질
나름
사면
##되는데
생각하고
##아버
##안부
김정
놈들이
질병
생명
##타임
선물
##제한
##씨를
26일
멀티
##회견
##본부
25일
최초로
기득
##리자
##고도
늙은
폭염
쓰레
##화로
장악
1인
21일
17일
공약
콘서
제품을
모바일
흐름
##라스
대한민국이
폭발
13일
##있어
23일
찢재명
빼고
공직
되는데
##포르
개편
22일
한편
##어리
게임은
삶을
전용
##졌네
##경기
겨우
답변
인기를
##식품
##제품
연장
법이
시장이
일하는
##체육
도민
농업
몰입
쌍욕
올린
웃기
태극
##조리
개검
대다
지능
##금리
##필요
개가
대박
##아도
왜곡
##가능
발굴
혼란
##니스
너의
단지
동원
##부대
##네시아
##있음
보이고
적은
뭐라
입만
디지털
하시
다소
##의도
떨어지는
규모의
임기
하나의
않을까
후원
적폐
##방을
능력이
후회
운영하는
일상
예측
##at
다수
출근
않습니다
진입
언론이
불이
하는짓
##데타
##었어요
지역의
넘게
배출
24일
아내
##점으로
##구역
법률
손을
감염
##연이
나머지
##했음
나쁘
설계
힘이
##추고
개미
관련된
무서운
##om
##외교
##al
분위기
끝나
윤재앙
##워크
기상
담긴
자가
초등학교
강력한
몰려
좋고
##보수
인도네시아
버그
수업
적당히
측은
##시험
##겠죠
경제가
##중한
##에서의
198
내려와
검색
주거
상당
##하더니
##공화국
##했냐
국민연금
##했으나
존나
경호
구분
연계
조사를
측면
보여주는
조만간
1도
##놈들이
우리도
치킨
##들여
##트는
##었음
마세요
##은혜
위치한
위기
입주
##시를
##선언
##너무
기자회견
윤리
들여
##나무
공정과
##마저
싸움
국힘당
##해주세요
적극적으로
부르
심판
이것은
어렵다
내세
##조직
간다
그들은
##문란
긴급
떨어지
취약
##소는
이모
##였는데
##구의
요금
##으로부터
방침이다
비가
생태
이중
했습니다
자신을
초기
##효과
수는
지속적으로
한달
보면서
공산주의
##게요
수용
##해주는
안돼
지배
합리
##트로
사건이
전개
##길래
##있냐
초청
안타깝
훌륭한
보상
##이들이
##오고
##보를
달려
##료가
진술
서울대
대단한
매국노
싱가포르
아빠
##율을
무대
뭔지
우파
##인들의
골프
가난
쇼핑
##영이
##다시
꾸준히
##고가
##노조
##케팅
##향이
##로를
##한번
태풍
##식은
##증이
측근
##퓨터
관측
국기
세력
리더
싫다
##었지
정권이
완화
##산이
##지말
예비
캐나다
##규직
전형
문죄인
실내
폭락
형성
맞고
##사들이
일본이
추억
저렴
##었다는
##산물
##터리
29일
멋진
간단
블랙
##것같
한전
##거임
페이스
힘내
2013년
##까봐
감사합니다
횡령
##과정
몇년
속에
속에서
##속에
답이
심사
세대
자극
사건을
##시켜야
자원
협상
화면
시작한
가까운
##없네
느낄
반면
##르신
썩은
에라이
촉구
##소에서
우리나라는
##방이
전날
9년
##건의
거기에
##하고자
바탕으로
슈퍼
##버린
##로가
기대하고
이름을
##서관
뒤에
부패
주제로
##되서
##겠어
##진짜
어휴
응답
##구에
##뿐만
한국을
감안
덕분에
##하려면
16일
도움을
근본
##안은
##떨어
##류를
##것들은
##가의
아이가
이유를
봤다
된다는
##었어
36
##함에
##우면
##조합
자금
##계의
대우
보였다
상당히
문제다
윤도
이탈
대한민국을
똑바로
##일은
##추행
30분
안됨
##우스
##판에
아니야
##하지않
신기
밝힌
해제
##았고
대폭
훼손
전두환
##리어
않게
##하셨
이민
공항
박정
배치
##해를
##소로
놀고
저게
기업의
피해가
그린
이준석은
할머니
##했나
##로지
##리나
모집
##국제
##있나
나라는
제주도
보이지
그들의
어려워
그들이
##통수
사항
적자
특별한
3개월
엉망
##시코
##독교
미군
##프트
30년
고령
시끄
말아먹
실력
열고
##유의
특검
고마
##리다
어린이집
참여하는
실무
전년
##관련
벗어나
처음이다
유출
보여주
대로
하긴
성과를
감정
철수
교육을
그려
말아
베이
축제
어지
자세
필수
글을
나를
착각
했으면
##파크
소설
##니깐
##프라
조기
실적
국민들을
물고
비싼
##질환
길을
##재가
##호를
재명이
광우
때까지
미술
주사
친환경
앞으로도
강원도
부문
##리트
##경을
나아
지휘
하다가
##처가
33
에어
회장이
##공산
민영화
방치
##인들은
맞춤
애니
식당
##운영
##st
##위의
폭력
##하시는
##건설
실수
##en
##사람들
일찍
##장히
##애들
프레임
뜻을
여자가
국회에서
##이네요
##아이
셈이다
시기
엔딩
장관은
##해지
##있게
연극
모른다
중국에
호주
개봉
세워
##쓰레기
5년동안
##팀이
열어
예고
폭등
400
선진국
##안하고
##하긴
재난
부분이
세상을
좋지
박용
봉사
부작
##으려
##단에
3개
##긴다
불공
퇴출
##기기
지금의
가까이
수수
정은
##거리는
교수는
카페
##단지
##자동
거듭
신선
##목이
32
혐오
##분야
김성
##드라마
김대
기대된다
##리는데
##통이
신문
컴퓨터
##형이
목소리
보복
돈벌
된다고
벌금
가을
오픈
쿠데타
괴롭
문을
##ps
##가라
하려고
살해
연봉
혐의를
복귀
적발
##쓰는
차기
##봤는데
경고
쓸데
##스티
사이에
충남
원인
이달
조중
증명
하이
포함한
##액이
앉아
죽여
##원과
시작했다
조건
충격
##대출
##진은
기준으로
암호
##자금
##한것
윤무
##마자
##곳에서
##합시다
성폭행
안해
##스와
부부
저희
2012년
연간
형수
##달라
때마다
##용으로
간신
대가리
눈길을
뭐하냐
등은
효율
##사랑
정상적인
국무위원
명확
임시
##치게
눈물
자리에
##가에
증권
안타까
퇴직
빨아
이것이
만난
##주인
연합
채널
환자
##명에
버티
##드로
다시는
##비로
2019년
검새
개막
깊은
##만원을
##투표
##일뿐
##뮤니
1점
윤씨
검찰총
lt
##명과
마이크
법무부
단독
바른미래
국민들의
어려움을
기울
제3
알지
##산을
##차별
##계약
좋을
과정을
##전에서
##석을
##지사가
##겠어요
##오면
오직
나라에서
기득권
그것이
승리
없지만
잘하는
##치면
상황에
대단하다
화려
##대상
기술을
포장
##세에
발달
##스탄
##조를
많아서
##실에
전북
뇌물
상황이다
주변에
유사
실현
지적이
##억원을
파업
걸린
안하는
##책임
꼬라지
##정상회담
목적
억지
지옥
어르신
##때도
전해졌다
참으로
키우
합격
##됐고
##40
##관에
##준표
하나님
선호
직후
##사람은
4차
동남
흘러
##석은
나라에
그러니까
김경
##할지
일이다
타령
아베
##ou
##저리
마음에
식품
지식
##위기
##성의
##해온
##었을
10점
무리
지원하는
형사
여론조사
광역
끝내
기억이
생존
돈으로
탈원전
피의
##능력
상장
창피
안되고
질문
##말은
파괴
모를
이들의
##공간
다니는
##이와
아시안
유아
소리를
상상
페이스북
욕을
추락
노후
당사
두려
영원히
참여한
올랐
##속도로
##층이
많았다
##정의
명령
저도
활발
입고
직무
##경영
있으
##행위
동아
##가야
지역에
감기
##사도
##주도
##빨리
수요가
이지
하겠다
달성
싶습니다
저기
향해
교회
넘겨
당연한
가치가
수정
의혹을
산다
유리
상대적으로
안들
최선을
크리스
##지방
생각은
괜히
입법
##자들에게
인지
##자체가
##쪽으로
쌍방울
##사무
상징
안다
걸려
##진당
애국
태국
틀니
##세기
시장에
1등
일도
전력
종북
##트워크
아무런
프로그램을
##공개
중국인
마케팅
만들기
성매매
##르기
##le
프로젝트
##되어야
한거
##도와
##사기
한두
##류의
남한
후에
일본은
누굴
방안
즉시
##사태
##주지
역대급
홍준표
##이프
##당하고
##총리
살기
입을
두번
하라고
##된다고
문재앙이
중요하다
나갈
데리고
센터
##일로
##아지
대표적인
더듬어
패션
삭제
비서
##차는
##입니까
##인트
이웃
부활
소름
생겨
아닌가요
이것도
죽음
했다는
##장도
##ic
인간의
블록체인
혹은
하나로
인기가
문정권
평점이
수준의
강하게
팔아
괜찮은
45
적어도
일본의
##공단
아이들
다를
상호
안에서
##혐의
##세계
2019
존경
##시의
새롭게
해양
연설
좋다고
밝히
만들어서
인하
비밀
##드리
최대한
미래를
화가
##분의
##하지도
뿐이다
##자원
사용하는
분들이
양성
작용
좋아요
분리
미쳤
금감
스트레스
목소리가
규정
##단계
##장판
아이돌
로봇
없냐
호남
##향을
##우드
퍼즐
정부와
끌어내
믿을
옹호
정기
물건
삶의
정체
좋은데
실험
38
180
개인적으로
단일
걸어
실천
둘다
놀라
만날
대부분의
연령
##지다
##힌다
데려
죄를
세월호
##졌고
##었네
위원장이
##해봐라
##티브
##곳이
하지마라
대처
설정
수천
문자
##나간
##사실
##할거
있어도
##회장
삼성전자
5G
김종
날이
서버
커뮤니
##업계
##님들
평가를
등에서
상위
집을
##아닌가
구글
짓을
호소
오늘은
기독교
진상
##페이지
북한에
##그릇
##역이
htt
가끔
어이가
##열이
시작된
출범
##전거
##중인
7년
KT
레이
운행
일주
떠오
##재단
국가의
떨어져
장사
##타령
##하는것
길이
법적
경제적
노예
##수석
바이오
만한
운운
##세는
복잡
참석했다
계산
보지
영웅
예약
하라
##물에
문정부
##라라
당부
##ㅉㅉ
죄가
##공원
부모가
현장에서
짓거리
나오지
의혹이
박범
백악
재건축
효과를
오로지
설득
수능
부여
##연을
##부터는
받게
##동맹
여부를
##좋아
말이다
매각
##이라서
행사를
갖다
봅니다
진행된
차단
옮겨
초대
##겠니
경험이
그렇다고
뭐하는
이영화
사업이
아니지만
국민에게
청소
##미애
ㄷㄷ
극복
정황
국기문란
##서야
##되자
생각하면
추가로
##공동
공짜
암호화폐
65
석열이
그간
자기들
정상이
줄여
##리티
##리면서
재미있게
진단
피부
##겠네요
세금을
월드컵
어리
##저히
기생
재벌
회계
대사
만남
공무
빠진
##공무원
600
##인도
보안
행사가
너같은
들은
수립
난다
필리
구라
무한
힘들어
집안
##니가
##집니다
##십니다
정비
사람들의
##용을
한화
그렇고
우울
펠로시
의한
##했기
모조리
34
법정
공개된
보자
##님은
##하지마라
마누라
곳에
낭비
앞장
대깨문
그에
어떠
연습
기름
##해질
##프레
살아라
박수
커지고
규모가
##종의
기재
경찰의
아닐까
천안
출마
##장관이
낫다
그지
들었다
##위원회가
브라질
우주
방문해
무엇을
가족이
##여행
##줘서
러시아가
난민
못한다
살려
주민들이
감방
근처
터키
고작
민주당의
150
교도
##패스
기대한다
IT
뒤에서
##국을
시범
체포
맞추
한가
느낌이
결제
비추
##는다고
##으라고
정치권
스타트
무기징
비속
위로
##∼1
있었는데
##하겠습니다
미쳐
반대로
확장
##하겠지
제공하는
옆에
원작
5천
##스런
##했어
##테크
##았습니다
사랑을
99
김은혜
말만
오염
##해놓고
##품이
##구먼
##학력
낮아
달고
죄명이
탄생
##아내
감독의
드러났다
혜택을
##해지는
##처벌
재미가
자리에서
한데
이내
##률을
일으키
박정희
기자가
##해지고
면서
환영
##재판
사서
##시로
권력을
맞게
##내내
##때문
참석해
기도
육성
일부러
악화
##러워
##조원
미국에서
이승
강요
들어간
시민들이
있으나
인간은
방어
한국과
보게
디자
##수에
뭐라고
바라는
최우
걸쳐
언론에
연예인
내다
이끌어
시나
자치
##지자
몰라도
시군
##한지
고등학교
##리라
##아는
성적
충성
##후보
이행
담은
발악
배려
입에
시간에
교육부
이어질
CC
간담
인민
주의
언젠
왜냐
호구
부채
치열
나라꼴
##만도
##교회
##가격
대학생
4개
메이
##물고
##평등
필리핀
##민주주의
모으
테러
한강
출입
안될
##에겐
의견이
끝날
마트
했고
경찰을
처음부터
1시간
같음
##운이
문제로
유명한
아웃
선출
털어
기온
때도
인성
태극기
개고기
여의도
정답
설명이다
외교참사
##대에서
초딩
##란드
##놈은
줄어들
담겨
##보지
너가
클럽
##학을
##70
민정
성추행
응급
이틀
감독은
우습
장르
2찍들
일베
예정이
외치
유전
전정부
##무를
나에게
뿐만
##는구나
기업들이
기사가
##있으면
##∼2
거예요
박살
과도
##무시
죽어
생각보다
실시간
오지
전직
대한민국은
발사
##들이나
##관의
반박
여성이
저리
뭐야
급격
절차
##짓거리
부실
심리
참사
##조정
바이든이
당한
안나오
##답게
##선수
##길이
애들은
은퇴
##모델
전국민
##그리
입은
##때마다
조중동
겁나
유도
큰일
##든가
거론
아르
##행동
다이
해봐라
##땜에
삶은
예수
##때부터
반려
##르지
중국산
쓰레기들
머리가
못하면
축소
한명
국토교통
김동
##였고
##ㅜㅜ
폭망
가동
개별
것인지
법안
손흥
##잡아
##하면서도
뒤집어
해명
나타나
가자
집어
순수
아버지
안맞
##교사
##성애
##예산
단어
다운
어릴
##개선
##었냐
##때까지
분들
싸우
언어
##구석
##된다는
때가
맘에
고맙
우영
##년간
언제나
꼴통
##셔야
##니아
참여해
게시
돌파
유일한
##당과
##상과
인물이
중립
##력과
관계자
도덕
##보세요
이번이
갓겜
강경
안가
이죄명
##정도로
##이던
5개
##피해
##쓴다
사립
##란히
##죄로
에이
이나
폐쇄
##판을
프리미
있는거
김진
말레이
##전은
##른다
정책이
그것을
든다
했어요
알려진
##저기
##이라며
막을
상영
점이다
최적
##배가
31일
##자들과
영상을
주제에
초과
##거리가
##좌파
갔다
오세
##지에서
##ew
수준으로
수작
연말
검찰에
따뜻한
IM
열린다
##았네
내린
둘이
##해주고
##력으로
쪽팔려서
눈을
늘고
만들었다
수박
주주
스릴
말한다
라며
이득
자전거
##팔이
태어
##리스트
##처를
계획을
##권도
##해줄
풀이
##버리고
##나와
정도의
KBS
체계
##시부터
##상담
##하고는
아이폰
공기업
##범이
뜨거운
평택
##기구
뒤로
퇴근
중국과
이혼
필요하다는
가능성을
미디어
압도
투명
##금은
##it
오랜만에
주제
방법을
여가
짧은
영화의
A씨가
넣어
할줄
2011년
올리고
조치를
##됐던
##건가요
조문
타격
##데이트
분명히
##비에
##박한
##돈으로
않음
그를
##법은
##루킹
정권을
보세요
소환
요리
추미애
##참에
변화가
잠재
정부에서
올해는
비중이
##가며
강릉
역사를
절대로
지역에서
##소리를
##워라
진행된다
존중
##국으로
##였습니다
##급이
가구
끝에
사유
사용할
커뮤니티
##군의
올바
겪고
얻어
건립
매번
통해서
기술이
2만
52
##댓글
대표팀
##안보
맛이
##아니고
내용은
Pop
##많이
경찰청
김기
않지만
##테타
##이었던
특징이다
구체적인
의도
잠시
##테니
입증
2010년
발의
수학
엠비
##표를
##생을
##망이
아이를
사로
핵무
##다리
시민단체
철도
##시티
있는게
경기도와
개방
##나네
광화
음식을
##법에
준다
##스에
일본에
극단
자료를
국방부
감시
알아야
방법이
수치
하지마
국내외
기타
제명
하반기
실종
##만하고
시장에서
깡패
말할
버리고
전원
맘대로
스페인
##력은
##줌마
그런거
확인할
상반기
##벌레
공연을
##물로
방해
출전
##지능
##비리
부담이
책을
현금
##연구원
것이고
교류
##기면
보유한
친일파
시작으로
세계적인
기대를
제정
##장면
##화는
가짜뉴스
##편이
계열
##양이
국민들에게
https
탄압
##re
##돼야
3차
ㄹㅇ
김혜
보인
장모
##있지
동남아
말레이시아
가치를
홈페이지
재미없
##으론
힘들다
##가게
있음을
총리
표절
30대
올리는
2030
보냈
##앞에
서민들
아프리카
동료
예전에
##법인
##버렸
김태
##위한
복합
쉬운
##선에
개의
살다
##아님
자빠졌네
포항
행태
##하이
##리냐
선수들이
정확히
하야
대상이
용인
지껄
##바이오
##함으로써
늘어난
##재산
##시간에
유발
##하라는
##정부는
해야한다
발표했다
2020년
곳은
주어
##정으로
동반
되는거
##았다고
##무가
##럽고
중국에서
필요하다고
성인
##트에
전부터
팔아먹
##됐다는
사람들을
##식의
##벌이
했을
##he
갖춘
개그
충북
특혜
해놓고
##전으로
남자가
그것은
받으
폼페이
대해서도
##성으로
고급
세일
잘한다
##건강
##기능
역겨
##증권
되냐
박원
보완
제정신
##년이
품질
##가다
중국을
의미를
여기저기
할까
##놈의
대부분이
분이
업데이트
##의료
##탄압
이미지
스테
체육
##거같
##서도
폼페이오
메뉴
##우디
##친구
갈라치기
37
급여
급증
아깝
##재를
2천
더럽게
후속
반대하는
##하시고
##장난
PC
김학
매달
##리니
계기로
남을
높이
하니까
##피언
발생하는
바른미래당
가맹
경상
행위
##이사
##바다
외교부
자국
##화와
종료
종부
파면
##조치
노력을
시대에
조롱
마시고
하더니
##율은
들어가는
고정
이참에
좀비
##거리를
##넘들
나은
느낀
밝혔
시장을
허가
개나
고쳐
##장한
경기가
북부
##개로
##시장이
##00원
이용할
대충
소리가
예능
있었지만
믿는
같네요
차원에서
##처분
지지자
시장의
사례가
2000
우린
##기자
##주에
##한테는
##보도
##하에
##60
관세
돈은
방지
민심
아닌지
출석
이익을
##나보네
##사이
국힘은
소식
##해준
##시간이
각자
견제
뮤지
어떡
즉각
폭탄
떠들
당신을
그만하고
고등
오를
행동을
구성된
##피스
##미를
##날이
추구
##싸움
##돌이
##끄는
감당
서서
건지
많네
싶어요
뛰어난
시나리오
비중
부모님
가계
설마
##됐지만
검찰의
소상공인
경상도
원자
죽는
특허
##분쯤
##전과
##신문
따라서
##알고
##특별
보내고
##아니라
우수한
귀여
망가
부적
##네들
##겁게
확인됐다
지내
##졌다고
좌파들
부대
##거니
합시다
저소득층
회사가
무기징역
유입
현행
##동의
되어야
이런게
오늘도
주사파
맞이
배운
##부한
하나가
##연히
##여자
이재명을
구간
부품
대책을
##업자
##mp
197
선전
도심
수소
알려져
자존
기록했다
씨는
##스키
##봉사
김치
매수
##겠는데
##았으면
##사업을
정착
국민대
국민세
##만원이
대통령도
방탄소년
바퀴
뿌리
협약
##우기
##하는구나
적극적인
저지른
전공
##상승
전교
지연
피곤
항의
##지나
##활동을
본격적인
xx
기계
대거
집계
##것만
##진의
붕괴
태어나
로맨
수영
유기
일방
##시와
4대
무당
##씨와
때문입니다
그렇다
독특
##분간
##인권
발행
신체
붙어
웃음
##독재
멀리
종목
##원들이
##션을
문화를
당하고
씨부
죽어나
##당에서
사람들에게
행복한
깜빵
##체험
대학교
이야기가
약간
##줄이
지는
행사는
아니냐는
열렸다
##천지
##웨이
##질은
51
##월드
##계층
##감도
찬양
기각
##지며
##직을
##쳐먹
건의
농촌
매체
투자를
##비아
문재인은
간호
무고
중독
칭찬
편안
##익을
75
핑계
##군은
현실을
포함해
서초
졸라
##선의
곳에서
네트워크
##위에서
친구가
합법
##👍👍
사업은
##살이
미래가
유포
인용
##치료
인공지능
전형적인
IC
신분
출동
##함과
다름
시장은
앞뒤
관련한
돋보
##종합
##평화
짐승
드루킹
사람에게
고집
매장
맞은
##해져
55
##되나
주장이
한참
사회주의
있을지
##되냐
##후에
것이에요
이제와서
물타
바쁘
주지
##책을
한마디로
되나
민원
편하게
##객이
인데
##80
도저히
아들이
거기서
쯧쯧
##동물
국가를
계기가
보일
향상
##현이
##해서는
##아니냐
가로
재개
##감은
10억
한다면
지방자치
했는지
후보가
무료로
게다가
산불
인프라
종사
##와는
정부에
2개
한게
주목된다
이따
광우병
##이너
##종이
아니라는
IMF
문통
욕심
등과
시내
장비
##상품
단축
총장
##아리
단순히
가상
끝났
현직
시키고
내리
번역
스토리가
인건
##말도
##았지만
받아들이
싹다
잡을
##덩어리
정신이
이어지고
유력
##권에
떨어질
김대중
김현
무관
##여명의
이용한
대리
장제
##분은
##면을
구속영
점도
편집
##력에
준석아
기원
속도
41
미만
해주세요
혈세
##니터
모임
활약
피해자가
2009년
것들은
안산
트위
##관과
##마니
노동자
검은
무게
정상화
40대
몽골
싸이
차이
##이기도
##지구
##생산
민주당과
정신나간
##하나요
발생했다
목숨을
강간
이정
이때
이정도면
받는다
시킨
##이게
##내서
추진하는
시켜라
어우
##할것
선생님
외환
물리
아이디
힘들게
올랐다
##잘못
우리나라가
위원장
제외한
##역에서
##사인
경기를
밥그릇
##설팅
##만으로도
보급
##시작
연관
북한은
돌아가는
나불
내에
당이
조절
##배를
첨단
1천
1심
놀이
물을
보다는
집회
함부로
##조사를
##경쟁
보육
맞춤형
분열
관계가
확진자
나아가
박지
특성
사고를
이유다
개성
달라고
중도
##동네
##수와
##는거임
박사
##기전에
분석했다
활용해
교수가
재활
지인
##근로
리스크
보관
이끄는
종전
치는
당당
##지니
##만든
발생할
점은
##제의
민주화
코스피
##래도
CCTV
꿈을
당을
밑에
소녀
이낙
##다니는
없애고
##스티벌
수비
적응
지원이
기능을
고향
##다는거
말에
소화
할배
##대비
사회에
반전
##피아
부진
학원
동해
39
즐기
향한
##하자는
##안되는
과학기술
EU
나면
선임
식으로
##종을
민주노총
당부했다
못된
부추
나가서
행정부
##재미
관계를
듣는
직원이
##박이
선수가
의문
##드폰
배신자
콘서트
노사
표시
##번에
하는구나
전문가들은
귀가
볼만
수석
어째
사랑하는
요구하는
고기
우즈
##정과
##워요
이름이
옳은
잔인
좋겠습니다
부끄러운
##자동차
공통
아이고
##티스트
비율이
그만해라
부처
음성
##렀다
정권의
재밌다
연기가
분위기가
명품
정지
제로
진심으로
광화문
금방
몇번
올림픽
2008년
시대가
##봐요
경기도의
배제
빼앗
##했으니
잘못을
입국
##민의
##아주
정도가
조언
##하하
##봤자
XX
속이
##생에
살아남
거짓말을
##연맹
##량의
##판이
문제지
외에
치료를
요즘은
가시
경력
공영
다루
않아요
##메이션
목소리를
##심한
사이비
##야말로
##물질
당초
뭔데
##통을
스타일
나대
불리는
무시하고
##최고
있었고
구제
서해
좋습니다
##인상
##단으로
하셨
##중공
##빠진
##타격
2시간
싫은
악의
좌우
뻔한
창의
자아
##줬다
##쪽에
120
직전
합동
스타트업
내에서
부상
##내용
##클럽
자격이
##혁신
##토록
문제인
나선다
숨진
찾은
##가도
끝나고
##km
김용
보좌
비즈
안하면
##인에
건데
남성이
드는
점차
com
며칠
수사가
구청장
의식
아닌듯
##카페
##세상
경제를
##망을
고려해
먹은
죽이
표준
사로잡
고교
양반
##음악
하나같이
##연기
걸렸
국격
도박
목적으로
제약
##수있는
넘쳐
놀랍
놓은
떠올
악질
##전략
내려와라
상환
일대
나라냐
이준석을
조선일보
한번도
곳으로
하였다
##받았다
위원장은
공수
변화를
##망신
일관
입으로
평범
##리는게
시기에
##모를
##버리
보낼
세뇌
없었던
진실을
후진
이용하는
질환
##훈이
영화다
아시안게임
모색
##메달
날아
##출산
##했다가
본인의
##직한
들어갈
있었습니다
끔찍
배송
석렬
하네요
##되니
수사에
챙기
건강한
ㅇㅇ
살아야
외면
이겨
착용
탈출
2억
너나
하는건
성폭력
58
고의
지겹다
학생이
강남구
거대
의존
호흡
##만하면
##프로그램
##것처럼
##대문
##등급
##주행
##협의
기존의
가려
거품
기후
의뢰
취득
탁월
##표가
##됨에
전라
##교체
듯한
안됩니다
##화하고
공기
말라
명절
##살인
##사람들이
정신병자
고시
고스
마땅
분석이
패싱
##였음
고객이
남는
적합
##자리에
##해진다
##스테
높아지고
##십시오
##느니
발언을
##ing
검사가
스크
세계에서
뇌가
하노
##러진
##부족
##감한
CE
들을
##시켰다
질질
철회
##자산
자유를
비정
지방선거
나락
연방
이화
되길
전쟁을
간의
갑질
권리
마인
미치
##사용
수준을
내용도
무섭다
아까운
다르게
신호
유해
지은
##유예
않았지만
신한
안좋
##꺼다
팬들이
##파가
##졌다는
사업에
객관
빨간
산림
##선에서
가능성도
개설
심한
##배상
윤이
##민족
##가스
##호텔
만들어야
탄핵이
갈아
감싸
법과
손님
찾을
사회가
동참
즐거
##차이즈
시스템을
43
##영웅
양국
화물
##하더라
##치로
##오염
##순간
팀이
현대차
시점
운용
##대와
##학습
##oo
어떻게든
되기
##감과
기획재
멸공
##시즌
##동에
마포
##법으로
##부채
##화점
이재명의
너를
지어
##버그
##놈들은
이외
경험을
정의당
공작
기어
슬프
42
얻고
어쩔수
죽이고
##100
##내려
이른바
결승
수리
안전한
이탈리아
기분이
동성애
영구
해먹
대통령으로
##검찰
##하기는
감히
##정당
##있으니
##하다니
나만
파견
다르다
깔끔
재미도
##문학
이번엔
어려울
보여준
머리를
웃긴
##면에
##경은
이수
한동훈이
불공정
##졌습니다
##었는지
##낸다
모르나
거냐
지상
친중
통상
선사
잘라
##리즘
2배
아픈
익숙
국힘이
1회
##일도
##나니
##적으로는
유행
##발을
떨어지고
발휘
성능
앞둔
죽고
##원도
미국을
공연이
화성
개인의
50대
독도
디스
진작
자연스럽게
나가는
어설
평등
부담을
성격
죄송
중에서
침해
##하노
않냐
전작
##하든
##개국
##승을
우리에게
생각도
줄이고
##미는
스파
알았다
영양
업무를
정신차려라
부당
##기나
##고는
##화하는
##됐으며
범죄를
##액을
재미는
분위기를
불가피
가지가
손에
이주
장소
##드려
##너스
패거리
##데이터
공무원이
불리
사우디
작업을
##계에
##상식
공개했다
간부
의회
##계는
##그라
##즈아
휴대폰
스케
##하죠
박용진
몸에
##보다도
모든게
재앙이
넘치는
달하는
##인물
지역은
아직까지
관여
마시
##매가
자유롭게
하여간
김명
모니터
증시
작품을
##하시길
말하고
매입
이념
##했다면
김재
일시
충청
당신에게
버닝
용서
토착
##어준
##먼트
여성의
인정하고
걸릴
나이가
대화를
어마
이전에
있구나
##내야
##모가
참여할
가벼
계좌
광복
막아
미치는
저장
파트
한일
조사하고
끝이
늦게
아우
##으신
##선택
언론의
##자료
##준비
경우도
도지사
없던
추석
##대사
##여성
##하겠네
소식이
##만은
하려
##권은
##트롤
44
걸고
달아
둘째
소각
##발이
##실한
인간들은
때부터
아티스트
##권의
내용의
뜯어
리그
뭐지
##적이지
게임입니다
##센터가
목표로
건너
꼬라
잠깐
이번에는
오랫
웃기는
이렇
테스트
##익이
윤석열을
##교육을
소수
전수
올바른
amp
권고
노릇
비트
석유
영혼
협조
호응
증거가
교과
많지
충돌
2022년
제2의
오리
읽어
진료
##거라고
##축구
언제부터
주장하는
비속어
방사
##량은
한국영화
상태에서
안타깝다
막기
탈북
한국당
연애
##갑니다
진행되는
박홍
예를
무엇인지
49
강제로
##점검
##순환
##위원회는
않아도
본격적으로
46
동생
불거
##XX
이런걸
그녀의
기사는
끌려
많을
재수
토대로
##훼손
의결
##단과
생길
작동
##늦게
거리두
그다
했지
행안부
##아냐
전망이
병역
##∼20
발전을
방향으로
면접
역겹다
종로
##재밌
10시
대답
산하
유저
지출
##자유
전망된다
화려한
차를
클라
##인에게
##스팅
##슬람
맡은
야구
의사가
주한
##하던데
창원
집값이
메시지를
##주니
##으로도
다큐
박탈
스팀
주면
##구멍
느끼는
기생충
소요
##가면서
##든다
보니까
시발
##방에서
##성한
부정선거
기아
한인
현상이
##지네
##워야
##하고도
하지말
없애라
없네요
오토
##플레
##혀서
어디로
환경을
기다려
풀이된다
검사를
아기
적지
차가
지금이
나설
돌봄
원인이
아이템
읽고
실시한
이벤트
##으세요
##들에게는
욕하는
##되게
영향으로
나간
부회
유니
저건
정진
주력
##가자
조금만
재무
한정
둘러싼
3대
서류
요양
##드만
##차로
##봐서
유동
쿠테타
총리가
지지자들
끼리
인사를
코리아
클래
##ST
대대
위하여
후손
##카르
##재로
##세다
##농업
저딴
자신들의
하루빨리
멀한
파티
뭐하나
일주일
윤썩
상생
##신도
##실히
인생을
만들어진
자유민주주의
동영상
##으러
분탕
수집
안한다
##북부
##받지
건강보험
제조업
리얼
##싱턴
##선으로
지들끼리
문제에
여유
즐기는
196
##을까요
긍정적인
드러나
##되는거
위험한
800
목사
회장은
##색이
##허가
당일
국민과
현재까지
막말
비례
잡는
##중에도
인간을
지속적인
유튜버
내야
언론사
선포
없도록
탑승
##타고
##접한
일자리를
측이
##부장
사람들도
알았는데
남겨
드디어
또다시
억지로
자진
정규직
크고
##소한
##령을
미개
##이브
##신청
확인하고
외에도
질문에
프리미엄
1위를
찾고
##화의
##코리아
##론을
##추진
##센터에서
##럭시
트위터
없게
윤짜
적절한
##서의
워낙
자리가
분야에서
능력을
코인
한자리
무려
보존
많음
엄벌
##아파트
균형
##대도
경제는
꿈꾸
아줌마
스트레
국산
높게
부지
원을
일하고
##19
경우에는
##공산당
감성
##그런
##am
결정을
대국민
의지를
중고
##하더라도
##거는
없어져야
구멍
시사
싸게
자발
접촉
유일하게
최강
오프
##역에
##세포
##내기
##래기
9시
김포
업체가
이같이
##없으면
장점
##연한
10만
이뤄질
보조금
명백
발목
연주
##키로
정도면
##신고
다음달
##해주면
구경
미중
##과제
미국도
돈도
##스에서
하는것
대표하는
배상
유능
3천
공중
단기
먹어
잡은
119
망할
정식
파는
몰래
어깨
##소의
##낭비
##인데도
정권은
공익
무상
##여야
비행기
적절
지랄
구태
판문
이어지는
애를
의사를
임신
##하느라
##우지
재밌는
##부담
쓰지
해산
##행사
예산을
자폐
##드라
상태다
활용한
로스
상업
##등록
##집에
##때가
이러다
##장애인
깊이
##쇼핑
증가한
포함된
다주택
만만
삭감
키우는
안만
퇴임
##저씨
검찰공화국
하수
##듯한
벌레
유족
##가로
##기관이
사적
62
받으면
비디오
인종
##겨서
##인게
했냐
모르겠지만
어디에
학교에
비용이
검찰총장
정도는
부탁드립니다
사전에
착한
할지
박홍근
결합
전장
##기록
의원의
곳이다
특유의
##값이
대한민국에
이어졌다
개딸들
##케이
##억원의
이길
토지
어쩌다
보입니다
소식을
주기
틀린
##하지마
대변인은
많습니다
육아
재능
보내는
충분한
##지마세요
3만
결코
면역
##하기를
비교적
궁금하다
몇몇
일에
현황
##하지는
##하기가
민주당에
입원
##건으로
##ver
##청에
사고로
물타기
방북
##신은
자체를
건가
군인
얻을
편리
##ct
##레이드
할아버
##마리
##호선
##EC
사건의
개발한
KB
갑니다
무더
빌려
대통령에게
영화에
들어오
중간에
한미동맹
들려
않다는
연휴
청약
##트리
##우를
##무역
스피
##크로
##타운
그러면서
놀아
##소송
##였지만
경쟁력
개돼지들
운동권
누군가
성접
오면
이메
징징
평가가
##정지
국내에서
놀러
##린다고
##들이랑
못함
얘기를
임원
항소
##것같다
화장실
노력이
메르
문가
심의
욕하고
총질
포착
사회의
않는다는
화장품
월세
처벌을
무혐의
충전
##부인
##합니까
막장
##모르
청와대가
확실한
오세훈
더블
덮어
비정상
철학
하도
##메디
##주년을
워싱턴
이은
테마
##폭탄
지지를
부끄럽
국개의원
하더라도
기대가
조금씩
아는데
탓에
현장에
##하는거지
다수의
##해왔다
##석열
경찰들
60대
망하게
##로도
학생들의
넘어서
못해서
##있다고
베이징
몸을
초등학생
머물
몸이
1명
A씨
안쓰
전파
##인척
##해졌다
##으려는
##적은
그러다
책임이
개돼지로
망쳐
##단체가
국정원
총선에서
교환
뭐니
이xx
장례
##름이
대다수
소중한
##결이
##줘도
되었습니다
추종
##보복
##더냐
##션이
정치가
깜짝
요새
얼굴이
차지하는
원희
##만들어
##용차
##수하고
기업을
진행됐다
학교에서
사과를
아끼
##스파
##테인
##풀이
일어난
구현
그중
내릴
앞세
영업이
절차를
중학교
즐거운
참모
불쌍한
분류
##것다
재미있는
스토리도
것인가
다스
싱글
전주
추방
##누리
정치인들
북괴
##였으면
##버려
박원순
마치고
올렸
임영웅
환자가
##자다
정치인이
기다리고
싶으면
##도안
것이란
아름다
막고
승객
식물
직원들이
기반으로
9급
급등
##넘이
3억
##걸까
하나는
즐겨
폭로
##∼3
어려움
어떨
이성
##겠습니까
##진과
##견이
내놓은
떠나서
잔잔
포스코
공개한
방문한
시키는
대형마트
일각
다음에
윤통이
망신
개인정보
커녕
##인사
##bs
10개
윤도리
수습
##공장
##하는거야
각자도
해주는
여행을
벤처
##호는
##해야함
추진하고
공정한
영장
좋게
준서
한계가
편의점
불확
##않고
물이
지불
채권
##바리
보증
천공
##았을
형태로
만났
10대
선도
시켰
이들을
##지수
세계적으로
애니메이션
미성
욕먹
임직원
원숭
좀더
##분들이
##잡이
##론이
세금이
놈들은
일정을
줘야
##00만원
어느정도
비호
이쯤
팬들의
아름답
딸이
여자는
이죄
이슬람
사건은
6개
끊임
##보유
지역을
기사에
논의가
마감
먹으면
##답니다
##좀해라
종부세
어케
##es
##체계
이상민
들어갔
그런지
시골
현상
##재는
##선은
하나님의
경우는
부분을
김정숙
가중
나경
설문
제도를
##is
##폭력
모은
##어져
##TA
단순한
내지
##놨다
##감사
보건복지
##시요
##대응
뒤를
모인
체크
타임
허구
힐링
##트랙
##왔던
이대
##치한
에게
재명
##부문
##합의
안되지
업종
채워
##랑이
전망했다
완벽한
내각
치우
##치의
##반대
대통령님
늘어날
에어컨
배가
요소
##해봐야
결과에
##스럽고
그릇
수급
지분
한겨
##인멸
감옥에
수수료
민폐
하던데
##잔아
그런가
평가했다
자본주의
선제타격
못차
오죽
이시
##사령
##맞고
애기
##에게도
문제의
그러고
전쟁이
돈주고
##웠던
2007년
쓰면
오르고
점령
##인건
##ion
사이트
인간아
##기업이
살면서
수사권
##펀드
이런데
이상을
금융당
갈등이
꺼져라
식사
##소시
##할게
##심사
사이에서
되겠네
##드니
##농단
재판에
같네
늘려
당첨
싶어서
티켓
##이죠
##질러
가격을
아마도
허위사실
말아야
명복을
인구가
찍고
##률은
서울의
올라가
47
합병
##모습
##촬영
보이스
승진
##봅니다
스티
아쉬운
원인을
할만
프로그램이
곳곳에
만세
받아서
쓰러
영끌
##있습니다
##시간을
보여주고
A씨는
매주
머리에
상당한
선박
옷을
입맛
비용을
과정이
신중
올렸다
##풍이
##화한
##올림픽
만나는
손해배상
북송
썩어
좋아서
##집을
상품을
뮤지컬
북측
뽑았
사교육
##리핑
##졌는데
장면이
1개
채택
파주
##관계를
##작품
과태
서양
한남
##해봐
안하냐
##관계가
##억달러
함께하는
삼성바이오
가질
날씨
손실
##심의
##혁명
언론탄압
##연구소
교통사고
##ed
정부를
##정권이
7시
개고
원희룡
수여
신흥
##보이
하나요
머저리
반응을
마친
##없는데
배우고
부천
하여튼
써라
에너
착수
해줄
##서로
본인은
보수가
소위
좌좀
##해양
##속으로
##달아
가난한
골목
세부
위장
포스터
하겠지
##그만
어떠한
당분간
싫으면
애가
좋았다
##들인
철거
##보며
소년
유죄
##력도
##마냥
우리나라도
마주
준공
컨트롤
##구니
##키스탄
##값을
##축제
어쩌고
고민정
낮추
라인
일삼
##나이
##바라
##되었고
노래를
법조
##기다
##질의
싶은데
##보건
##PG
국가에서
정신을
##정부의
나섰
보며
컨텐츠
컨설팅
하청
##시장은
가졌다
인명
처먹
##가구
최신
##줄알
##둥이
위원장의
유투
있네요
화학
##불가
##곳을
##토리
집행유예
##이구나
##식과
##사이트
2시
대안
성동
시정
##터테인
##빨갱
문화가
앞장서
더한
보네
웃고
저걸
비서실
놈은
팔고
##et
##모로
결국은
불편한
부작용
부총
패널
##11
##러가
##닫고
영향이
저렴한
김원
얻은
침략
뭐든
상속
##있을
정치경찰
비즈니스
건조
인가
탄탄
10여
북한과
명분
##요일에
하나하나
그러게
주둥이
것이라
뒤통수
변동
부부가
사찰
안되면
하겠다는
##음에도
면허
트렌
##국인
국가와
현재의
##이었는데
계약을
표적
##티즌
두산
아는게
##마가
##물은
하늘을
독특한
반등
##처먹
##정책을
걸로
격려
없어도
잇따라
점유
##에다
##였다고
내려오
공을
그날
이르
입시
조사됐다
비대위
김경수
너거
보다가
이스
##웨어
윤석열과
바람이
날려
원활
매출이
4분기
것만
엉뚱
할때
윤석열의
필요합니다
다해
분당
안할
##네ㅋㅋ
##퇴근
##미나
##살을
언론은
경기에서
##못하고
국회가
증거인멸
원장
위안부
잊혀
##급을
민주당을
어렵게
어색
진지
짜고
##감에
##라는게
운영하고
올릴
추적
텐데
48초
4명
길게
데다
말자
##라며
##케이션
##시설을
비판했다
이낙연
강추
증언
한쪽
##는것
##자식
##철도
만진당
중증
##ED
방향을
넣고
찾기
##국에서
##질에
공부를
창작
흥행
##FC
왜냐하면
벗어
비하면
윤미
정수
기준을
쓸데없는
과도한
신도시
##못하는
간편
기자들
전당
쪽으로
##하의
진행될
24시간
가즈아
속도를
식민
지금이라도
러시아는
정상회담을
노잼
매도
열면
나서서
기자회견을
피의자
1층
ㅈㄴ
목격
불량
집으로
파렴
##로만
##담당
##례를
기준이
갖춰
공시
나토
진행하는
구체적으로
##두창
##00만
우습게
사안
조현
##치에
##종일
이해를
증가하고
대중교통
가슴이
2명
오르는
위대한
있는가
사실이다
상태로
배터리
창조
##기한
##회의를
계속해서
시켜야
에서는
##데이
능력도
선배
저학력
한층
##광역
노조가
강의
중반
##벤처
진행하고
문화재
행사에는
CEO
건보
불어
지사는
참신
경기도지사가
사실은
여론이
뻔뻔한
귀엽
대량
미칠
벤츠
저항
나오는데
차지했다
모으고
미성년
미마
베네
##였어
이제야
대한민국에서
정책에
대책이
경계
동기
삶이
##속히
##현실
##건에
##나도
##약품
경쟁력을
행사에
전교조
넘들
구역
매매
복원
없기
죽일
##중의
제품이
##은행이
면제
수의
스페
애쓴다
##팀은
우리나라의
그녀가
철저한
오랫동안
버려
않아서
이쁘
현장을
무역전쟁
관람객
공략
불륜
시달
일할
적정
종이
##하기에
이해할
위험이
성형
통보
##고에
##졌지만
##뿐이다
고용노동
기무
심화
엄격
##겠군
##옵니다
판단했다
힘내세요
높이고
만화
손잡고
은혜
##각을
각자도생
물류
##서와
기업에
시선을
더듬당
바쁜
생기는
시대를
여태
##령이
만든다
받기
사드
사장이
캠프
##즈를
활성화를
##주인공
파트너
당내
안심
측정
##속에서
##수지
##사범
부장판
상임
좋음
##겠구나
##하는거냐
연기를
##하가
##치도
##애들이
##설이
아이들을
권성동이
재발
##공연
##생명
10명
구형
소외
외무
##결을
정말로
국가대표
수면
저출산
조카
##견을
걱정이
자는
해준
##목으로
지나가는
일으킨
##공자
##회의에서
분야의
굥이
대해선
##아들
5억
것보다
마구
방영
스웨
이간
##졌던
##없지
##있어요
##꼴통
경찰과
왜이리
침체
티비
##참여
아이디어
그리스
집무
##였네
##배는
못하면서
싶지
한나라
##시지
비정규직
거두
대외
맞을
셀프
에스
##자마자
##바람
소비자가
3D
56
열었다
##님을
##되길
부끄러
계엄
국세
내렸다
술을
아파
여기는
할말
작품이
넘어가
잘살
증상이
##전의
##임에도
##위원장이
기본적인
겪는
써야
오만
##외로
서울중앙
##전문가
손바닥
접대
##순위
공론
##부부
북한을
국익을
말하면
물려
입장에서
##사진
중심의
신임
교육이
##하겠냐
기간이
담아
천재
파리
할일
##환자
재밌음
비판이
사망자
죽인
##서울
##구리
##ol
보여준다
얘기다
늘어나고
피고
보고도
부분은
고속도로
일어날
네티즌
세운
아울
주범
##래요
막상
성별
##이유
##없어서
기업은
결과는
서비스가
6시
모여서
상습
의장
장식
재배
프랜
##없다고
##되도록
SBS
공화
꺼내
되게
뒤늦게
지목
펀드
##인력
이런건
사용한
음악을
나빠
많다는
시는
확충
##il
난이도
연루
이르는
사건에
이뤄진
기능이
실질적인
검출
방식이
소프트
위법
인류
인스타
##롭고
195
격리
박물
지사
권력에
신뢰를
##라스틱
85
가이드
메인
지긋
추모
##어는
##람회
있다가
조사한
하루에
공동으로
단체로
넓은
법사
판사가
##당으로
##평양
좋겠어요
53
따져
심심
치명
##준이
있다며
정치에
근로자
검사는
웃기고
##락을
##시켜서
기관이
무정부
변명
숙박
않기
영토
찌질
무서워
##유치원
높고
숨겨
의지가
##가입
##지는데
##보증
##잡을
만들지
2주
##터가
##사람들은
공간을
누적
야외
헤어
경비
널리
비하
##나가는
##렸는데
지구를
잇따
##았다는
##층의
##납니다
대한항공
수업을
스위
실업
어서
유쾌
##쳐라
10분
말라고
법원이
부드
상용
우리나라에
기록한
엄마가
석열아
불확실
강행
시공
##자본
##질로
##철수
가능할
##지않고
거기다
북미정상회담
5000
와이프
줄줄이
지났
##료로
##꾸로
난이
살짝
죽어도
진영
##포를
##반이
마지막에
목적이
발급
시가
합류
##앞에서
민정수석
같냐
영상이
##렸던
지원할
무엇이
안타까운
2명이
무소
신경쓰
김씨는
되면서
청렴
포인트
해수
손흥민
8시
주가가
없다면
돌아다니
전기요금
##지않은
도가
물에
유독
적어
##15
##못해
##식에는
숫자
스튜
싸가지
아부
무능하고
기억에
경쟁이
얼굴을
건진
잊지
전체가
##그네
기자님
방법으로
뭉가
스카
에는
##하실
##집행
돌입
망한다
사세요
최창
##이한
##이블
00
늘었다
데모
한때
##둬라
##는거고
위기에
조종
텔레
허리
##12
##중국
##같음
없는게
오래된
장제원
기강
해고
건드
손절
운동을
##일으
끝나는
세무
천연
투쟁
##나온다
신고를
밖으로
죽이는
##대기
##택시
사이버
냄새가
김씨
맛을
미니
##하듯
고통을
남양
사회에서
지원금
병원에
##받침
##시장에서
갖추
생겼다
실태
여부
정규
살인마
걸리
뷰티
비율
입장이
##이면서
##아니다
반응이
감상
공인
하태
##해야할
소득주도
뛰어나
##un
사회를
정권교체
알려주
독립운동
누리
비열
행안
##구려
##함은
분석이다
희망을
종전선언
구상
김민
문학
안고
##비와
##협의회
##물의
사진이
무서워서
이재용
고문
날뛰
불만
있긴
##라운드
상태가
자문
##편은
250
법무부장관
내다봤다
붙여
한사람
만들었
정확하게
개소
꼼수
되도록
뭐하러
##el
진행되고
인터뷰에서
마찬가지로
개인이
소중
처분
##연의
##어마
##센터는
최초의
##ews
신입
적게
할거
##급여
##포럼
##됐는데
역사적
54
꺼져
부서
일환
##았나
송파
전담
접속
지네
거리두기
고성
끝나면
중동
코메디
장관을
공정거래
떠들어
속도가
패스트
##받게
##쳐도
반미
얼른
##기소
##개는
대하여
조항
체감
할수있
##추가
떨어뜨
만나서
성공한
깨끗한
남이
두드
발광
있습니까
사과하고
공수처
어딜
침묵
혼밥
##거리고
##보면서
녹색
몰고
반납
수구
심장
연일
##포먼
##밀한
##ch
나라망
명시
없구나
##데로
##에서만
현실이
성향
인식이
잘해
차관
##패를
어려움이
판문점
57
몇십
배당
인적
##소와
##치며
방송을
이것들은
성과급
멈추
지닌
##할려고
##사한
##넘은
돌아오
망해
##권력
##번호
##이라는게
유형
참나
##마나
지도자
고양이
박범계
##비도
##임대
마련됐다
선택한
생활을
조회
##내라
##있어서
마지막으로
범행
우유
위축
투자가
한방
##미술
지역구
살아가는
선정된
가해자
벌이고
양측
이영
100만
만들어라
판결을
떠난
##욕을
평범한
##ay
불쌍하다
맞서
삼성이
열릴
했나
##라엘
##지인
마음대로
아마존
물러나
기온이
프랜차이즈
##이런
##억원이
스릴러
부정부
##교류
##트의
20여
지원한다
가격에
감축
근육
김지
뭐하고
안달
##일듯
##소방
##실험
##OP
하는거지
서울에
김일
당하는
##전한
된다면
노인네
##회계
##미로
활용할
성과가
고스란히
살게
접종
##인생
##산화
##면이
##되기도
역사에
되니
##년을
##군을
귀찮
일당
##시장을
##전부터
##마디
말로만
김학의
벌인
부들
정계
##하루
##부처
##까지도
싫어하는
눈빛
다리
답했다
이대로
##겠는가
##간첩
좋겠네요
쇼핑몰
맞음
뮤직
부각
##로그
##있던
들어도
철저하게
59
내리는
높이는
눈물이
분쟁
사시
여자들
영역
##양을
##시장의
거세
길거리
워크
주장을
##보게
이게임
구미
살면
중장
##마크
##노릇
##편의
당대표가
원내대표는
봤습니다
치안
##아웃
##판매
연구원은
아쉽다
전후
탈탈
회장의
##탄핵
##확인
11시
바이러스
행정안전
3000
4시
##무는
##청장
제공하고
최창식
같아서
상처
안먹
약한
##통에
비트코
곧바로
자들이
해상
##이치
##스포츠
##보로
다음은
무덤
##자격
##렸을
제기됐다
자영업자
넘은
등도
배현
비록
잃은
모르냐
##억원으로
부자감
타이틀
담겼다
자라
##일자리
##부에서
휴대전
거리가
매니
배후
한해
##위반
##나갈
##만원의
너희들
상관없이
국무위원장이
노선
마냥
암튼
오류
태권도
##인것
##까진
##디션
##변호
기자야
얼굴에
벗고
부통령
분들은
안하
지경
청주
사람과
주민들의
기획재정부
구직
무사
치열한
과제
낫지
냈다
배웠
이로
행동이
국가에
최고다
194
미래에
남편이
높여
상식이
양도
초래
##편을
##넣고
##듣고
이스라엘
순위
얘는
전락
충족
##걸고
진행한
##하자고
바퀴벌레
던져
드론
보행
중대
##하진
##런스
있을까요
가관
여겨
저정도
최순
##알바
##박물
##싫다
감빵
신축
연기도
##연대
##림을
##음에
이상으로
관심도
분석한
지나면
##하였고
국회의원이
내보
잡아서
##공사가
##나온
정치는
##생활을
판결이
tv
거대한
뒷받침
버린
영입
의정부
쳐먹
활동이
##색을
일반인
##하시면
청문
한계
##달라는
##화될
##된다면
전문가가
지키는
퍼포먼
포럼
##통합
진행할
누구를
재판부는
라이브
고인의
상가
편입
소장
온다
조장
##남도
##싸고
##박스
##림이
다니고
남자는
법으로
부디
유관
추잡
##지긋
##치면서
##차에
##골을
있었다고
어디까지
줄어든
2층
모범
아가리
어처
표창
##대전
일본에서
진행한다
입장이다
개같은
몰라서
색깔
예쁘
경기북부
무능력
국경
오해
협상이
##돈이
혐의가
스크린
강도
먹여
씨의
여당이
그딴
자제
제품은
어렵고
확실하게
동일한
가지가지
맡고
문건
유학
##테고
##호의
##다는건
제공한다
2위
똘마니
메모
점심
##접종
필요없다
좌빨들
2회
김해
낙태
성장을
전동
조차
차려라
##한걸
##한테도
재미를
소송을
로드
세입
작작
편파
##실은
모르면
세계가
문재인과
가격은
역사상
바람에
개통
납부
행위를
##개념
##렬한
국회에
않았던
기본소득
데이터를
배울
워터
원의
##로드
##으셨
##재해
##히지
##세의
##중독
##기업의
##시키면
오른쪽
문죄앙
농민
윤정권
즐겁게
##수술
이런식으로
만들면
댓글을
##시설이
관측이
백악관
61
감동을
마다
못살
차고
##방문
##화할
떨어진다
안되는데
신천지
없는거
##수산
각오
복구
심하게
오고
##형으로
##ㄷㄷ
예상되는
선택을
추천합니다
일자리가
같고
꿀잼
선한
올리면
##기획
##면허
생각하지
이후로
추진할
##년에
##석의
##왔는데
모르겠네
받아들여
비교해
차량이
희망이
모자라
블루
아저씨
전까지
##id
##마스
##세한
##걱정
##평균
마음으로
만나고
대체로
금메달
더해
딱히
맞다고
틀딱
배우들의
거라고
규제를
차세대
천벌
편성
회수
후배
##용품
##써라
앞으로는
##한거다
준비를
##어버린
김혜경
간접
근대
내게
동양
붙잡
우버
##소비
##등등
##렸고
안정적인
시중
이집
##일세
##갈이
기업과
최소한의
한겨레
계절
나갔
났다
도리도
빅데이터
##쳐먹고
진짜로
드라마를
공동체
어마어마
BM
경유
내리고
법치
정당한
경제에
세계적
지나치게
투기꾼
1번
7억
말장난
소형
카르
##져도
증가했다
나고
물건을
법대로
살지
잡혀
패턴
한창
##곳은
사회복지
교육과
찾아가
자율주행
그정도
날리
돈만
많아요
무력
##두로
##느낌
금융감독
깨달
나옴
될까
사죄
유권
이같은
##어지고
##재난
역시나
받아라
어렵다는
빨갱이들
강력하게
똑똑한
지방자치단체
3번
됐다고
드리
소규모
##실로
##센트
가르쳐
문의
쌓아
##시네
##왜구
사람만
그러냐
코로나로
##여도
거절
##병이
##어지는
현재는
우영우
예외
청산
출판
취향
포르
협치
##현동
##버리는
보고서
마련된
이름으로
공원
동북
캐스팅
한은
##지대
##영은
##렸다고
8개
관내
진로
##분양
##치네
##어린
##사업이
##위원회의
제출한
수강
판타
##조는
##방은
##부러
##줘야지
일본을
학생들은
##겠고
##받아서
##사과
##키는
##작을
분야에
논란을
63
공시가
관종
김수
농협
무단
이순
패배
##하구
##내지
##협약
가능성
느낌을
주목을
4개월
라도
모름
부사
할듯
했으니
##LC
##시키기
모습은
재밌어요
누구도
5시
김어준
밤에
재개발
##연은
##집이
##문화가
##겟다
##렉시
끌어올
밀어붙
##더군요
범죄자가
민생은
강압
바꿀
법은
소련
싸지
오피스
의도가
확신
##여개
##반하
정권에
##들만의
안걸
저축
##라시
##차량
##ea
##였다는
한국문화
대선때
관찰
짓고
##겠지요
정보가
방법은
끊임없이
듣기
안함
##금의
##만명이
##그냥
설치된
움직이는
걸리면
말이야
##조로
우리를
가족과
멍멍
세탁
탈당
차지하고
원내대표가
건들
또라이
주체
평창
이어진
휴가를
보유하고
오빠
##투기
최근에는
##시장에
##거든요
조치가
모니터링
브리핑
서명
커버
##겠음
##장인
##RA
##돈을
수준에
전문가들이
감세
위주로
융합
탄력
##발언
##바지
잘못이
계획이
사라져야
최우수
성접대
방한
##갈등
개선을
아침에
주한미
64
위기를
주시
##소나
나라도
급격히
대립
무대에
묻고
서구
알아라
개무시
도서관
불을
##동강
##수밖에
집이
##일지
##한거지
##주와
##나라가
아이들은
다음날
##교육청
지들은
해봐
##어들
시간은
들어가면
##피싱
##전기
##통화
##재생
서울중앙지
지긋지긋
역량
자국민
큰소리
##라의
##통제
##외과
지원해
##사업에
근거로
윤미향
700
DM
공평
깡통
니는
##받아야
##TS
대표로
판단이
김병
대목
줄이
##즈가
자동으로
이사람
잡으면
커질
하려면
의원들이
금융위
5세
방안이
수록
인지도
##시나
##캠프
##으로만
느끼고
가득한
크로
##어질
판단을
젊은이
해운
##스톤
전체적으로
윤석렬이
종로구
가공
귀국
노하
이가
출퇴근
##기네
##거네
##진한
김씨가
플라스틱
##주식
시민들의
태어난
신앙
외신
위탁
참여했다
넘이
똥을
##지길
##수엘
##길에
경기도지사
조금이라도
3명이
가속
독점
되는지
조리
재미없다
3시
95
갖게
건가요
고백
그놈의
노트
영어를
위에서
해킹
##깡통
세계의
기본적으로
가량
도서
매력을
미사
알면서
잘난
적반하
##분들은
##gg
문화예술
이것을
선정됐다
서서히
맡아
밀려
야당이
영광
하시는
회사의
##청산
정치보복
자존심
##카르타
김상
되어서
말대로
침수
획득
휴가가
##조에
##란을
##었으니
##알아
지역이
발생해
방식을
페스티벌
하려는
##당하는
선교
야간
한숨
##급으로
##까지만
##화학
조선시대
국어
면담
쳐다
풍부한
할말이
휘둘
##올라
##모양
있어라
##레이션
나경원
이준
##할텐데
대표를
주관하는
인건비
고래
곳을
##면으로
##았음
##미사일
맞는말
법원행정
공영방송
검거
사악한
킬링
토사
할려고
##로로
##가는데
##관으로
##사리
##미터
##평을
최고위원
좌파들은
사랑의
과정에
늘어나는
3배
7개
갖는
경매
##개입
##파로
##애들은
##액은
생각만
일본과
역겨운
끼리끼리
노답
윤돼지
자카르타
##않는
감사원
시행령
예산이
대깨윤
답답하다
72
역사가
틀어
학술
##야구
##유산
##수있다
##준다고
##줬으면
이재명과
사업의
소리하고
가벼운
막대한
맞습니다
반찬
양쪽
있겠지만
정경
정책은
새해
인성이
터뜨
발견된
70대
##빼고
##부들
기록을
해당하는
공범
했어
협상을
##취급
언론을
발효
##보여
##지는게
들어가서
이후에
선택적
처벌이
회사에
부정적인
전략을
양보
이처럼
회의를
제대로된
높았다
뻔히
성사
실적이
전술
해마다
##가루
##감으로
거주하는
눈물을
##리랑
베네수엘
후퇴
##됐습니다
##새가
##잖은
범죄가
소방당
50년
66
더더
무장
엔진
조례
필요할
강아지
댄스
석탄
의지
위해선
아무나
지원하고
있었으면
참가한
가맹점
고조
류삼
번호
수료
오바
정유
정무
주재
있었다는
좌파들이
전세계가
그쪽
핵을
들어갔다
느끼게
부러
어두
위생
##비의
안전을
사례를
가기
가리
관리가
역량을
확인해
겨냥
다닌
아오
연동
##인걸
##으려면
##되거나
##화되고
##참사
지역사회
페미니
담고
멈춰
비공개
생생
유용
인디
##전자
들어온
콘텐츠를
수령
##가나
##났다고
이번에도
서울에서
금리를
맞는데
위헌
조사가
현실은
극혐
보도가
지사가
##나지
장관의
간단한
GS
글이
대피
문씨
##주자
##안정
##설을
아닌거
대표의
배우들
그립
샀는데
슬슬
##을지
##전시
##동원
##환이
더불당
##한거야
힘들고
하는짓이
3명
든든
로또
이병
##방지
##드의
서울시가
것인데
절감
생각할
친구들과
IP
김연
남부
수준이다
훈훈
##료는
찾아가는
지적이다
갈등을
부정부패
##졌으면
##중심
##편에
##폭이
##잖어
##근무
한국도
이하의
하노이
1호
거꾸로
나서는
학살
##희롱
불가능한
생명을
욱일
아이들의
연구개발
드러난
여가부
you
로그
무산
믿어
병원에서
파워
학대
##받는다
##줍니다
국민만
대통령에
처음에는
꼬리
새겨
승리를
조달
한건
##업에
##센터를
마련한
금강
라면
안으로
##정말
##십니까
##튜브
사업이다
기대해
떨어지면
벌어진
아버지가
##서비스를
마이너스
##인들에게
##두면
경찰서
신청을
무대를
쏠리고
유망
##못한
##마를
하나씩
기존에
수익을
5분
거임
니들도
명심
순경
주머니
쪼개
##이익
##러리
성공적으로
##나오는
공간이
98
노란
발송
비극
총경
##방안
##병을
##셨다
##크가
##몰이
그러지
들여다
pop
신혼
자고
##들끼리
이상은
지키고
웃기네
될듯
많다고
옆에서
예의
주행
지진
진화
##당시
##마켓
##주얼
국민혈
귀를
묻는
얘기가
작전
하위
##파악
##운용
##as
6년
보편
사리
자식이
##신의
##마이
##부르
##적한
##추어
인생이
없애야
곳곳에서
내면
다채
미흡
별다른
인테
##기금
##18
국민들도
한국시간
전통시장
정은이
비겁
서열
실화
체제
하겠다고
보여줄
전체를
것임
관리를
내외
돕는
사는게
시대의
신당
안그래
알리는
일고
장점이
점수
##법상
하나만
##위원회를
푸틴이
전시회
보이스피싱
하태경
73
내수
말인가
수주
전광
조각
타는
하라는
##비한
##려도
##사들
지지율은
숨어
형이
##통상
##내가
괜찮고
불편을
##수준이
상식적으로
우즈베
감각
당할
만5
밀집
발령
북쪽
조명
한진
2006년
권력의
자원봉사
브렉시
안보고
은근
##다는걸
규모로
실시한다
차량을
사태가
복수
알리
정직
죽어라
플래
##ig
부분에
교도소
암살
오지게
하겠습니다
했네
##년도
##터를
보고싶
확인했다
세상에서
국토부
생기면
촉구했다
끈다
정치적으로
보이는데
골라
보러
안양
영유
할것
##급한
경찰도
돌아간다
안된다고
자세히
갖추고
남긴
납품
##면에서
드라마가
의혹에
대깨들
도와주
헌법재판
해볼
##랍시고
##뒤에
##하지말
여성들이
##이었고
앉혀
야생
한시
##구에서
##조한
##대교
##억이
시작해
모습으로
국민의짐
훈련을
구걸
다닐
되서
무용
보스
안녕
작곡
주호
하거나
##구속
##케어
영화로
아니라면
아르티
구독
수호
휘두
민주당에서
들어와
엄청나게
감수
내보내
하드
##아나
##박살
##혜택
기상청은
계곡
리뷰
시작됐다
이미지를
측면에서
감안하면
OO
빼돌
양승
엑스
탑재
##업무
##방의
##수요
게임의
사업으로
역할이
결론은
엠비씨
나지
실정
유리한
잘했다
##이후
생각해요
##가는게
강성
걸그룹
결의
대륙
싫어서
##24
##우리
##물가
책임은
검사들
나와도
국정운영
안들어
이천
입찰
호기
##대행
##포가
##질만
전국에서
방송에
##대한민국
거래가
게이
농가
몇달
버릇
성희롱
역겹
정해
##시리즈
우울증
아울러
BMW
소고기
줄을
지고
##적의
머가
보는데
알면서도
어때
이론
촉법
하더라
##영상
이뤄지지
3위
5명
고도
끌었다
날씨가
당황
라디오
멸망
출국
파탄
허락
##식에서
##아까
##집회
##절을
##NA
경기도내
검찰과
마련했다
어쩌면
운전자
날짜
대접
실력이
쫓아
해군
환장
##바뀌
##️️
##꺼야
미국으로
지지합니다
받아들
요청했다
가세
말아라
무주택
씨를
인상을
##이니까
##간다고
##양반
전국민이
1인당
깨닫
보소
세우
이해찬
가족을
개연
바꾼
솔루
싶네요
앉아서
##러니
##하는것도
##영화가
뜻이다
산책
신도
키운
투어
형량
##공급
##관학교
##수당
아이콘
나라꼴이
구나
기성
일만
중개
##따위
##인간들
케이블
결말
극장
##영의
##판에서
##기간이
두려워
권선동
백화점
부자들
슬픈
운송
##기까지
##량한
환경이
바람직
4명이
굴욕
택배
##로의
##을거
##내면
##작이
댓글이
이러고
보수의
##되었습니다
흐름을
녹취
잘한
죽을때
크지
##지역에
내년에
수신
임상
중견
짓이
한복
##십시요
##같네
개헌
걸리는
경주
꼴보기
발매
언급한
김부
나몰
##적도
##폭등
100여
##계획을
동행
무언
살리
심어
죽으면
중기
총리는
하천
##북도
20프로
가능성은
자식들
더러
드럽게
부르는
소용
입이
자르고
홈런
##선생
##DP
명예훼손
계신
바지
빨라
위안
제도가
##90
해결할
대우조선
오프라인
내란
도모
불행
솔로
침공
생각함
저런게
2005년
##대통령이
개최했다
혼자서
살펴보면
구단
독서
별도의
종종
주연
창당
챙기는
##거품
기업들의
스토리는
시스템이
형태의
주최하고
기회에
안남
##인증
##ut
나오네
권한을
고등학생
녹음
바가
신념
지겨
##주차
##선과
##ot
이간질
FA
강연
모욕
시세
오버
인원
했음
##시청
##으라
##채용
국내에
발생하지
##들과의
여러가지
클라우드
가야지
김호
일정이
아니네
지역주민
재판을
제시한
구린
될지
문이
##기념
세계를
보수는
안전하게
마약을
준비한
입장에서는
VR
실효
압색
있잖아
##하잖아
##을수
삼성전자가
합리적인
180석
되기를
법의
점수를
한걸
##군에
않았다는
안되나
바라보는
가요
단위
못하겠
성경
외치는
유가족
중에는
##하우스
##액의
도전과제
##스파이크
LH
뒷통수
안성
원유
지명
지혜
진학
##투리
##사회의
##돼지가
##얘기
##홀에서
관련이
아직은
##사업은
총알
치러
협력을
##한가
##방위
##행위를
##언이
##찍은
준비하고
3년간
코스프레
CG
급락
별도로
원가
체납
항명
부정적
##연합회
메이저
4천
40년
68
교훈
먼지
수고
잇는
장학
추경
황교
##개도
##치다
##아프
##히면
##꺼면
개를
선을
수두
##졌을
##였지
##제와
하나인
##인간이
영원한
##사무소
신인
어든
좋지만
죽는다
줄일
지리
촉진
##되지만
##떨어진
##IC
건강을
이래도
파악하고
구급
꼼꼼
모았다
선행
악용
에효
청탁
품목
##하구나
##부도
##간이
##복합
##버려라
공짜로
올려라
희대의
##im
##맘대로
##영화는
맙시다
몇백
신세계
양심이
올리지
##하락
##리포
##방법
##되네
##ow
##NG
자신들이
오늘날
사라진
역사의
합쳐
해보고
##방안을
비판을
규칙
맞나
믿음
서부
유착
##인구
##와라
##보인다
니네가
부자감세
맞네
무척
안락
안중에도
##위와
##수호
##영향
문화체육
않았고
제공할
우즈베키스탄
다문화
미루
수차례
앞당
전임
흡연
##잡는
생각에
같으니
우상
우연히
절망
토요일
##보장
##영화를
이러면
봐서
북핵
사냥
이었다
저래
##교수
##타를
##협상
않는다고
코스닥
5개월
CJ
간절
잠수
주유
줄이는
차원의
여론조작
그때는
기레기들
윤짜장
수거
으이
트집
하겠냐
##리세요
##마는
##무슨
유럽연합
이모양
맞아요
상실
순천
역적
커플
협업
##결제
##프가
##였어요
개선이
총선때
이사장
고전
데는
살자
성적을
수렴
시비
신발
앞선
일요일
학력
홀로
##시각
##님께서
사람으로
가족들이
67
na
그들
논의를
당해
손으로
인격
임용
청원
##구팽
##만원씩
전기세
##효과가
걸레
권리를
꼴이
안한
작업이
저것들
회사는
##통은
##수출
진행했다
1학년
말까지
맛있는
박수를
발을
와중에
웃긴다
입력
청춘
##았어요
잘못한
참여를
고려하면
77
과목
과잉
명칭
섭취
있으니까
키우고
탈퇴
##대표가
러시아의
단단
맞냐
사지
어짜
역전
##아의
##카데
##콘텐츠
##들이지
지지자들이
추진한다
##하는거다
디스플레이
MB
거고
그와
마크
봤던
안좋은
원천
했더니
##놔라
중국으로
모자란
일환으로
들리는
안해도
잠을
형편
##시하는
##고한
방송에서
다행히
취약계층
당의
땅에
시킬
여운이
##법원
##의혹
##았어
김여
##놈을
지역경제
시민이
증가하는
##진흥원
귀여운
불필요
죄명
추측
파고
패스
##유지
##답다
경찰관
배우는
과거에
망치고
발로
##리는거
수사는
확인한
한두번
78
8년
감정을
금리가
농산물
도주
못배
박멸
봤어요
##조의
##처는
원자력
가축
간에
내비
땅을
##자랑
##수급
##석에
##났네
이상하게
관계자들이
민간인
같지
뭐고
뭐라도
지킬
##업체가
정치하는
모르게
15년
지루한
LA
낮춰
받으며
설레
수시로
이넘
중지
해안
지금처럼
100년
모습이다
꼽힌다
멘토
시위를
온통
형제
##범을
후보로
직원들
움직임
김원웅
예쁜
찢죄명
팀을
후에는
##소리가
최근에
자료에
엉뚱한
도의
아녀
이례
주민이
##공동체
특성상
못했던
진주
##아시아
##희가
##베이
토사구팽
개꿀
공적
기자는
추세
##내에
##였나
모든걸
the
수혜
신의
작가가
할게
해주고
황운
##17
##간히
##더라고
국회를
자체는
화재가
국고
상대가
소주
종류
합의를
##드에
나라로
영화라고
5만
도중
런던
욕은
임종
##방식
##운동을
모르지만
전국에
않았다고
50억
수출이
전과자
##터테인먼트
매칭
무책임
사후
##집에서
누가봐도
일반적인
제품에
이꼴
##것임
##공감
##의미
아시아나
신뢰가
##사항을
금감원
마침
본사
##았냐
시작하는
가족의
##산업의
최소화
쓰레기를
공군
되나요
벤투
출생
황금
##도에서
##인터
##롭다
너무너무
정신적
제품의
싸이코
당당하게
news
대화가
모순
징글
해대
##장비
##살에
경향이
주위
초밥
탈락
했으나
경제의
레드
외모
자금을
콜라
클릭
투약
##규제
문재인정부
##이었습니다
관할
귀신
기어나
물량
임진
주식을
창립
후안
##이여
##레일
##입학
병원으로
원숭이
개척
맡겨
밖에서
빼면
쉽고
않나요
##겠구만
##하는가
민주당으로
어쩌라고
감면
단점
오락
##시마
##파는
만들려고
재밌고
특별히
내놓고
리스트
소리는
연준
왕따
첫날
테이블
##ve
##끼고
##층을
##지역의
성공을
##그룹이
##시킨다
84
간만에
레벨
잡았다
터져
##한이
##건은
##장사
나타나는
바꾸고
북으로
영세
조별
토트
##14
##방향
완전한
##기술을
##국민이
고수
그들을
여성을
착공
평화를
##탄을
##만원으로
그렇다면
납득
데이
수색
열등
이종
족속
판을
##통일
##긴한데
##었다면
정권에서
책임지고
지루하고
혜택이
근거가
그야말로
베스트
소문
여수
웃겨
정원
##기반
##동생
##들이네
모르지
준비가
제기한
##되었으며
너희들이
윤리위
신선한
호응을
맥락
밥먹
연수
키보드
##국과
##가들이
##형의
피해는
자기들이
130
##OOO
1대
육사
캠페인
흡수
##들보다
##전환
##상관
##MC
운영을
우리나라에서
나중
사각
짖어
최재
추산
포털
##기에는
##16
##권과
##시키지
행복하게
개미들
4만
극대
되돌
막는
써서
좌익
##수아
##렸네
##저가
않았습니다
넷플
드립니다
육군
재료
포용
피로
##총장
##mm
전국적으로
킬링타임
다같이
많지만
있겠지
하신
##것네
##지냐
##어의
##PS
##폐지
##IA
북한으로
본인들이
약속을
폐기물
고소득
까고
도발
무속
버리는
잡아야
친절
카톡
##두에
##있는거
경기침
우려를
참고로
토착왜구
국채
남쪽
노인들
레알
법관
엄중
포토
##인지는
##분쟁
##항을
2021년
긍정적
공교육
몇명
자칭
전화를
지향
##노인
##체에
##창업
유지하고
정의로운
변호사가
정상회담이
과일
끼고
나을
포천
하든
생각으로
##주의자
구속수사
번째로
억울한
탁월한
카르텔
감지
감추
과장
##국회
##고용
##상한
세계에
재밌는데
배우들이
잃고
정밀
중대한
##노잼
투자자
현실이다
##000원
in
여배우
인사가
질의
해방
아니잖아
시민의
본인들
UN
수험
적당
##와도
이해하고
2찍들은
배경으로
단일화
골든
얘네
좋네요
게임이다
관심과
정상적으로
해외에서
강화를
거덜
관해
높다는
다이어
무인
미뤄
소멸
투수
환수
##마스크
##았지
##례가
돌아갈
이화영
박성
시상
##다녀
##말에
##형은
##위원장은
##차게
##등을
##값에
사무실
유능한
골로
땜에
위선
##일리
##등이
##생들이
기대감이
지나가
가까워
김기현
문화체육관광
그니까
정쟁
##공격
하지도
##억원에
결론을
굥은
독자
목포
사장은
##산은
##과장은
국민청
생각없이
사과하면
청년들이
똑같네
어울리는
간신배
부하
심사를
안했
우기
절라도
##일때
##시위
##나올
##얼굴
어디갔
##더라구요
별도
아메
##분석
##침을
한국어를
##위원은
의원들
학교를
목표를
##모델링
재활용
이쯤되면
걷어
국악
천지
##이래
##위험
##님과
##군데
처음엔
산업용
갑작
돌고
소대가리
실감
확률이
대표적
170
기다리는
노숙
전무
판교
##해왔
조사에
사망한
사태를
정황이
1명이
날라
##되던
##5천
##복무
##독립
##토막
경찰들이
사용자
친구랑
당연한거
윤통은
다행이다
걸려서
두번째
이분
찍소리
코너
##ra
이익이
뻔뻔하게
박순
빛을
우리은행
2000년
판매가
올라갈
##지원센터
발견됐다
모르겠고
몰랐다
있니
즐기고
##줄도
##됐을
아이들에게
살아있는
선거에서
어우러
막아야
사내
집착
트럭
편향
##리들
##치는데
##유착
##고시
그럼에도
안되서
노는
반일
정서
최후
환호
##숙한
영화도
하고싶
이뤄졌다
나란히
대결
대입
##장치
##역으로
##체로
##된거
조작질
판매하는
요구했다
드러냈다
나와야
대법관
방위
실력을
원인은
있기를
한식
##기본
##일텐데
##정하고
##내며
##미널
##능력이
##∼4
경기도에
가능해
수사하고
사용하고
고위급
추구하는
러브
시술
##리우드
전부다
주인공이
펼쳐진다
고사
유연
주인이
##려다
##중이다
##심은
##부터가
보험료
##과정에서
감정이
노가다
도데
부를
아닥
음료
있죠
통행
##시대에
민주당도
해결을
바이든은
경쟁을
개최한다
광주시
민생을
누군지
유료
자를
하향
##분별
##스레
가능하며
국가는
않았을
뉴스에
##하였습니다
##하였으며
소음
아랍
일회
조율
패러
##분한
##별로는
언론과
짜증난다
신속하게
미용
않다고
지표
하다니
아무튼
내년부터
소득이
쓰레기가
근본적인
naver
담보
명을
안받
##발표
##방해
##동조합
##해야합니다
당신과
존재하는
가깝
엘리
장착
##아무
##애가
영화입니다
당대표를
지켜야
공급이
4대강
DLC
동화
악플
완공
집구석
현안
##대해
##회와
지적도
##ECD
어짜피
결정이
알면
양육
입에서
점에
세금도
이것들
벌써부터
76
개관
된장
이XX
##로워
##rt
##드린다
##음식
소속사
너무나도
1일부터
가는데
망친
북풍
안희
중학생
표를
해가
##기들
##원들
##여명
##값은
##타는
##범은
하는가
국가안보
나타난
그림을
기여할
##스러워
진작에
82
가전
검경
그치
밝히고
뽑는
차려
##산에
당신들
아무래도
선호하는
핵무기
최순실
그닥
다는
보임
송금
이적
있으면서
장기간
처단
##학적
##현장
대표와
좌파가
있어야지
극장에서
데이트
민선
밀고
배워
악취
직권
천박
허무
확대를
##들갑
##역사
##디자인
##처먹고
##폐기
정책으로
같으면
알수
열려
회사를
##산의
##교가
##했었다
##책이
##하는걸
수사해서
댓글에
복잡한
공존
변신
불만이
폭이
형평
##르다
마련해
문죄인이
패스트트랙
권력이
다짐
면세
방학
상무
자회사
절실
죽음을
해본
##꼬라지
것이며
모르니
개발에
##장에선
활동에
제재를
준서기
더럽
새삼
다른데
대통령이란
보내라
아마추어
저러고
구속영장을
걸림
것들을
금호
덕에
둔화
모래
소신
웃음을
##유럽
가져다
OECD
물가가
폭파
##터스
교육부장관
190
##기관의
법인세
더빙
법적으로
사정
##도없고
##수입
##려니
##모지
##약이
학교가
국짐은
김동연
내신
시흥
##신도시
##보니까
##백을
정보통신
##사고가
안된다는
3시간
낙동강
인상이
전여
##ww
##청년
##징글
나라와
김건희가
나머지는
##ent
나랑
안올
일치
잡지
전액
전설
진압
찍는
처참
##두는
##체의
##문제가
##곳의
움직임이
모지리들
일상생활
언젠가
##월드컵
막내
##토론
하던가
장면을
리더십
명백한
나한테
여사
합니까
##미디어
##타워
##황을
저런걸
증거를
디자이너
끝났다
사설
쉬는
오르면
춘천
##풍을
##안해
##직에
##버렸다
##청정
시설을
자빠졌
시원하게
1시
싸그리
와이
입당
전에는
##자만
##표절
##창출
##팀을
##살다
기업들
일어나는
동작
발전에
법에
안의
약을
##했을까
##회로
아니니
이제서야
##만원에
누구보다
근로시간
어리석은
공론화
대주
알겠다
짓는
튀어나
평소에
##금도
##가네
##비율
윤석열대통령
지역으로
아이의
관리하는
행동은
바꾸는
고가
규제가
남경
뭘까
상반
화제
##구와
##학대
##보에
윤석열이가
경제부
이것들이
공무원들
결혼을
제외하고
양승태
고만
에피
원이
최다
패키
##법과
##ns
16강
부족하다
##장관은
소개했다
나쁘지
도리도리
너에게
넣은
망치는
매력이
밝은
사령
수시
윤은
의대
타당
화웨
##란이
##딩이
정도다
알려주세요
누구는
노조는
느껴지는
JT
가성
납치
박지원
배불
분산
사주
순식
##인지도
##해달라고
영화제
하루하루
윤핵관이
모양새
발악을
생계
죽어야
찾지
축산
한동안
화제를
##거부
##차고
##점의
##봤습니다
##5일
산업통상
합의가
시켜서
김성태
베네수엘라
끊이지
오브
좌표
찾아서
##민들이
##가와
##걸이
##름을
조사에서
1년에
배현진
로이터
신라
힘드
##청소년
있다니
참여하고
꿈꾸는
도이치
동조
뜻이
뽑아서
안간다
연쇄
##주사
##우의
##린다는
것이지
개발을
바보로
본질
영부인
주류
집합
차이나
##경험
당신들이
이유도
발생하고
출연해
걸러
남해
능지
말이냐
안민
중에서도
찢어
청도
초고
타협
트레이
##점과
이용해서
학생들에게
준비하는
건강에
전체의
먹고살
다르지
비싸게
오토바이
인종차별
도데체
됐고
인플레이
한잔
##둘러
문재인때
사라질
남북정상회담
강화하고
사법부
이곳은
경위를
당국이
되도
말이지
용역
전염
정준
테슬
휘발
##비전
##5000
##렸습니다
CN
세력이
수를
##라디
##게도
않았나
아닙니까
되찾
하도록
##는지도
##ㆍㆍ
##핵관
해야할
전반에
불평등
선별
업그
은폐
재고
첫째
##분께
##경궁
##먼저
##폭행
가능하도록
192
공개적으로
바이든으로
무시하는
석열이가
생태계
목회
성적이
##맞은
##이야기
무식하고
실시하고
선보인
왜이렇게
클래식
산업통상자원
리모델링
못하니
위기가
편이다
##체제
##문화를
경기도지
191
않았는데
참가해
타이밍
고대
기자들이
높일
똑같다
맥주
세우고
위조
참전
##것이고
##버는
##잔치
##찍고
국민도
자신에게
사용해
돌아온
방송국
경위
매월
소지
싸고
안지
용의
원인으로
임차
##으시
안되니
출신의
젊은이들이
로맨스
어설픈
늦은
믿지
사표
스프
여지가
조세
중순
##추천
정치인들이
본인도
결정했다
바꿔야
유사한
마리
썩열
음식이
페이
호들갑
##기강
##매를
기업인
1기
무효
지령
집은
피아
허접
드라마는
세상은
##정책이
김건희는
도둑질
74
고속
고개를
돈스파이크
두달
듣지
아트
파산
할말은
##강간
조사해서
##지않나
##만큼은
준석이가
이슈가
블룸
품격
##인한
##없애
정신과
해외로
요구를
적폐청산
69
도출
봐주
아가
진동
##속이
##kg
이준석의
30여
비교하면
모른다고
마이크로
놀라운
JTBC
동시
마당에
부풀
요소가
원조
질문을
충격을
사이의
예정된
뛰어넘
분탕질
2대
날조
후유
##간을
##드릴
##심에
사라지고
여름철
추정되는
##생에너지
미개한
그에게
##취업
##난다고
##죄가
##많다
지지층
##정권은
말고는
공정하게
최대의
기간을
나가라
않는다면
힘든데
다채로운
기피
높였다
득표
말투
먹지
윤깡통
지저
첨부
한반
##재단이
댓글부대
후보는
인용해
연기는
자랑스
잘했다고
주먹
##수한
##현은
##엑스
##가는구나
100일
살아온
과태료
부착
악랄
정당이
##모임
이지경
일방적으로
##인거지
##구라
##의식
##했더니
##중인데
사람이다
사용이
결과다
세금은
포함돼
출신이
물러나라
간담회
높이기
설비
않는데
알리고
줘라
##리던
##들까지
##되어서
##무지
##광고
##있는지
##쉽게
##에서부터
저런거
설명을
일부를
미래의
ㅠㅠㅠ
작성한
귀족
늘리고
로비
버튼
불만을
살아서
욕한
##가량
##마음
하나를
예정인
기간에
바꿔라
인스타그램
4범
군산
싸우는
유감
윤두창
전범
천천
측의
##버려야
193
소리만
소비자들이
상태를
전반적으로
카카오톡
식민지
간이
거친
똘똘
생일
섬유
애매
패륜
현정부
##니는
##키고
아이러니
당신도
재미있다
인정하는
더불어민주
13년
##기술원
변호사는
한글화
브렉시트
가평
경기에
따지면
레전
살피
입지
자이
자립
쥐고
칼로
##란한
##제재
##뱅크
분석된다
인사청
대통이
관료
답을
아랫
안사
캠페
##대장
##셨으면
##있다는
상황은
기대감을
일반적으로
고양시
나누고
김의
세미나
유예
주무
행위가
##이용
##방으로
##nd
140
받았다고
나이에
뽑아준
서초구
비례대표
눈과
당국은
살던
원장은
증여
혈안이
##건만
##발로
##간담
##교를
바이러
학생들을
마약이
영어로
시원한
영업이익
건진법
괴물
근절
까는
끝판
망하는
못하도록
참담
폴란드
##아래
##했다며
교육은
중요하다고
전국의
검토하고
기소된
강사
규탄
남자들
누릴
더럽고
수장
썩을
없으면서
키울
판새
허술
##라우
##없나
##ce
생각좀
##한거냐
##스타일
대비해
개도
물품
우회
접목
짤라
화제가
##tu
##미의
처음에
하루가
진출을
자녀가
짜증나
구별
다죽
벨기에
사먹
왜케
포인
회피
##급식
##렬이
대표이사
지키기
감사를
기쁘
부도
왔는데
이들에게
저의
중산
흉악
##만들고
때문이에요
들어선
밝혀라
88
떠나라
먹거리
모드
한국으로
중국몽
잘못은
##하겠지만
외국인이
바이든이라고
##아먹는
거지같은
하늘이
##∼201
박스
보냈다
삶에
우롱
인플레
있겠냐
주위에
채무
##것들아
##고속도로
##비서
100만원
추정된다
국민세금으로
넷플릭
3류
금속
떨고
보는게
시기가
조지
##보이는
##os
찾아볼
산업혁명
##프로가
공격을
아르티나
냉장
뉴스타
두렵
볼수
유가
##면피
##달고
##버림
##녀가
게임에
프로그램은
성장할
강제징
천천히
가담
당국
면에서
못하지
이의
일로
##이긴
##사퇴
학생들
현실적으로
##이었지만
##지지율
우승을
스튜디오
동포
미스터
비아
사물
악성
입건
헌신
##바꾸
##보소
##겁니까
##약한
생각해서
ICT
할아버지
징글징글
들리
##들었다
##우니
##될듯
문화의
사이코
##가능한
국민세금
기후변
www
대상을
무마
술이나
싶을
얻는
정한
정해진
힘입
##연수
생각해보
서울시장
사과는
국제적
택시기사
윤무식
9개
국비
설명이
펼치고
##발의
##사나
##놈들아
##들이고
20억
국짐이
신고가
합리적
막판
반환
인식을
일선
카드를
힘으로
##시도
##막을
문재인의
교육청
##지않는
발언이
##자에게는
수술을
욕쟁이
위하는
이완
초보
정치꾼
##이지요
집단행동
달라진
언급했다
비중을
겪어
남용
못하네
박민
배포
분담
빈곤
시점에
여학생
유효
일등
작살
장려
전인
초점을
치유
##르르
##동은
##없으니
##체계를
##린지
##∼6
않은데
더욱더
회사에서
완벽하게
강아
특성을
##이전
##심으로
##린거
사랑이
선택할
상담을
관광객이
새벽에
쓰레기는
망한
차이를
##마시고
어쩌구
최저임
너희가
금리인
재산을
나몰라라
명단
범인
잘도
##불을
##틀러
필요성이
범죄자들
2004년
방문하는
##아니면
김정은이
1분
대여
레스토
만원
받으면서
양극
엇갈
팬덤
폴더
##진에
##보조
##체는
국민에
##는거죠
떨어졌다
기사로
예정입니다
친구들이
대변인
2조
가도
수질
자들
재해
할텐데
흔히
##자흐
##한을
##연설
##여름
##안의
##예방
##문의
##ad
##에서다
때문이라고
보내주
바뀌고
민주주의를
80년대
또다른
애도
##직이
대학이
부끄럽다
까다
동급
자위
태도
폐업
한결
##자료를
##시스
##더러
##석과
##문제를
서울시는
보내야
산업의
전기료
개돼지들이
거래소
시청률
사퇴해라
주호영
길로
손상
욕도
일개
잘해라
지갑
특활
플레
합작
##작업
##청구
시작해서
일어났
후안무
고유
장을
##죄를
##강화
보는내내
서민들은
대출을
항소심
말하지
병행
잘해서
하실
히어로
##공작
##대지
필요성을
댓글들
좌파는
후진국
##소시효
주한미군
김호중
2개월
김남
나가고
매진
못난
바르
상향
순방
청각
출제
##실과
##og
##쳐야
##싶어
노동당
##자로서
나서고
유전자
87
가처분
건물이
교사가
맡았다
이고
있다는게
말씀을
매력적인
블룸버그
과세
놀이터
머릿
밥을
버는
천박한
##만해도
##트에서
##매도
##독한
##혼자
서울과
주장하고
공무원들이
요청한
미세먼지가
1편
되야
때보다
뭔지도
실적을
우호
철강
##천원
##되기를
##OU
##듭니다
##같으면
사건으로
걱정이다
방사능
간섭
뉴스를
돼야
##살아
일부가
한동훈은
과학기술정보
마인드
소프트웨어
AP
PD
감찰
거라
공화국
득실
막걸
보아
생애
식량
카자흐
필로
##들게
##함의
##황이
민주평화
어디가
옹호하는
오피스텔
거둔
교섭
답다
자사
적당한
획기
##채널
활동하고
투표율
반영된
##빨갱이
1주
게재
겸손
공소시효
불쾌
비건
##는지는
##경제가
시간과
가격으로
나왔는데
당대표로
제정신이
보전
성관계
일종의
잔치
출장
편가
피눈
해봐야
##비디오
##장악
##두가
##입고
##협정
생각나네
재밌습니다
어쩌냐
되었으면
조직이
담당하는
경로
삼아
식약
직면
하원의
해석이
##리케이션
##주냐
##안에서
##석으로
##될지
이동통신
느껴진다
고난
그로
남에게
동결
물놀이
미션
불친
역선택
죽었다
터진
한방에
환율이
##치킨
##었으나
##빠가
##밀히
탄핵을
청와대는
행사로
##이란게
궁금증을
강력히
신용카드
낙하
되돌아
봐야지
빠질
안했다
억제
여주
여객
인내
##렸다는
##반을
##좋다
##열면
했다면
확보한
류삼영
of
듯하다
성실
여자를
우기는
원산
점포
터트
##업소
##금과
##먹기
있는것
인간도
국익에
대마
열악한
찾았다
해줘야
##∼5
다른나라
결과로
국힘에
검사출신
실패한
저질렀
단어를
부양
절차가
중계
중복
협의를
##이하
##락치
##할래
##플러스
##팀의
20분
없는지
중심이
시청자들의
기가막
그대
떨거지
분식
상응
엘리트
여자들이
올려서
##공대
##사지
##끼는
##감정
##는다면
친구와
다큐멘
남경필
독감
부합
소감을
심해
애들도
올해도
유흥
이마트
##진창
##어죽
##상이다
##키퍼
##매김
부모의
장애인이
반성하고
벌어지는
나누는
답변을
POP
계시
돌이
이송
이르면
저가
##거를
##전히
##세금
##집은
##안과
있는데도
해결하기
요구가
마포구
싫고
열리고
중재
##ir
##22
##불이
검찰을
예상했다
자리매김
음악이
쪽팔린다
시즌2
국토교통부
정진석
그땐
동부
말과
미드
발주
벌이는
부근
생물
짜리
##법의
##형에
##경북
내용에
장관과
사고는
##은행은
서로를
심각하다
무너뜨
1로
4억
ㅈㄹ
각자의
고장
기조
눈으로
모의
이목이
홍어
화합
##경에
하나다
보고서를
사업자
##사람도
개인적인
서로의
준석이는
작년에
활발한
이죄명이
97
간판
내정
당에
들먹
목을
상고
오줌
이긴
일들이
주간
통제를
편히
##13
##인들을
##온이
##배로
##넣어라
해외여행
선거때
거짓말로
##경찰청
인테리어
많으니
말든
연료
저하
정우
좋겠네
줄었다
중화
휴식
##오지
이상인
보도한
그걸로
나락으로
전장연
견인
보도를
쓸모
알콜
얻었다
열차
영등
장벽
정성
평론
헬스
##리스크
2002년
예정이라고
OOO들
지능이
더더욱
국군
농림
멋대로
못잡
부총리
소시오
일산
줄고
채우
최선
판사는
##할줄
##라이팅
너만
반역
불합
빌딩
재래
체류
##짓은
##측근
하는거야
##하자면
의미다
남북이
국무총
답답한
양심도
잠재적
메르스
앞세워
79
김무
번도
상당의
성격이
암울
윤똥
##시피
##나마
이후에도
내년도
실시간으로
황교안
각별
믿음이
빵에
선두
실용
울고
장병
처먹고
##구장
##없냐
그러는
언론에서
현지에서
최악이다
10년간
이곳에서
고무
드라이
마스터
설사
신재
엘지
주축
찌그러
패치
##원인
##크를
있었는지
1500
과학적
평가다
기본이
인근에
시끄럽게
파렴치한
간다고
미팅
원망
짱개
##었을까
##설명
##버트
##문은
##ji
##하던가
인생의
성남시
때려잡
저질러
버그가
힘입어
고립
늘리는
도배
득점
유학생
파헤
풍부
##주변
##담을
##덩이
가족들
##다니고
대선후보
출산율
크리스마스
걸렸다
관세를
너와
안잡
철면피
허수아
##들어서
생각하니
만들어낸
2003년
현실화
논란에
##업자득
적합한
개는
비리가
소릴
없잖아
용기
재현
##아트
##중개
##중간
##ck
한국인이
일본인
이어져
범죄자를
자유가
##하던지
작가의
같다고
곳도
김모
단체가
변화에
재직
조속히
해봤
##공화
##님께
##우로
##봅시다
하나님이
모습에
##기관에
제작한
도입을
해임건의
주말에
FTA
SU
고개
다하겠다
류현
뭔소리
살길
주신
짐작
한발
##것지
##질이나
##태가
##지도않
스토리를
연구를
주변에서
공동주택
##기간에
##결과가
판타지
과감
불교
상처를
우와
이새끼
파일
##되었던
##us
##백신
좋아할
사건과
환경부
대응을
업체들이
금리인상
불구속
자발적으로
가리지
낮다
불꽃
영남
자부
통치
한꺼
##1위
##바이트
##무능
때문으로
나오냐
분석해
영향력을
물론이고
노력하겠다
합의한
MBC가
일각에서는
드림
막무가
백수
입사
팀의
##못하게
##콘서
##하고있다
사용자가
정책의
대상은
중소기업의
긴장감
쓸데없이
부들부들
86
나발
남았다
미치지
사냐
여주인공
제4
해리스
호도
##가지가
##었구나
##퍼스
##FA
이대남
전여옥
83
96
유인
인센
살인자
괜찮다
상대방
남발
떠넘
비위
사는데
소모
싸우고
자숙
##만하다
##점기
##사들은
##랬다
가능합니다
좋아하고
외교를
이름은
유지할
김종인
강서
경사
마니
멸종
쥐어
짝이
현역
##시한
##당할
##점도
##돼서
사람들과
지지하고
##사람을
공개됐다
요구하고
대만을
조용한
시험을
선보인다
초반에
페미니즘
영등포
거죠
김희
몇개
박찬
배정
이기는
##미달
##축산
한국전
나라다
이미지가
하루종일
후보자
장애가
허구헌
반토막
사흘
상주
요인이
적혀
조건을
태도를
표정
##다란
##위조
##그럼
문제지만
만나면
후보를
1년간
가슴에
방식이다
##ㅎㅎㅎ
논문표절
불거진
강대
됐으면
보라
살림
세이브
없나요
연천
윤씨가
입금
젤렌
지낸
파란
팬클럽
##치와
##유출
##사들의
##디언
주장이다
나왔으면
ㄷㄷㄷ
국격을
규정을
글고
기금
목사는
별거
싶다는
중점
춤을
하시고
##인식
##만달러
##청사
##사업의
국민들한테
집단이
심각하게
유승민이
호텔에서
닥치고
불복
아세
자업자득
줄리
하러
##았으니
##보상
##CC
##mf
시간도
라이프
자세한
발작
자질
##함께
##겟지
##같아
##물과
나타나고
날리면으로
꼬라지가
70년
가다
국적
군부
맞춘
물가는
백현동
범법
입양
지수
최상
##자연
국민적
올해부터
2찍들아
##중공업
1운동
골키퍼
눈감
박진이
잡기
찌라시
##라기
##전도
##졌으며
##무식
시민들
과거의
이곳에
어이없는
워터파크
병신
있거나
침몰
##었기
##협회가
##맞는
지지자들은
다음으로
책임지는
##더라면
오른다
한꺼번에
IS
신상
오사
유류
읽는
징계를
친인척
후에도
##지던
##사법
##무기
##셔널
##어야한다
사용하지
있었나
친구를
제기된다
모델을
자랑하는
계양
놈을
도달
된거
등산
봤을
산정
실행이
어거지
짓은
##께요
##25
##사회가
##주나
##줄을
##겁다
##좌빨
##증으로
지난주
중국도
되었고
발언은
구체적
바닥에
오죽하면
가방
구석
급식
버리
빅뱅
애비
일일
중의
클리어
환자의
대부분은
도시재생
공포영화
그놈
믿는다
신생
연상
커서
태평양
##결정
##민은
##되야
##줘요
##셔요
##운을
시작되는
이야기는
문재앙은
영국의
벌였다
삼류
승부
화해
환상
##소기업
##만진당
##유통
##학이
선보였다
집계됐다
거에요
까불
돼서
들통
미련
손이
유로
제보
타격을
팬들은
선거에
경쟁력이
부작용이
1점도
순식간에
공립
남지
##자들도
##지네요
##안한
생각하게
##시키자
건강하게
집값은
소방관
제시했다
물어뜯
설문조사
조별리그
인센티브
GDP
과천
모스크
사정이
심야
유의
잘하면
조상
죽게
##다닌
##변을
사진은
##이란걸
표현을
이루고
##들에겐
한글패
폭염이
거는
금요일
많았고
빠는
서면
쓴다
##자리를
##일본
##파리
##견찰
##작가
조사해
12개
배우가
높아진
평화의
신속한
기재부
만5세
실수를
썼다
오산
일간
털고
파도
해리
했을까
##해야하는
인간들아
문화적
선거법
높아질
없었고
엉망진창
근처에
겪은
나부
흑인
##거늘
##도서관
##위해서
##고생
##되는지
산업이
구조를
실질적
명확히
탄탄한
7급
비번
양의
총을
카운
틀림
##도우
##과도
##플루
있는건
검사들이
ㅡㅡㅡ
더는
메세
방금
브로
여긴
열광
조짐
좋으면
진실이
쳐먹고
##일수록
##로에
##공을
##할거다
##랑은
##덕에
##순이
보여주기
주변의
성공적인
난이도가
메모리
미달
비주얼
상시
정통
커진
##해결
##소리는
##대통
##나왔
##회사가
##드리고
##싫어
작품은
나서야
이하로
임대주택
##ctv
김일성
감형
내기
논쟁
야이
언니
이태
##라구
##투어
##동과
##막고
것이었다
정신건강
운영에
표현이
바보가
불러일으
방탄소년단
되니까
박영
없으니까
여권
외출
천국
크다는
##했을때
정권잡
개발이
##정보를
공사를
어긋
전복
천만
##인재
##들면
##단속
하고싶은
대표이
160
처벌해야
적용해
해주면
인터뷰를
끼워
서식
호의
##가기
##계에서
##회관
##막이
문화에
지켜보고
레전드
개똥
깨어
몰락
쓰나
알박
여부가
인권을
##하느냐
##것냐
##공헌
##소재
##조절
##가진
##트와
##문으로
##줬는데
##교육청은
나타났
투표를
독재자
모르겠음
시급하다
##지말자
BTS
노회
들지
무뇌
보단
비유
서둘러
시리아
아산
아들은
이사회
저작
제고
최하
협약을
##안됨
##제도를
##저런
##층에
##채로
아니에요
다른건
교육의
내용이다
느낀다
끝판왕
넘기
증상
##민을
##지오
부족해
이뤄지는
일으켜
삼성전자는
기레기야
옛날에
진술을
집무실
에피소
강동
들면
부당한
장이
콜걸
##라나
##경우
##주네
##함으로
##열을
발표를
보도에
의혹과
이기적인
가스라이팅
필로폰
강좌
되는게
때리고
박람회
법안을
비타
승용차
잠실
혈세로
##도도
##면적
##놈아
##엄마
가능하다는
거짓말쟁이
유지하는
말도안되는
박순애
애미
영감
입소
저격
파이
표본
해피
##이들은
해야함
규모는
어처구니
법원행정처
불필요한
감동이
개박살
거리를
대항
삼가
시에
신동
안방
하반
##병으로
##력의
##억을
##브리
중간선거
이끌고
아이디어를
재명아
업그레이드
인사청문
주소
##이요
##해줘야
##할수록
##취를
아니죠
##되는게
필요해
정신차려
인재가
개그맨
이순신
허구헌날
AR
높다고
도적
도우
돌대가리
비참
총기
총수
컬러
푸하하
##공사는
##다보니
##없어요
##갔는데
##냄새
지금껏
진행이
피해자는
조사해라
만들어놓고
이해하기
주민들은
넘어갈
##기간을
시설이
아래로
안타깝네요
52시간
강북
기증
당헌
도약
맞지만
있겠다
프랑
##지휘
##고발
##나와서
##신용
##진영
##눈에
##곳으로
##씨도
문제야
이어가고
포함됐다
미친듯이
강조한
MBC는
줄어드는
소재로
등장하는
윤대통령이
제안했다
말아먹고
실정이다
죽을때까지
황운하
똥꼬
성도
세련
운항
##파괴
##되었는데
##내요
##놔서
모르면서
거짓선동
언제쯤
국정농단
불과하다
신속히
ㅅㅂ
경선
기저
다하고
백성
보나
비웃
소나
속속
자의
처분을
탐욕
틀튜브
##이들아
##장벽
##던거
##하기전에
시작한다
삼성은
여론을
##경찰서
구조조정
은행이
새끼들
##ation
똥개
본부
살리는
성평등
수확
의류
저번
제임
중부
탕감
퇴진
##되네요
##ha
##하기만
말이되냐
나타날
2년간
공식적으로
##30분
명확한
놀랍다
7세
거울
거시기
낳고
돈에
미투
빚을
안동
음모
의석
이어서
했어야
흔한
##구청
##못할
##올려
##테일
재밌네요
발전이
대구경북
아나운
아시아나항공
pc
vs
넘들이
망치
사모
저럴
캠핑
커졌다
흐르는
##차이
##OS
##넘게
지역화폐
장관님
집중적으로
000여
제기된
청소년들이
최적화
김의겸
개탄
공사가
딸을
범행을
수감
습관
안봐도
핵실험
##오르
##스카
##살고
아니었다
문제도
하지않
169
아파트가
윤핵관들
긍정적으로
##로서의
대다수가
건국
날로
배터
시상식
양호
장담
청정
충견
커다란
##력발전
##셔도
##미에
##현의
##위원회에
살인사건
지시를
해석된다
이따위
1∼2
거리는
달에
떠드는
반란
보청
승차
실어
차로
##하곤
##산다
##균형
##하는것이
마약사범
부산시
기준금리
순수한
비호감
US
공룡
농어
발간
소극
신곡
양질의
적고
챙기고
##소수
##남용
##고만
##래곤
##랄까
정치방역
그만좀
##거리며
##적이었다
성공했다
쪽팔려
##거래가
금액이
이벤트를
반려동물
김진표
들으면
물질
배부
유대
증폭
취하고
특화
##시죠
##부정
##했어야
##회복
##좋고
지원에
연락이
생긴다
대가리가
강제징용
꼽히는
당했다
돌아서
됐는데
두꺼
백번
안하나
이도
찍을
한표
형식
##단위
보고서는
좌파들의
공간으로
등급
무거운
##것에
##언유착
있었을
자유로운
책임질
현실적인
부모는
##산업이
사라져
법무장관
기반을
금액을
주차장
조합원
최우선
고인
군이
굴러
되며
않으면서
지붕
트로
휴게
바이어
기억을
선수들의
##경찰서는
감소한
펠로시가
비트코인
많으면
버이
생기고
성장이
수단
이석
죽었는데
퍼트
한판
##원칙
##어디
##군과
##본부는
##인데요
나오기
##은행의
대만은
의무화
개웃
관중
노벨
다크
올려야
잉글
##다나
##주는데
##잡기
참여한다
올해로
운영한다
올라서
연락을
여야가
범위
업적
확률
##이거나
##데기
##주는게
##안된다
##있었다
##평생
##융합
범죄는
언제든
추진해
의원을
인사들이
나가면
그런데도
##국제공항
만만치
명문
본래
열정
위촉
통일부
동영상을
피아노
고추
높을
문대통령
법원은
빨고
송영
식의
심신
저놈
##레인
##었으며
##체적
##강도
##예찬
##매는
기대할
110
그렇지만
뒷담
슈팅
치면
한대
##부동산
##우파
##정권의
한번에
코로나가
너희들은
과학방역이
쪽팔린
치료가
출연한
권성동은
일으켰
예정이며
아르바이트
##광역시
##벤처기업
카자흐스탄
가는게
농도가
맞는거
몸통
미쳤다
슬로
애는
이니
처방
팔아서
화폐
##것인가
##발생
##학원
##종은
##TO
사람한테
경제성장
이용자
보수를
어렵다고
노력하고
안정적으로
##스토리
기축
속한
속보
속으로
없으며
의외로
이면
잃어버린
자택
##놓는
##검토
경기도에서
모두를
추진한
이뤄지고
계급
고혈
다신
따르
싸질러
안하는데
예배
종류의
죄인
화이트
##만드
##집어
##uji
##듣는
국가주
15개
걱정된다
##할수있는
음식점
없었으면
윤정부는
전당대회
목사가
발라
본부장
사관학교
예금
원고
이보다
제이
콘크
하겠네
##태를
##놨네
수사도
환경에
##할때는
업계의
소름끼
게스트
나옵니다
남들
남기고
똥싸
멍충
법제
사저
사생활
선물을
여는
여기가
옵션
특례
##나가고
##갖고
생각했다
생각했는데
시작할
사업장
##센터에
공산국가
반성해라
하던지
간호사
그다음
영유아
깨고
놔두고
사료
싸워
자금이
정의를
##정비
##어에
수사해라
얼마전
피해자의
11개
사형이
##나오면
연예인들
빼고는
밝혔습니다
과학기술정보통신
국외
르노
만성
실리
애써
언행
연내
##지우지
##했네요
##타이
##타가
##페스티벌
##한다며
하는건지
대단히
보호를
들린다
맞물
문서
않네
올인
일일이
재단
파손
흠집
##실장
##디아
##초등학교
##∼8
들어오는
러시아를
직접적인
미래는
구로
넘을
되겠다
부장
부른
술집
##인민
주목받고
스피커
감탄
규명
숨은
스포
응시
죄인이
##로직
##국장은
기술과
주장한
장면은
제안한
진상규
스트레스를
가산
멋지다
원하지
##까리
모르네
재미없음
안되냐
결정할
확대하고
규모를
##정책에
자유한국당이
돋보이는
잔잔한
과시
당권
딸랑
못가
싸울
양념
트리
황당
##만하는
##줄은
##층은
##벗고
쓰레기같은
비교할
어렵지
21세기
바다에
선전선동
KBO
젤렌스키
고로
네덜
뚜한
모아서
못보
발부
발암
부상을
불리한
설치는
속초
준다고
핀테크
##하되
##성향
##호와
##난리
203
정부도
했다가
##사업으로
남북관계
항공기
단어가
달린
대략
와우
인원이
지자체가
차에
파이팅
함유
##은게
##수기
##쪽에서
국방부는
지루하다
수십년
##피언스
내륙
뉴질
상해
쉬고
신년
왜구
의하면
좌빠
크기
##했구나
##판결
국민일보
생각한
필요로
국짐당은
집중되고
연기력
궁금하네
마스크를
폐지하고
당선된
5배
7살
리콜
만취
세트
안하지
쪽은
##도없는
##포인트
##수작
##쓰면
##od
##들이야
기대합니다
범죄에
한번씩
조작이
##지않아
대만이
음주운
설립한
교활
동훈
될까요
두루
명동
못하는데
무선
민심을
보이지만
아껴
않겠다
전현
죽기
칼을
판에
##아동
사회공헌
교육에
방송된
##하자마자
노래가
흐름이
모를까
IRA
각본
걸리고
길어
논리가
다다
당근
시기를
애로
##기사가
##계열
##러스터
##족이
##00억
누구냐
지속될
저희가
안그래도
늘리
마르
불참
사육
사운드
승인을
줄서
친북
페널
##하더만
##포스트
##아깝다
##겟네
그러한
이렇게까지
대학에
강화하는
떠들고
로마
무렵
복무
색다른
원정
이세
찢죄
##AE
20만
자기네
돌아올
현실에
##게임을
프로그램에
공부하고
##카데미
6만
굳건
불투
우덜
편이
하시길
##기부
##구성
##수익
##디움
##폭락
##닉스
10프로
##니까요
정신좀
중요성을
불법으로
다니면서
국회의원들
조국수호
선보이는
금감원은
소방당국은
오사카
A씨의
sns
교회가
도청
오너
있기에
취지로
##지라
##포로
##드와
##돌봄
##망겜
##씩이나
궁금해
표현한
보기엔
가짜뉴
회의에서
겨울철
전반적인
유투브
윤서
펼칠
##위원이
##전선
##났는데
지지한다
내용으로
본격화
투입해
도둑놈
두드러
간절히
문란
발병
배급
외에는
있던데
전도
졸작
지킨
##페이스
확인된
금융권
발표하고
실시하는
관저
관점에서
동대문
박형
본질은
쓰래기
있느냐
줄이기
통수
파격
##들하고
##글로
감독을
요구한
고민이
중구는
다루는
93
90년대
발목을
분기
비자
비닐
성립
순으로
신사
엄한
연대
인력이
##테이너
##입으로
문재앙과
조직을
입만열면
##마저도
다를게
계열사
SUV
먹어야
시점에서
신이
싶네
유산
좋냐
좋다는
좋을듯
주에
화를
##일의
##국장
##수라
##승리
문제임
사실에
러시아와
가족은
과학방역은
개정안
가계부채
1심에서
개성공단
윤썩열
닫고
리듬
뿌려
쌓여
판치는
횡단
##로서는
##대회를
##못차
##어스
##움과
어느나라
지켜보
하다하다
##테크노
어릴때
1분기
공감을
다니다
못한다는
보태
욕할
저것들은
충실
##시라
##죄는
##판으로
##머스
하나라도
북한에서
다시한번
##들에게도
기록하며
공연은
공산당이
개최된
근무하는
##상황을
너네가
대법원장
흥미진
시급한
##경영자
art
관리에
두둔
배틀
분할
사단
색출
서방
터질
##겨라
##답시고
##여론
##호식
##ss
##즈의
문제와
정신질환
주민들
##지역에서
개최한
바뀌는
밀어부
##시스템을
아내가
2인
가세요
관행
국공
남는다
스키
주제를
풀고
##리안
##오를
##파티
사람인데
##이었음
거래를
수십억
##변호사
토트넘
골을
급하게
길고
농식품
모이는
문빠
방구석
오류가
위태
전철
져야
주이
취한
펼치는
흑자
##일까요
##라인을
##받으면
##안되
##넘들이
##맛이
가능하고
얼마든지
여성은
전쟁나면
이놈은
FC
바라고
버릴
상세
시인
안쓰고
인턴
잘생
케이스
크다고
하원
##전쟁이
##으므로
##했잖아
##았으며
##휴가
하고는
나오면서
200여
여기까지
000원
관대
기숙
논리로
야기
운동이
이끈
지선
##남자
##없게
##채를
그러고도
아무말
인정하지
분석을
차량에
##드려요
SM
보석
보강
입점
전격
준수
펼쳤다
##기야
##오스
##파를
##재의
##셨네
##퍼센트
##모두
##기업을
무엇인가
재미있고
나쁜놈
바닥을
봉사활동
국장
내놨다
뉴스가
방관
살수
세균
속도로
알아야지
어렸을
억압
취해
테크
한장관
화웨이
##지도록
##계와
##졌기
윤석열도
참여가
방문객
비핵화를
제도다
만약에
주도하는
썩어빠진
5급
세제
통하여
##는다는
##ri
##질하는
##누가
바이든을
거북
광명
독려
뒤에는
드물
목에
상납
육박
천문학
터널
학과
##공부
##cm
##롭지
이런일이
교육부는
여성가족
금융위기
핵심은
달러를
공유하고
마디
먹튀
북조선
비준
옮기
인력을
해설
##님도
##학자
##증은
10만원
국회는
##주의가
여러번
이뤄진다
받았습니다
2∼3
6천
낮게
너그
들아
듭니다
떠나는
밑에서
벼락
약간의
잘만
저에게
적도
타결
탈을
피할
##을려고
##넘어
##됐으나
##언을
##씨에게
##00여
112
인정한
분명하다
광고를
캐릭터가
수상했다
손해를
프로젝트를
무지한
개념이
유투버
복용
분은
아작
여유가
케어
##금액
##관리를
생각하나
##하는거임
이것들아
위험을
강원랜드
어머니가
레스토랑
페널티
견디
대동
만찬
먹어도
몰두
무식이
빈번
석방
염려
이력
이색
일좀
재생
포스트
피를
##그대로
##메이크
##같지도
##양아치
시작하면
기업들은
우리나라를
반대를
괜찮아
밝혀졌다
감동적인
포기하고
안희정
무기를
외계
요인
저를
##개정
##세여
##침해
국민투표
운영할
살아갈
##환경을
연결하는
수의계약
모스크바
계정
될것
않으니
전신
지겹
지분을
##대왕
##나옴
##재인
##본부가
##라는걸
결과적으로
##위원회에서
고객의
이루어진
매니저
넘는다
동의를
며느
반지
신장
싸구려
일한
전가
질이
해쳐
##이구만
##조치를
##진단
##28
##할만한
##올린
##무서
지금보다
들어야
설치해
법카로
삶은소
어설프
가지는
결말이
경향
꾸며
남측
대치
빛나는
시선
연다
외치고
유머
피가
후쿠
##법도
##질하고
##또한
가능하게
##같은거
환경에서
증가할
노력하는
SNS에
기상청
국무위원장의
장례식
금강산
뉴질랜드
5명이
국정을
극심한
날을
대똥
맞벌이
민사
병원을
의문이
인과
주된
현명한
##정원
##구매
##아주고
##터는
##역은
##중에서
##였을
있는거지
아닌것
관계자가
쓰레기들이
##사업자
비판하는
잡아라
활동하는
사형시켜라
나가야
페이스북에
이내에
급격한
구역질
3회
94
달리는
베를
보이네
양평
여부에
책정
탄소
해온
##뉴얼
모르쇠
판단하고
받았던
지루함
포기한
축구대표
길이다
맘카페
머리는
부의
비전
살릴
이강
자들은
잠정
짜장
차리
측에
친척
토로
푸른
##일베
##투쟁
##없다는
##과세
##협약을
##TE
아이는
다양하게
##들어가
확대해
인재를
##축구연맹
be
건물을
구리
권익
새마을
선량한
외식
적립
##나봐
##달을
##점이다
##있지만
들어간다
그런다고
사랑합니다
누구에게
판단해
불법촬영
개최되는
위치해
기초연금
강경화
삼성바이오로직
중장기
이집트
imf
고지
꼬투리
낳은
내돈
덕분
수해
엉터리
용이
축적
##데스
##보라
##설치
##메이
##즈는
미국산
댓글조작
방송이
##정도는
##한거고
누구한테
중심에
모르겠네요
살해한
kr
기지
돌리고
돌리는
본토
부회장
생성
소아
속은
의전
정시
진핑
집주
한지
##에대한
##통과
##더스
##백화점
##TX
사람이라면
##보다가
경제도
##였다면
거짓으로
방문을
위원회
주식시장
##ood
뮤직비디오
도지
돕기
동계
뜨거
빨대
숫자가
압수
왕이
적을
지침
##붙어
##프라이
##렸지만
##근이
선동에
##나오고
비상대책
몰라요
적발됐다
깔끔하게
가이나
방산
법원의
수꼴
왔습니다
##기대
##발전을
##전에는
영화에서
앞으로의
스토커
인천공항
혁신을
협력해
수상한
어두운
공장을
김광
막강
불기소
양식
저승
좌지우지
##일랜드
##공천
##계약을
##석에서
##저것
행복을
저러니
450
따위
떠드
망하고
면상
물갈이
부럽
살이
소액
유익
##백이
있을때
4050
차지한
정신차리고
주어진다
부장판사
##리포니아
인플레이션
대회에서
순서
신제품
심상
이윤
이목을
체력
혈액
##인해
##은이
##렉스
영화관에서
이런기사
경기도청
경제협력
사용을
제공한
어린이들이
바라보고
절반이
김영삼
사립유치원
대목이다
휘발유
난방
내밀
따르는
부유
상인
순환
주저
##세력이
##해야된다
이용하고
세상의
개최된다
청와대에서
유럽의
대응이
석렬이
못하냐
인증을
일명
책은
##공학
##한텐
##지원을
##레나
##세와
##화해
##모르는
##타르
인간이다
그래요
안전하고
소리하네
중소기업이
줄어들고
꾸준한
스파이
스카이
cctv
너한테
단백
목적을
봉쇄
빠지는
않네요
월요일
장군
현기
##지기도
##투를
##수행
##목적
##21
##버릇
문제점을
2001년
학교는
전쟁은
분명한
사법농단
소통을
점검을
##새끼들
원칙을
이나라가
해운대
국영
도시가
돕고
미행
블라디
비로
수년
하자는
한도
항목
허허
##거로
##비행
##했겠지
##사자
##우와
##AR
대구시
하다보면
쪽팔리
그다지
B급
권위
대권
무난
사야
소홀
실수로
오글
적대
지워
특권
##지금
##오프
##했니
##주길
##제일
##평이
언론들이
의미로
제공해
작품이다
우려도
각각의
취약한
휴대전화
갔는데
강렬한
무작
불고
손쉽게
안했다고
오리지
장예찬
토크
포리즘
표명
한계를
##거같은데
##고등학교
##제도가
##있는게
피해자를
알고도
##기관과
##사건건
임명한
불가능하다
죄송합니다
3점
고액
군의
깊게
반가
식사를
안팔
흥분
##거에요
##유공자
##실의
##트라
##학규
##내자
##벤션
부산의
14만
과거사
걱정하는
일제강
350
3분의
TF
너랑
눈높
생리
주둔
줬다
추격
##동에서
##달이
##안다
##생태
##있네요
예상보다
고객들이
직장인
마이클
불로
전지
추세다
형님
##명령
##인정
##르며
##밀하게
##제공
##꾸라지
북한산
모두에게
##교육이
지정된
동아리
65세
71
각국
대면
만진
세대가
언플
잠이
제어
현명
##한것도
##그렇
##안타
##체류
##값도
##왔습니다
감독과
모은다
거리에
귀한
기레
대회는
명목으로
배를
성황
양이
장본
크루
##국적
##르면서
##재료
##세도
##화되는
##미세
##조차도
반해
술에
약자
저주
줘도
진전
현상을
##은희
##시원
##졌어요
##사다
안전사고
신경을
##인간은
평화와
##icle
##산화탄
고학력
눈가
비공
옳고
이원
척결
추첨
카니
##로써
##가치
##재정
##범위
한국전쟁
##기관인
방문할
시키면
흥미로운
89
격차가
방과
벌여
블로그
위성
자식을
지극
첫번째
축제가
혜경궁
##는대
##전용
##신분
대통령이라고
인간말
검찰개혁
환경오염
##지역은
공무원은
고려할
구매할
이놈의
극단적
노트북
GR
골라서
길에
노리는
로버트
무너지
문닫
소문이
손학규
심하다
전송
제압
프렌
항공사
##은데
##사장
##래가
##버릴
##물어
##믿고
##한다는게
전략이
극우유
만드는데
고마워
박물관
안하무
2점
AS
공고
꼬박
들었는데
본질을
사자
예보
이쁜
해쳐먹
##구녕
##해야만
친구들
제기되고
받았고
무역분쟁
손흥민이
난리를
날리고
남학생
노골
높지
대고
몇천
외화
표기
현장의
##명도
이어진다
올라온
운전자가
대법원장이
스위스
MC
거슬
관절
나돈
난무
드립
안죽
원본
정체가
죄지
추후
친한
타다
특강
##방망이
##그렇게
사람에
##이라는데
이번기
러시아에
한달에
허수아비
봤지만
빌어
사적인
살았
소폭
수단으로
알겠는데
잘사는
종일
지사의
한통
##져요
##라는데
##지노
##의사
##아를
##em
##밖에도
사랑과
대학의
선택이
평생을
반영한
반발이
심사위원
간담회를
기원합니다
5만원
깜방
낮고
달인
담합
대본
보았다
사사건건
시티
신나게
앞잡이
의심이
장비를
죄없는
##려구
하루도
국민들만
독일의
개혁을
일으키는
가이
돼요
뜨고
못생
묻어
뭉개
보이며
비춰
살인을
안하는게
줄줄
팔방
##자리가
##주제에
하는거다
활용하는
##되었다고
메시지
KTX
무소불
걸음
공단
다문화가
되자
삼청
상식을
송치
수산
싫어요
씌우
##으라는
##역의
##적이라고
##모르고
##각이
##IP
학생의
감사의
위해서라도
역사와
실질적으로
깜도
법원에
온실
위주의
##바보
##할꺼
##학기
##드림
사람죽
나오게
자신과
문화와
외교부장관
부분도
의무를
토론토
뉴스타파
1찍
과반
금수
김밥
대행
못알아
보니다
새누리
쇄신
신조
에혀
종결
지니
##이재명
##용은
##르네
200만원
보내면
##기관을
구성해
너희는
##결과를
##어린이
youtu
가나
느다
돌리
두는
박쥐
아스
역풍
일이나
증시가
폐교
하길
한가지
##구도
##상시
##코스
##에게서
정치인은
서울은
그런게
내용과
정상으로
##이었으면
영향력이
제기했다
물가상승
아닐까요
해수욕
걷는
대성
드릴
민감한
박그네
손님이
시의
열일
징벌
초중
커지는
##변이
##혹한
교육감
확대될
비용은
회담을
##사기꾼
어떡하나
슬프다
1순위
남한테
농담
변하지
빠르고
살다가
없었는데
장마
좋네
청장
탓이다
##하십니다
##해볼
##정하게
##지표
##했었는데
##주면서
##절로
##안하는
##묘한
국민연
프로그램이다
직원들의
상품이
장난하냐
##으로서의
추억을
스테이지
이메일
비타민
3인
DNA
FI
동서
뜻으로
주동
주가는
진중
##일간
##네는
##들로부터
##까고
##짓이
##셨나
##심과
##멋대로
##하기까지
필요없는
일본으로
국가적
수준은
올해의
중요하지만
이것저것
청와대에
이루는
부패한
네덜란드
구호
권장
묘사
바가지
빠뜨
없어야
영부
중이
##게는
##방어
##사서
##였으며
##직으로
##군사
##철이
진행해
마음껏
사과도
방식의
생겼네
비열한
낙하산
article
골고
물어야
살만
상하
웃을
이노
접할
조성을
##소유
##실패
##OC
대통령이라는
기사도
##레이터
의원과
선동하는
모른척
##훈련을
무대에서
사항을
고맙다
엄벌에
남기
되지만
묵묵
민속
시드니
양아
자중
줍니다
##일만
##부작
##BA
##적으로도
다른사람
이제부터
돌아가고
마음은
마음의
일제히
권한이
적반하장
촉법소년
결성
나팔
나노
법령
상하이
속에서도
우대
절약
클라스
희한
##해보고
##파이
##진출
##색으로
##생의
##숙이
들어와서
취업자
결론이
아나바다
혼란을
않을까요
참신한
베를린
개개
사임
산으로
상한
싫다고
하남
##예정
생각하냐
아침부터
기자회견에서
7천
고인물
대명
등재
만지
벌을
탄도
##일이다
##대면
##저나
한국당이
드라마의
소개하는
벌어졌다
모델로
아빠가
살다살다
민주평화당
편한
형식으로
형량이
##디가
##검사를
##LED
##영화제
##는지를
이용자가
의원님
내부에서
사람들만
빨갱이들이
동원해
잉글랜드
1주택
같다는
걸작
내몰
주니
포트
##란게
##류에
##기업에
##이냐고
발생하면
좌빨들은
지키지
가정의
캐릭터를
주둥아리
이렇다
일삼는
텔레그램
개차
놓여
누나
단행
더운
듣보
모텔
서류를
선관
자기는
##었네요
##보네요
##무니
##엔딩
서울을
정신못차
방송사
의미한다
##지않게
31개
방침을
연계해
##드리겠습니다
다주택자
4시간
NH
알기
여왕
지문
퍼져
페이지
##역할
##안하면
##버리면
선거를
재판이
시절에
대기업이
도와주는
좋겠어
부회장이
계엄령
5대
The
개거품
던진
등신
메가
수업이
쓰게
얘기는
입장에선
지주
크림
파급
##속한
##모터스
##ㅇㅇ
##딸이
##좋게
문재인을
설치하고
##어버리고
조건으로
미성년자
솔루션
3학년
ㅇㅈ
고독
군은
극한
눈깔
모셔
쓰기
아들을
온몸
취직
해를
히트
##소인
##권으로
##손으로
##혈관
정책과
하루라도
도입한
바람을
전략적
감옥에서
진상조사
그밥
그들에게
될것이다
때의
메일
민감
바래
벌고
법안이
안정을
웃음이
##나는데
##됐기
교육부가
사랑에
내려야
가격도
안되네
고민을
도착한
##구장창
눈에는
리메이크
우월
하버
홍수
히틀러
##전형
##과정을
##읍니다
##날을
하는거냐
사회생활
판매를
기관의
장기적으로
2학년
건전
귀에
기시다
나눈
샤워
성분
영수
욕심이
특이
##조심
##커녕
##팔아
##패거리
##놈도
##ul
##댄다
프로모
학생과
책임져야
제공된다
자녀를
할수있는
##👍👍👍👍
감이
불매
이밖에
일러
찍어서
챙피
초록
특사
##거에
##인양
##데다
##스턴
##사유
##적일
##디스
좋아하지
12시
알려지면서
해결될
올라가는
응원한다
소재를
애플리케이션
신흥국
정수기
불확실성이
마녀
못하
발탁
성명
전력이
차는
처한
추징
협조를
##거죠
##지는거
##르자
##케스트
##편으로
##써서
##코드
##많고
지금부터
그래놓고
이후에는
중요하지
투자한
소리지
##지역을
프로그램으로
의견도
##바이든
주최하는
버티고
부적절한
4번
계층
기를
야당은
역설
연인
염두에
일잘
재임
정청
쫓겨
했어야지
##시게
##장에는
##사례
##화장
##보는데
##입을
문제라고
진행되며
##주의를
이용이
국제사회
결정하는
잡아넣
희망하는
##상황이
핑계로
끔찍한
깔려
됐다는
시신
쓰냐
이글
중이던
파라
허접한
혈압
##고의
계속되는
있었어요
##자들에
비롯하여
업체에
감동도
생각해봐라
만드네
감안해
투명하게
전제
폭으로
하하
##이제
##병에
##수다
##곡을
##이야말로
대학을
응원하고
##연구원이
바뀌면
전달했다
선생님이
다가오는
무리한
알파
영암
이양
전월
정면
조건이
처형
태워
##이는데
##공유
##적이라는
##매체
20개
확인하는
##하니깐
실시했다
안철수가
주최한
언젠가는
김현미
교과서
공소
되겠냐
번에
속에는
싶고
싶어도
유시민
잊고
차원이
한것
확립
##시네요
##계로
##년의
##받기
##였구나
##티가
##즈니
모르는데
000만
푸틴은
자격증
곤란
군대가
대회를
등판
미혼
사기를
송도
유적
집유
##가냐
##가에서
##차도
##회에서는
##질않
##보전
##우며
##내에서
##잖냐
나오니
000억원
요청을
없었습니다
##통신은
mbc가
##토리얼
안락사
제임스
NC
늘면서
범위를
스킨
심히
않지
않겠다는
재학생
정년
즈그
프린
한양
##기정
##해지면
##네가
##대갈
##아이가
##려요
##렸으면
##박고
경기도농업
사회악
노동자가
기준에
이른다
소름돋
이런데도
부드러운
욱일기
TK
갑시다
결렬
농기
맞으면
붙은
뽑아야
양주
여파로
취미
판정을
평일
하죠
##업은
##두리
##액션
##페라
##쪽은
문재인정권
관계없이
정도를
##시켜야한다
거짓말이
주택을
직무유
에너지를
불친절
노회찬
김승
마켓
못하나
약물
위치를
자매
잘돌아
##들임
##그랬
##간다는
##ee
##짓만
재미없는
저지르고
##과학기술
압도적으로
편안하게
같지만
광교
매운
분란
삼국
상의
실체
여당은
원합니다
잡힌
죄값
주구장창
##시급
##전까지
##복이
##먼지
##이라곤
##이라고는
돌아오는
다음주
언제든지
미친거
가는구나
##환경이
선보일
일어나고
관광객들이
이승만
할줄아
진지하게
92
꼽았다
말입니다
말해라
맛집
소집
시선이
연세대
오타
온도
정교
튼튼
##해준다
##병은
##르트
##35
##보안
##된게
##길로
##격으로
그런건
조사할
운영되고
위험에
있음에도
##투자증권
일으키고
집어넣
탄력근로
8천
개소리를
글쓴
달한다
미미
민심이
애완
욕이
원흉
중입니다
하기도
##러서
##스도
##안하냐
##였으나
##변경
##이라면서
영화네요
##스럽네
참가자들이
높아지는
대출이
##쟁이들
교수의
국토부는
배경을
마찬가지다
전투기
내세운
공주
기껏
남자들이
뭘로
바랄
버려야
부리는
비비
설쳐
시체
야당의
찌질이
##분할
##병대
##안함
##작전
##하고싶
2017
누구의
조작감
##자리에서
현대자동차
사형을
국무총리
공유하는
개나소나
KO
격추
무제한
미화
사명
승리가
시야
열대
욕지
용납
컨테이너
헬기
##어울
##봐주
##취소
##함도
일본군
개선에
결정에
개돼지들은
없었다고
자격을
용산에
하자고
깨끗하게
##피언스리그
7만
SF
ㅂㅅ
가파
과대
달한
동향
문과
사악
재차
치워
코드
행보를
##도리
##유발
##교는
##텔레
##집권
##쓰기
들어올
떨어져야
개인적
40여
자료가
성황리에
개장
꼴을
끊어
대세
변태
사살
속아
차리고
추악한
판정
플랜
##되도
##52
##프리
##보내고
##영을
##초에
##제작
산업단지
사라져라
어쩌나
지도자가
수익이
실제로는
지상파
국공립
2달
되었는데
뒷전
못하다
발음
쉽다
아휴
이해도
장성
행정부가
##자라
##신저
##SA
나라빚
경우에
관련해서
##의원님
분석도
노동조합
당연하지
유치한
무역협
수입이
확정된
의도적으로
앞뒤가
전수조사
가관이다
전광훈
OST
내놔
못사는
볼만한
불에
시국에
인류의
직원을
처우
##두천
##왔고
계속되고
이용하여
없어질
영상은
지구상에서
일으킬
나누어
부끄러운줄
안민석
구원
동호
맞았다
목록
보기에
봤으면
불렀
상원
안했는데
한녀
헌재
회귀
##워드
##역과
##행사를
##문제로
##뜨고
알려주는
기술개발
정의가
건보료
##인터넷
국민청원
골고루
속출
손꼽
싱크
잘들
클린
##네트워크
##게이트
##치던
##피를
##차의
##없을
##보지도
##셨어요
##궁창
##짜증
##완전
아니겠지
최고로
100억
오늘의
일부는
나타냈다
주민의
예상하고
드러났
국개들
건축물
거점
결심
그전에
깨진
녀석
딸은
먹기
실습
영하
입다
출품
##분리
##바꿔
##당해
##돌아가
정치판
좋아합니다
바로잡
검사도
선정한
전라도는
한반도의
민족의
이득을
행정안전부
과다
당직
뭐래
바빠
선적
장수
주워
주접
지름
휴일
##일보는
##들인데
##동으로
##입은
##능력을
의원들은
생산하는
배신의
확산되고
형사처벌
있으므로
편안한
콘크리트
2심
6억
누워
달라는
봅시다
성취
승무원
없죠
자처
지위를
##인거야
##만드는
##포함
##스틱
##할것이다
##두를
##군다나
##청을
교육과정
더불어공산당
17개
소개하고
정신병자들
재앙이가
무너진
블록체
심판을
귀추가
별점
복사
비만
서대문
지구가
책이
표출
할일이
활약을
##생은
##제품을
##본데
어디다
기자간담
반영해
개정안이
##대학원
챙겨라
간단하게
##호텔에서
0으로
나다
노원
만일
명신
신상공
싸다
음란
인쇄
##건물
##7억
##놓으면
##짓고
##입이
##모드
좋아해요
국힘을
외교는
인정할
출신인
구조가
능력은
석열이는
모델이
촬영한
아름답고
보건복지부
이번기회에
건전한
과징
김창
들었습니다
어냐
워킹
주방
짤라라
한수
합창
흔적이
##지주
##히게
##찬다
##oT
정신들
생활이
대선에서
행동으로
알바들
공시가격
피눈물
구질
놈이다
비리를
장소를
접어
폭행을
할리우드
희귀
##비서관
##북송
##세트
##세대가
##사냐
##무장
##울루
##먹어
##∼7
##날레
이상하다
들어가고
시작된다
정도껏
전문가들의
신청한
대대적인
손바닥으로
St
김준
당당히
무분별
받아야지
빠졌다
사외
씨와
장시간
하필
##기엔
##해줘
##야함
##당대표
##진행
##티비
##브랜드
##열에
##팩트
전쟁에
여자도
넘어가는
법인카드
신분으로
3층
교민
그돈
대갈
몰수
박은
백두
성숙
안좋아
천멸
##자꾸
##계좌
##오던
##없습니다
##교사가
##사면
##후니
만들자
##시장과
마련할
서민들이
근거를
조심해야
세종시
해보세요
SNS를
편리하게
공청
단호
달했다
등이다
술먹고
조사는
총리의
##져야지
##이건
##고대
##ak
하는걸
생각나는
영화관
##하기에는
떨어져서
방송인
찾아가서
해결하는
##리지말고
있었다면
노력할
데려다
망가뜨
로맨틱
소시오패스
Mbc
개망신
구는
노태
동두천
될수
만주
많기
박람
배임
썩열이
죽어서
챙긴
카풀
##아아
##설계
##청의
##채가
##슨이
때문이라는
설명하고
내려가
전쟁의
증가로
개판으로
임대료
욕설을
##사항이
동아시아
공기청정
송파구
기웃
꾸려
말라는
문어
뻔하다
속이고
식구
영빈
이겼
자행
침투
##방궁
##중을
##블릿
너무도
아무렇
추진을
여름에
##대책을
대기오염
블랙리스트
소설을
극단적인
부총리는
막무가내
공감이
내어
알렸다
인문
조수
학업
힘없는
##하를
##거잖아
##공이
##말라
##찰을
##세스
##무새
##추는
한국에서는
기대되는
발생한다
5년이
공정위
불법체류
선정해
좋았습니다
플랫폼을
내세워
큰일이다
테슬라
심신미
국뽕
대도시
멘탈
물건이
민망
보살
보이나
인형
입문
정화
제7
초월
풍경
후임
##공제
##소연
##조끼
##프를
##코올
##첨단
민주당아
여자들은
자체적으로
재산이
제목이
측면이
이나라는
하지마세요
잔인한
입맛에
가정을
꿈이
다르고
무법
안다고
앞에서는
오신
오디션
욕만
이르기
조처
직업이
짓거리를
퍼뜨
품고
##리만
##호로
##될까
##푸드
##웠고
우리국민
##거리로
발표된
아파트를
구성되어
음식은
##그룹의
정상회담에서
군사적
A씨를
가져야
꿈도
동방
버려라
뽑고
시속
실외
저것
제조사
집도
할만한
##계속
##테스트
##행위가
##골이
##벨트
##깊은
우리집
보고싶다
30만
학생은
국무부
모르겠는데
전과4범이
명령을
금메달을
자이언
다수가
못합니다
사대
소매
싶다면
압류
유공자
일과
좌절
주의를
혁명
##르몬
##그로
##오가
##카드를
##봤어요
##맞아
##웠습니다
한국교
서울이
일본도
국가로
북한도
여러분이
상태에
높아졌다
이걸로
##해보세요
제외하면
분위기다
간철수
넘긴
대사가
대회가
마드리
부류
세포
##상인
##저축
##매수
##운다
생각해라
##정권을
장애를
확대되고
##회의에
##업체에
의무가
저녁에
그쳤다
김선
노인들이
분단
여지
여건이
작정
토끼
확인이
##공신
##개에
##퍼런스
##루가
##매국
##베이터
##쳤던
생각난다
서울로
100명
##적이며
인상에
달라질
무죄를
연루된
녹취록
게이트
경과
규정이
말하는거
모금
뭘해도
안그러
제천
줘서
질을
편견
한말
##경제를
##검증
##징계
##줬더니
##pp
자신감을
기록이
전체적인
강조하는
푸틴을
윤석렬은
흥미를
프리미어
남양주
폴더블
경연
계란
과제를
니도
못한다고
병맛
손실을
아놔
역사는
연이어
의약품
전성
##라면서
##비용이
##보려고
##활성
학생을
참가하는
행정처
모른다는
남아있는
좋았는데
콘텐츠가
장악하고
반려견
간주
군수
그들만의
더러워
떠날
모시고
백지
볼때마다
성인이
솔까
싶다고
열받
이산
죄는
쪽이
핀란드
##ia
##할수도
##DI
##해야하는데
국힘에서
계획이라고
5년을
혐의에
이벤트가
활발하게
꼴랑
네이
무리가
밑으로
백날
본선
신약
신기술
울나라
착취
친박
##자면
##리라고
##조사가
##PC
##작업을
미국이나
시간당
세금만
반대하고
50여
확보를
취임식
업계에서는
체결했다
평택항
CNN
권리가
끝으로
댓가를
더군다나
박종
부상으로
써도
의식을
이왕
일상이
진부
초미세
푸드
향상을
허가를
##것으로
##에스
##다이
##위생
##그리고
##둘이
##직원이
##돼지는
재밌어
##지원금
경남도
##ong
갈라치
LED
계승
너부터
넘었다
대안을
대만에
말종
멀다
법도
아을
울릉
위의
이창
이별
임의
전하는
집회를
총살
해봤는데
##대서
##여러
##족을
없는듯
확인되지
제품으로
소비자들의
지나친
그리도
사라지는
고려한
인천시
재미있어요
받았는데
등장했다
방안도
SW
고치
녹아
달달
배워라
사측
예견
장치
증말
##개들
##사상
##양의
##백만
돌아와
확대할
상승세를
##상태가
귀엽고
농림축산
될텐데
마비
메일을
방귀
보이냐
사격
소식에
수송
악수
여의
##등한
##드립
##박람회
국힘의
지난해보다
존재가
인권이
노인네들
아버지의
한미일
대가로
이외에도
내각제
붙잡혔다
동북아
IoT
눈먼
대부
똥인지
메이크
보상을
제자리
톡톡
폭넓
황제
##자문
##시행
##대신
##란걸
##술을
##수사를
##감이다
##sgg
문제냐
그런말
가족들과
연구가
사진과
대학원
후보자가
드러내
광주형
폐지해라
관객들이
도전과
쏟아져
고위직
3만원
가사
넘나
당은
땅이
명분이
못받
안봤
운명
청계
항문
해지
##라는거
##소프트
##마에
##노예
##등에
##GG
##심판
##∼30
필요는
필요도
경우에도
그만두
##교육청이
않았으면
사망자가
목표다
선고받았다
회원들이
개시
고리
국격이
반짝
사나
시전
의학
저감
하느라
환승
##회에는
##주는거
##버리지
박근혜가
한마디도
고령화
체계적인
586
안만나
2부
단절
못하겠다
물고기
벼슬
쓴소리
아수라
안드
얻기
청취
##는걸
##이닝
##수단
##보임
##우나
##있어야
189
결정한
신청이
대법원이
회담이
당사자
박수홍
점유율
유쾌한
그외
김한
끝을
다뤄
모험
손목
안겨
인신
장악한
주어진
##금리를
##대회에서
##면의
##사라
##더기
##같고
##골프
대통령한테
이제라도
일반인이
부분에서
내년에는
되었다고
감동적이
특징이
차별화된
아동학대
보인다고
지긋지긋하다
4000
81
약화
위임
이네
이권
튜토리얼
##속을
##봐야지
##불능
##선물
##였냐
##ur
##fe
대통령이나
국가부채
경제성
잘못하면
만들어준
국힘당은
사랑하고
대상에
판단한
신청할
업체의
2022
일어나지
어이없다
이럴때
고의로
KA
to
김장
날카
대안이
더럽다
덩어리
도를
바짝
성룡
애쓰
예선
유네
적자가
즐겁
팬들을
한유
##지기를
##신경
##교도
##적자
##밀리
##렸을때
##설에
##정도면
업무에
공부하는
그나저나
둘러싸고
어르신들
규정하고
현황을
원활한
아세안
3조
ㄴㄴ
걷고
단말
몇일
베테
선수를
수순
안하니
외로
원화
원한다
읽을
자사고
최장
##아파
##운동이
##작은
##하기엔
재미있습니다
지급하는
감소했다
약속했다
불과한
할머니가
고혈압
달래
백년
부재
부친
요인으로
웃는다
이만
임은
##거짓
##분해
##감동
##움은
없다며
언론들은
대상이다
부모님이
##이었어요
##문화재
벌어지고
검수완박으로
국회의장
박지현
엄격한
스프링
나발이고
지극히
미스
반갑
봐줄
쏠린다
요리를
인프
찾아야
최선의
코치
##째로
##GM
##페미
##캐피
미국과의
해결해
부산에서
16개
부족해서
자연스러운
공급을
계약이
견찰들
철수야
경고했다
가는거
거시
뒤로는
마쳤다
뭐임
밝히는
비전을
였다
웃겠다
재혼
지켰
지들도
차트
파기
##나나
##모의
##DC
##저럭
##찍어
사람입니다
한다며
시작도
개발하고
처벌해라
성공할
살인범
아쉬움이
메시지가
상당수
부적절
출동한
개고생
미워
봤음
설령
설치를
숨쉬
앞날이
##도둑
##해지면서
##악을
##정리
##의약품
##욕이
경기도의회
기업으로
있었기
있었으나
드러나는
2찍들이
그림이
작업에
기여한
공직선거
정황을
행태를
갖는다
마시는
뭐든지
빠지고
상대를
쓰면서
아바
일조
##시대의
##주들이
##완화
영화중
검찰출신
서비스는
지나도
얘기하는
인생은
전통적인
혹시나
유아교육
오리발
파렴치
기무사
최재형
특활비
LPG
기용
깔아
누락
뛰는
맞는지
산학
슬퍼
시그
실형을
의장이
이밖에도
조아
조기에
천주
쳐넣
출간
##했어야지
##직자
##문서
##맞게
윤석열정부
##인지를
공개하고
전국이
##다니며
대책은
의료보험
구매한
주식은
1월부터
군대도
만남을
아끼지
청문회
못배운
걸친
그곳에서
놀랐
리버
메신저
소금
수월
수만
않자
어플
우스
윤씨는
청사
해줘라
##남이
##팔고
##투자가
##전지
##어링
##뿐인
##우주
##SC
##하다면
수사하는
감사드립니다
##연구원은
중소벤처기업
개딸들이
##생각을
한류가
수원시
넘겨진
최적의
미사일을
##더라고요
천멸중공
유네스코
3분
UAE
kbs
개정을
거잖아
방구
부스
숨지고
스킬
승용
원룸
일원
촉발
헛발
##공약
##개고기
##억씩
##상환
중국인들
##해야죠
없어진
발표할
##지역으로
받았다는
약속한
왜냐면
김명신
기내
기둥
산재
생선
스태
안을
입는
접어들
제안을
화천
##자녀
##오네
##논리
##효율
아이들과
국짐당이
현지시각
스트리
활성화에
사무총
어지간히
공인중개
정청래
1위에
기기
기차
단위로
되잖아
만료
먹어라
시일
신세
에이스
재선
편지를
##도서
##오니
##실수
##광장
##솔로
가능하다고
투자자들이
안전관리
마련을
10년이
사례는
예전부터
심리적
훈훈한
8강
GTX
IB
각국의
경력이
끄는
내주
대정부
덜어
시궁창
암덩어리
인접
일기
재인이
주셔서
쳐도
현혹
협상에
##위권
##피는
##ec
##올리고
##모씨
##맛을
##하게도
하는것도
##이나마
댓글알바
외국에서
한심하고
적용되는
##업체의
행동에
수요를
효율적인
서울중앙지검
국민혈세
가성비
모양새다
농어촌
굿짐
놓인
떡검
음원
일입니다
잘먹고
##야할
##부품
##쪽이
##ER
기록하고
발전할
궁금합니다
한류의
시각이
효율적으로
떠오르는
태극기부대
그보다
농구
묻은
실명
임산
진급
초기에
축제를
침입
##은퇴
##대니
##배기
##몰라
정신승리
계속될
기사화
지지율도
##의원들
내부의
확대에
청년이
얼굴도
담배를
어우러진
익숙한
고용노동부
개차반
1박
권유
긴축
나치
내연
농사
누리고
단연
박상
방화
여사가
요약
자초
주의가
중이라고
출소
해달라고
회장을
##데요
##병원에서
##피해가
##속의
##졌어
중국인이
##시간은
소비자의
도시의
공급하는
대북제재
어떨까
##박물관
동굴
될거
밤새
부가
신형
이장
저쩌
전원이
쾌적한
한중
항만
##가인
##을거다
##지급
##마련
검찰도
지원하기
댓글로
실시할
알아보고
국무장관
엄마는
제2차
참고인
##기준을
콘서트를
공화당
건방
남다른
넘지
년간
더부러
물량이
볼턴
비틀
열람
웃는
임마
판로
협동조합
환자를
##자라고
##금없이
##리조
##정치를
##천이
##와이
##나가서
##희는
##저지
##버리네
##셀러
지원사업
해외에
노동자들이
기존에는
분양가
자막을
무리하게
한명도
##점검을
그곳에
극히
김주
납니다
담았다
문건을
보람
선풍
수족
숨졌다
외인
있구만
자리는
잡히
주를
증인
할것이다
##하므로
##해선
##수없는
##경의
##침에
##색의
##충들
##충전
##청에서
있는듯
생각해도
정권때
한번쯤
후보의
힘들지
베이비
정상이냐
먹는다
무개념
빛이
숨을
조립
커지면서
해변
##되니까
##생물
##희망
##럭저럭
##들이라
생각나
##주의에
제발좀
이건뭐
이거는
내부에
넘어선
비교가
1년이
음악과
단속을
디자인을
03
LNG
개떡
고졸
근접
꼴찌
남동
때에
백배
생기지
시점이
실전
안통
엔터테인먼트
죽이기
펼친
학위
휴식을
##무죄
##증과
##하고있네
언론들
설치한
기다리
공격수
합의했다
플레이를
인근에서
괴롭히
내달
뒷돈
막혀
보려고
불신
소수의
전산
제5
찢이
할꺼
##조치가
##대원
##대회가
##장려
##까지의
것이냐
수준인
있었지
받아도
##이었어
체험할
판사들
등장한
스마트폰을
##학년도
경호원
MOU
교착
그분
남겼다
되는거지
말하기
범계
소독
예멘
잠잠
##이유가
##다닐
##당원
##째를
##하겠나
전쟁으로
졸업생
공직자
출근길
비추천
고맙습니다
받아들일
까발
끝내고
나는데
늦어
라이트
있겠나
잊을
쪽바리
첨부터
##어와
##세탁
##주라
##안으로
##음으로
##ag
##같지
##빌딩
가능성에
보고서에
탄핵으로
조선의
시민들에게
누구든
현실에서
한마리
정치인들은
대변인이
세월이
분노가
남자를
도무지
많았던
상륙
안믿
여건
종자
할까요
했겠지
호구로
##기인
##거가
##치는거
##세기에
##착륙
##ID
국민한테
경찰대는
경제정책
함께한
이해관계
##하냐고
##기관으로
##시설에
특별감
##국가로
불안한
전세계에
늘어나면서
주도한
##ang
멤버들이
제1회
대가리에
찢재명이
촉구하는
하나님께서
강정
거라는
넣어라
눈치를
당에서
둔갑
론스타
문신
버스를
속지
우세
적힌
흔들어
##하단
##소통
##야당
##커가
##오면서
##경력
##행사가
영화였다
아이스
모습과
마련하고
주목할
예전에는
소득주도성장
노하우를
가냐
교차
때와
밥은
백퍼
사이다
잘만들
태도가
팬들에게
프라이
회식
##한줄
##한듯
##가수
##개편
##받아라
##키워
##됐으면
##왔지만
##규칙
부모와
##스럽습니다
효과적인
유럽은
좌빨들이
도로에서
말씀이
김영철
떨어지니
##하셨습니다
카니발
dl
군림
그자체
독보
무대가
빚어
숨어서
쓰는데
월북
응징
임금을
있기는
흡입
##국이다
##장구
##연령
##마시
##후가
##폭망
##랄까봐
경기도를
이재명도
경제적으로
그러므로
자신만의
지지율을
##했는데도
행사에서
음식물
신문은
진단했다
##아무개
LC
글구
다저
도태
때리
발걸
없이는
이땅
장소에서
##도아니고
##전화
##보좌
##종교
한국은행
진행을
자신은
마약은
위해서다
젊은이들
선수의
홍보를
##해보자
고생이
동일하게
가상화폐
깨닫게
GM
공안
배씨
본능
스미
안했으면
양자
왕창
장점을
치를
치졸
케이크
편의를
포지
했잖아
##피가
##태평양
##위원장을
기대했다
돌아왔다
기술로
##가가치
포함되어
확대하는
7월부터
돌아가신
국민의힘은
반발하고
6명
과정은
광양
독거
말로는
무궁
브레이
세웠다
외제
위대
의구
저것도
통제가
트라우
헤드
##인구가
##구질
##락이
##했어도
##쟁이가
##빌리티
아니더라도
지난해부터
기억안
판단에
청와대의
고객에게
대응할
##그룹은
우크라이나가
이명박근혜
아까움
완성차
김진태
종사자
사우디아라
각하
갔다가
걷기
광장
답은
도래
못믿
몽둥
시너
정동
정례
##나노
##마당
##준거
##안한다
##저널
##잡은
##힘들
이런것
수사로
투자하는
결국엔
참석할
그리워
그랬다
맞춰서
직권남용
간병
거창
벤치
이냐
일인데
자기를
전진
제국
취업을
카리스
한우
활력을
##일수도
##해달라
##구조가
##에너지
##환율
##삼아
##꼬리
##많아
##IST
이유에
##대가리가
시민사회
##센터와
##라이트
고객을
전세계에서
일주일에
강압수사
베테랑
강의를
그럭저럭
낙후
미처
방안에
부르고
아방궁
자란
접경
줄도
지점
팬이
하더만
현수
##금리가
##맙시다
좋아해서
투자유치
개발해
부모도
평가하는
여자친구
소비가
##회의가
업체는
그랬냐
가라앉
어른이
들어서는
##프레임
숨겨진
상용화
한유총
co
각성
감방에
경협
고금리
교정
교실
꼬집
남조선
맞아야
받는데
비율은
사안이
속여
엉성
채팅
행위는
호날
##치냐
##마리가
##터로
##편향
##크의
##윤리
##윤석열
##IT
하고도
사실도
최고경영자
이해하는
책임도
기술은
주변을
위험하다
중요한게
가해자가
윤정부가
형수한테
검새들
오지네
한나라당
비아냥
공장이
녹지
돼지고
돼지로
많았
상관이
안주
이씨
직거래
콩밥
##것같은데
##트럭
##저도
##저래
##됐네
##문과
##림은
같은거
사용하면
있었어
떨어지지
운영해
마약에
마련된다
한동훈장관
이뤄져야
충분하다
벌어질
만족도가
인식하고
접근성이
방식은
화면이
인간말종
4강
6명이
sh
남산
번의
속의
이철
짱꼴
풀려
##기사는
##민과
##대요
##나쁜
##당초
있는거다
정치병
있었네
여성들의
넘어가면
어렵습니다
윤무능
어리석
해명했다
후쿠시마
8점
가릭
것들아
계파
그랜드
돈과
되네
멀어
발상
벽에
비방
뽑을
시연
쌍둥이
조재
##45
##대변
##바가
##2000
##심도
##린데
##티스
##셀로나
분석하고
공정위는
##게임이
인생에
확보할
용산으로
1998년
억울하게
종북좌파
디자인이
이산가족
ㄱㄱ
개망
궁극
단편
들었
로켓
모호
사귀
상정
소가
인정을
제네
존엄
챙길
흉내
##하우
##대상이
##부진
##뿐이
##표현
##직도
##박질
이름만
과거를
재미있음
없었다는
조선족들
이사장은
모자랄
##할까봐
애플이
진실은
과도하게
사립유치
금융당국이
도이치모터스
개원
똥은
몰카
사양
안일
어대
차등
취지의
토해
플로
##는것도
##장군
##때매
##같아서
생각된다
미국인
언론도
외교가
5년만에
청와대로
분야를
아프다
비핵화와
윤무식이
아시안컵
연말까지
압도적인
박형준
묵묵히
고물가
공조
대미
마우스
말았
송환
양국의
역쉬
오가는
저능
절단
한옥
##자금을
##리야
##민들
##대며
##니를
##따위로
##제조
##현대
##티아
##봉을
시작부터
보여줬다
구속된
조금은
나와라
##을때는
보험금
의심되는
접근이
원칙에
생겨서
개같이
김관
낙선
머스크
사도
성분이
소망
수법
우짜
원장이
점수가
종자들
체계를
평점을
폐지가
포상
피난
항암
헬조선
##프는
##판은
##먹으면
국가기강
탄핵의
##하는데도
보내서
소리나
예산안
##으면서도
구축을
남성의
아쉬움
업계는
##비용을
동원해서
식당에서
김씨의
나이를
내서
때리는
못했다는
본적이
부려
살려고
시위가
시너지
싶었다
안하네
자해
중년
화끈
황당한
##겠느냐
##나보다
##케이스
##활동이
##초를
##현장에서
##책으로
##반에
##IS
##튜버
때문이
아이스크
책임져라
기술의
산업혁
지나고
그녀를
공식적인
비난을
이슈로
질병관리
원작을
##때문이다
법조계
실리콘
흥미진진
공권
말이나
망겜
여기도
파운드
##삼성
##따리
##런지
##ab
##반의
##끄러
##뭐냐
##최악
##하는건지
들어오면
대표적이다
관계에
전문의
스타디움
중앙정부
택시를
좋았어요
##노동자
임대차
남녀노
시끄러
창피하다
불리하면
편가르기
다큐멘터리
2편
가발
두들
목욕
무슬
버전
보컬
보훈
볼거리
부역
성차별
세수
아재
전개가
조경
진흥
최은
하잖아
##하셔서
##시하고
##바랍니다
##꾼들
##실장은
##운드를
##친화
공개해
##이었다고
요구에
남자친구
인터넷에
##스러울
몰입도
##건설이
안들면
동남아시아
이은해
삼청교육
농림축산식품
고창
곤두
그해
뿐입니다
살린
예민
충무
호가
##국가가
##한건데
##할땐
##집으로
##청과
##농구
##농가
시작하고
아니라서
나오는거
좋은거
이어지면서
##영화의
부족하고
안정화
위반한
통신사
제조업체
사항이
목적은
극대화
겁니까
광신도
그곳
김순
끼치는
남미
녹조
당하지
뭐해
부인이
브루
산후
수장이
수년간
숙명
안가고
중인데
협회
##지지도
##수리
##어드
##절차
##중요
필요함
국가정보
이준석과
선택하는
응원하는
국정감
있어서다
부탁합니다
무지성
서울중앙지법
심신미약
공표
공장에서
관악
내쫓
대납
리조
만기
문명
방통
부럽다
장소로
지뢰
털어서
특이한
한덕
휴전
##걸린
##있어도
##충이
모두의
기대됩니다
참여하여
발표하는
분석됐다
전망도
##다니면서
다니며
보유세
정리하고
동맹국
상당수가
목소리도
비중은
꼼꼼히
어우러져
경기는
그라
따름
때로는
민관
삶과
이듬
징그
할거면
협의가
##지키
##병원이
##애를
##꼬라
##크는
##꺼리
있을텐데
참석하는
선동하고
선거제도
14개
건강이
효과적으로
##산업단지
강화할
지시한
저렴하게
인명피해
B씨가
K리그
개한
교류가
극좌
때린
떠났
만이다
면이
성명을
안뽑
안드로
우기고
윤을
종특
창고
처리를
##하듯이
##립시다
##대깨
##말든
##오르고
##세이
##est
##불안
##중소기업
##판사
##쇼를
10배
많은지
어려운데
학생부
외교적
대학에서
부모들이
코로나는
안되는거
효과는
대책도
1997년
힘내라
외치던
고시원
죄명아
건진법사
김무성
신상공개
당해도
버렸
법원에서
상을
쓸어
없앤
윤희
주춤
쫓아내
척추
추운
클리
평화가
해준다
해보자
##나라는
##엇다
한국만
##에게만
##이나하고
경찰들은
10만명
말했다고
이러다가
##이었지
판단할
거짓말에
결정적인
##하시네
확보해
하기엔
그룹이
기반의
하버드
이르기까지
7점
가치는
균형을
내라
노리고
되풀이
디젤
못해도
뿌린
여자의
용진
원격
일상을
주식이
중이며
화상
##소녀
##총선
##여라
##여대
##레저
##프닝
##줄게
##중지
##담보
##루는
##웠는데
##짱깨
우리와
집중할
서민을
중요한건
위협하는
안나온다
수백억
은혜를
2분기
거들
겪었다
날인
노인이
눈도
다각
동거
두개
쓰이는
우째
지내고
직결
차이는
치른
투명한
##분과
##방식이
##파탄
##당도
##배출
##론하고
##웠지만
##증후
사실로
지방의
드러낸
사회적경제
연출이
좋았던
그지같은
단단히
임진왜
지나가던
그당시
급한
기자들과
쉬워
에도
우동
일해서
중진
중구가
후예
##에이
##들처럼
##위치
##동포
##당해서
##먹지
##쾌한
준비해
환경단체
위원장을
구조조
확보하고
제시하는
팩트는
위협을
증권사
무고한
Ch
KIA
가정이
담임
생색
안해서
얼음
자궁
잘하네
주장은
짧게
차질이
표정이
##말대로
##통신이
##GB
##물질이
사람이라고
사실과
##보고서
##이었다는
나왔다고
당연하다
목표가
체험을
##수있게
사퇴하고
누군가는
무너지는
활발히
중산층
끝은
나니
받는게
재학
종신
주특
중형
##하늘
##것과
##것입니다
##해져서
##의무
##범으로
##반응
##특위
##덩어
##이라는걸
적용할
시스템은
인터넷을
상식적인
제도적
불러서
명확하게
소각장
으이구
찌그러져
이듬해
가네
남들이
몇개월
생중
소지가
안한다고
않으며
애들을
옳다
욕하면
이랬
정차
지각
티저
##해제
##장들이
##러블
##오래
##무원이
##김에
##청장은
##um
미국한테
##하여야
기사만
알고나
노동자의
우려된다
강화해
개돼지들아
##나오게
위치에
전달하는
말아먹은
ㅎㄷㄷ
교묘
끝난다
마블
막가
매뉴얼
변함
비율을
앱을
잇달아
재원
조화를
팽팽
##48
##해임
##오른
##수만
필요한데
필요없고
게임도
지역별
국내에서는
방송은
발표가
부모를
주장에
적용된
##나오네
공간에서
바른말
모양의
##상황에
재명이가
자발적
경기침체
오리지널
극치
민원이
보물
본다면
열을
예매
통학
히로
힘은
##소개
##가정
##바꿈
##바란다
##ie
##부턴
##졌음
##학회
있는건지
나타난다
청년들
대단해
##산업을
##정책과
자식들이
좋았을
전환을
인물이다
소송에서
개소리야
아까워
그래픽이
단독주택
경찰청장
518
##콘서트
안하무인
경각
공제
구인
그토록
끝이다
놈들아
드문
딱딱
만이
모니다
방패
연체
온전히
이견이
입주민
저자
할수가
해서는
환급
##분열
##님들이
##부서
##안고
##우려
##같은소리
예정돼
당대표는
자살을
비싸다
가르치는
당원들이
태풍이
부끄럽지
구질구질
3주
꼴깝
끝장
더구나
독일이
동물을
때에는
먹먹
문자를
버블
빚은
뿌듯
사유가
서정
성동이
원으로
유난
줄은
직업을
최전
포즈를
했었는데
##할게요
##사회를
##빠는
##미친
##움에
게임으로
진행되었다
중요하다는
##의원은
검사들은
13개
##프로는
그룹의
연예계
제목의
조심해라
개념을
고마운
부문에서
우영우는
유력한
무게를
유니폼
##소시엄
악랄한
가증
낳아
방에
볼모로
부자가
세비
싶냐
옮긴
유혹
작가는
줄기
질러
태블릿
팩트를
##인디
##미와
##저우
##감치
##브라
지난5년
정권바뀌
좋아하네
##자들만
그만두고
스스로를
##문제는
토론을
펼쳐질
지식재산
원자재
##임대주택
전동보드
국민연금이
금연
내버려
노친
대의
때만
망나니
먹방
부위원장
사직
위상을
일찌
전기를
전대통령
주는데
중남
지날
펜션
##구니가
##바퀴
##동향
##왔다고
##증상
##빈이
아무데
기대도
40분
성장하는
성장하고
누군가가
양산에
##효과를
##공간을
보일러
최강욱
앞장서서
양도세
사각지
계단
까닭
달이
만의
말았다
미분양
부리고
스승
안에서는
영국이
자국의
잘하지
잘라라
정정
최측근
##이거
##도하고
##1000
##산에서
##관도
##부자
##주신
##상가
##햇다
##키가
##엔날레
한국산
해야합니다
시민들은
개선될
공공의
신경도
독립을
mbc는
해양수산
반박했다
압도적
외환보유
패러다
me
공예
내로
다하는
똥이
방류
볼때
살리고
숨기고
예로
입구
주었다
쪽에
태권
한자
할매
휴양
##께서는
##리에서
##27
##셨습니다
하고있네
시간낭비
탄핵에
정상은
누구인지
아파트는
궁금해서
확보가
바꾸면
촬영을
1999년
미안하다
##하지않고
이외에
지겨워
다이어트
가둬
고고
그짝
놔두
돼지가
못했다고
배고
보았습니다
삼척
소진
역으로
윤모지
의식이
잘한다고
정전
조화
지장이
차이로
초범
추출
칼럼
##기위해
##시에서
##치나
##카메라
##23
##절이
##종으로
##출동
##번호를
##는거랑
언론인
운영이
외교장관
친구는
지방세
판매량이
니들끼리
구성원
존재한다
업체를
빠져서
인구의
일어났다
배경이
취급하는
홍준표가
2022년까지
일회용
화제다
4배
기밀
꼭두
나가지
낸시
동성
맞나요
멋지
보류
불통
성수
시한
식상
쏘아
완성도
우연
우물
원료
잘할
즐기기
채우고
친문
팔당
한민족
한눈에
후려
##거같다
##일인
##해보면
##공정
##했거나
##회장이
##미도
##청소
##∼9
중국어
해야하는
자유대한민국
운영된다
보여줬
만나게
주장한다
올라간다
괜찮다고
인천국제공항
자격도
사회적기업
소통이
마이너
무사히
추잡한
한걸레
TS
가출
간장
것임을
보이면
알겠네
에라
오스트
이겜
일년
좀처럼
좋빠가
증오
참패
타인의
털어도
##구육
##오게
##봤냐
##셔츠
##DA
100여명이
외국인들이
지적을
공격하는
##범죄자
신경안
가슴을
카메라를
장르의
겨냥한
평론가
건다
경질
골수
될것을
됩니까
맡기
불의
빵빵
사소한
삼고
에이즈
오기
우방
적법
지을
진전이
치사
터지는
##자빠
##연료
##할배
##심사를
생각하는데
정치의
##는게임
정상인
드라마에
불법을
무식하면
합의에
구청장은
긴장감이
압박을
정기적으로
부추기는
경사노
is
거둬
당국의
덮으려고
데에
되네요
만점
밀착
받던
빌라
살인은
역을
운이
이식
인물을
지냈
짐을
취할
크레
형을
##구마
##가보네
##에다가
##발전에
##봤지만
##주머니
##련의
##보낸
##티를
지원한
방문이
방문했다
50만
출신으로
실시해
월급은
500만
출시한
확산을
축하합니다
자극적인
퇴직금
정체성을
그릇이
가면서
아사
이서
적시
제휴
죽지
쳐들어
합성
##일러
##가야지
##만족
##병원에
##아픈
##불로
##플러
##직업
##왕이
##창이
미국처럼
정치적인
##겠다며
당신같은
관련자
이어갈
이어갔다
삼성물
찾아와
##센터의
반대한다
과거에는
분야는
뭔가요
반복되는
겨울에
지배구조
##피언십
구성이
김제
내편
맞죠
밑바닥
별개로
어업
없거나
인하여
전력을
채취
통영
##지거나
##노스
##실적
##없는거
##내용을
##초가
##제약
##맞춰
##홍보
##같아요
##증에
##물도
##be
##EA
세계로
나오는게
관심없다
자유와
시장에서는
선거가
기록해
##지않다
##경찰서에
제기돼
스토리와
보험사
통과한
느끼지
강제북송
개혁이
상관없는
남편은
화재로
느그들
이영화를
도덕적
비서실장
후안무치
8만
YG
각기
강구
구름
김거니
단정
대두
뜨겁게
맛과
물적
보신
악영
저절로
찍었다
테니
프락치
해줘
홍영
##기사를
##월급
##결혼
##억에
##북한
##집단이
##사실을
##창조
##혐오
있는지를
나라망신
나오나
언론플레이
사용되는
##스트가
만나지
과거와
추천한
다니냐
비슷하게
없었지만
부끄러워
뉴욕타임
아쉽네요
분노를
절차에
김용태
플레이가
거네
그네
남자의
러닝
명신이
서예
쓰네
아카데미
연평균
오찬
질투
##이름
##소서
##대냐
##답이다
##놓을
##불복
##감염
##돈은
경제학
관련해서는
상황에서도
특히나
쓰레기영화
지나지
스타스
추천한다
지켜보는
000만원
건설사
선생이
##진흥원이
남탓만
상징하는
시내버스
화물차
경제부총리
걱정을
내리면
도자
망설
무얼
성추
심도
연초
윤지오
이라도
자폭
키즈
포도
협력이
##못함
##과를
##디스크
##배신
##극을
필요하고
위원장과
어렵지만
유치하고
예산은
논란은
##국민들
같은데요
움직임을
폐지하라
대통령실에
발의한
구속영장
안심하고
구구
던지는
덮고
돈받고
될거다
만났다
보던
붙잡고
자손
잘만든
정언유착
통계를
##치자
##iew
##스케
##재와
##브로
##한거임
삼성의
대단하네
대깨들은
솔직하게
전자파
이슈를
태어나서
영업이익이
유관기관
1개월
구명
길은
대회의
싫지만
와인
저급한
정하고
조국이
쳐박
햇빛
했기
##도까지
##식당
##포기
##할수가
##테러
##처음
##감소
##브를
##찮은
상황과
방송되는
외국에
발언에
용산구
파악됐다
거부하고
바꿔서
관객들의
존경합니다
홈페이지를
인프라를
공이
꼴갑
낮아서
때려라
불태
어렸을때
얼리
용감
자수
증상을
차분
피하기
횡포
##민호
##치않
##마누
##강의
##MA
그런걸
범죄자들이
찾아온
부족으로
제주도는
머리카
지구의
도와줄
좋았고
한반도에
마누라가
##싶은데
적발된
수천억
받아들이지
호의호식
저작권
9점
고층
권역
기구
다물
대회에
맛볼
바둑
버림
쓰세요
이연
일하기
적다
차관이
초토
통역
환자는
##서버
##량에
##회사의
##보트
##선다
##셨는데
##필드
있는거야
중국이나
필요해요
2015
사업비
이준석도
사랑은
산업을
않았어요
오후에
인권은
검토할
내놓는
당사자가
밝히지
메이저리그
이완용
알박기
공권력
교원
굴복
금전
늘릴
백제
생김
안간
여당의
욕한거
자르
장소가
크라
파장이
회장과
##산과
##되겠네
##적이라
아니었
당신들은
당시의
마련돼
생활에
청와대와
먹고사는
가정용
짜증나는
비상사태
몇번을
5점
8개월
갱상도
냉동
노망
당원이
망상
백인
비해서
세우는
수직
안가는
윤가가
찬반
퍼주고
##기보다
##에나
##높은
##들이는
필요하지
2016
이용객
##스트리트
2000년대
알려지지
업무가
도시를
경험한
건물은
소재가
정답이다
둘이서
어떡하냐
방탄소년단의
리스크가
찍소리도
보청기
불투명
탄력근로제
공지
국빈
넣는
대개
상금
서귀
속을
수목
용도
이효
장미
##가봐
##사망
##안돼
##습을
##∼10
문제인데
지역에서는
피해자들이
##대표는
대부분을
공무원의
최저시급
조성하는
논의할
도로가
도로를
3월부터
진출한
어이없네
미안해
가세연
900
st
강하다
개수작
국유
도어
말인데
보는거
산소
선수는
순찰
승소
쌍용
역행
유유
유성
이핵관
자멸
토큰
하겠지만
##대선
##지부
##만봐도
##분으로
##여고
##무섭
##티드
##TF
생각과
사회적으로
##거리지
중요하게
보여줘야
##라이크
참가자
##정치인
##활동에
변호사비
하나님을
걸려도
오바마
으이그
가릴
경희
기자의
놈의
늙어서
동구
발이
버렸다
벗겨
불허
신종
악순환
유래
인삼
정해져
출하
폭력을
##법안
##량으로
##200
##미르
##측은
##평가를
##에서나
##시키려고
안전성
##되었다는
혁신성장
매출을
근본적으로
떠올랐다
분식회계
1의
91
걸린다
결핵
단점이
동창
머냐
상처가
성우
아따
알지도
요란
증설
팔면
편리한
품위
하차
하기로
##요원
##하셔야
##거릴
##원장
##들지
##졌는지
##2천
##합을
##청사에서
##귀가
##ㅂㄷ
##들이냐
지난번
떨어짐
스토리에
##위원회와
##지지자
시행하는
##하려다
예방을
주문했다
주관한
늙은이
모집한다
레이싱
배제할
4인
OLED
sk
각계
걸까
박해
세게
수없이
시계
신천
않니
약탈
인보
재가
주권
천조
초콜
##치니
##방과
##면은
##권에서
##호에
##꼬박
##타로
##99
##빨고
지역과
시작을
있었음
경기지사
어떤지
현실과
기억도
##해주지
결혼한
##할수있
이하도
##계획이
무너지고
채널을
민주화운동
패키지
권은희
꼴값
넘으면
됐습니다
못했지만
북에
선조
아레나
여신
이솔로
일대에서
있더라
지식을
진단을
쳐맞
취지
터지고
해처먹
호평을
##명에게
##겨울
##대들
##ro
##어머니
##사냥
##웃음
##척이
세계경제
조사결과
프로필
개최하는
경험과
분위기는
윤핵관들이
300여
없었다면
윤대통령은
통화스와
말한마디
벗어나지
가지가지한다
콜라보
프리미어리그
3가지
3∼4
같았다
고질
구치
급감
두배
몸으로
부수
싶음
영역을
온국민이
인문학
젠장
직원의
친근
트랙
폭스
하아
##산으로
##공단이
##지법
##방학
##고사
##오늘
##환은
##셨나요
국가인권
학교의
판단이다
영향력
##문화의
직원들은
종합적으로
이기주의
케이티
추억의
이따위로
무작정
이솔로몬
2루
거품이
김은
낙인
노령
뇌에
마무
맡는다
면죄
몰린
일정한
정재
제도는
주면서
줘야지
짐이
치자
흉기
##1일
##소니
##천국
##바른
##였는지
##라고는
이재명만
2014
다른게
이게임을
200만
보내지
전망을
비교를
핵심이다
사기꾼들
물어보
비상식
무너져
살펴보고
구할
막히
못했습니다
부부는
비굴
뿌리를
상기
소명
십자가
자정
주시기
찍힌
초상
행위에
##여당
##교실
##주주
##표준
##저감
##응답
##즈와
##혜원
##해야됨
모습도
국힘도
확인을
구속시켜라
아파트에
효과도
##해보험
브랜드를
거부권
그래픽도
쌍욕을
레이더
흉악범
꼭두각
국감
급급
도대
뒤에도
먹이
버리지
빼박
쇼를
스들
실물
안전에
엔지니
인제
해대는
##한마디
##남기
##실장이
##돌려
##제발
##PA
장관들
사라진다
나서지
기간제
역사적으로
느낌이다
특징을
전세계적으로
제재가
관객이
점검하고
축제의
검찰총장이
실종된
보좌관
th
넘버
놈도
막론하고
매너
반으로
비켜
속상
얼어
주입
플러스
황의
힘써
##오리
##터미널
##주며
##힘을
하는것이
이런말
##이었네
##스럽지
국방부가
##생각이
마라탕
짱깨들
##했음에도
개꿀잼
각광
기승을
눈앞에
등극
랜드
변수가
아시는
원금
의해서
임무
임기가
잘하세요
주작
크기가
팔이
##해본
##품질
##파업
##부패
##진료
##테이션
##든데
##머리가
다른거
12년
##라이언
올라가고
이름도
스스로가
역사적인
안되는게
신경써
##려야한다
개정안은
아버지는
환율은
진정으로
든든한
SC
많냐
먹었
모터
볼수록
양국이
우한
유세
유물
입었다
작고
적으로
전하고
증정
증대
탁현
터무니
파크
호출
##하구만
##명씩
##가치가
##다보면
##개딸
##관리에
##간부
##림의
아니었나
사회는
지원과
문재인도
사람이면
남북한
분야가
바보냐
고민하고
커피를
방탄소년단이
끔찍하다
행안부장관
일찌감치
서귀포
권영
그늘
다친
대강
되기도
만하다
사칭
영업을
일이라고
있겠습니다
적었다
집사
클러스터
통하는
##에미
##방식을
##오줌
##진구
##모닝
##폰을
##낮은
##컨설팅
이런것도
수사나
좌파의
중요합니다
추진된다
##아니야
다니지
높아지면서
근로자가
장난질
무섭고
다수당
비겁한
김부선
수험생
듣보잡
강용
교역
기만
누르고
다할
대작
도리
마산
말부터
사탕
실려
영리
우정
조형
주거지
지체
치아
한자리에
##업계가
##만나
##나갔
##스틴
##테니까
##내면서
##제거
##처에
영화보고
이재명이가
다양하고
오늘부터
##기관에서
##시설의
존재하지
##업체를
중간중간
차례로
눈치보
죽여도
5천만
아기자기
표적방역
안방극
8억
가석
넘길
넣어서
님이
더했다
던지고
돌연
맞대
문맥
본연의
분해
사학
사막
싸움을
에로
열쇠
우겨
재검토
총장이
키움
타워
평이
폭풍
피자
피부에
해상에서
헐뜯
혼인
##겨운
##오브
##노무
##아깝
##받으며
##체크
##싶네
##묻은
지지한
게임인데
##기에만
##영화다
공정하고
문재앙의
추가적인
보호하는
제작된
##체육관에서
끝나지
외치며
지저분
박민영
극장판
말처럼
무의미
배워야
백화
삼각
손놓고
이씨는
키가
통째로
팀은
팔자
해소를
##지검
##개돼지
##연락
##어떻
##중대
##친구가
##격차
있는거냐
국민건강
사회로
##기업인
누가보면
의원들의
연구소
방역을
담당자
500여
정신차리
설립된
목숨걸고
대다수의
부르짖
언젠데
기온은
##버렸네
시중은행
5시간
감성을
꾸미
나흘
대국
독창
민중
부검
살리기
승점
영장을
오세요
웃김
유재
의왕
임금이
천하의
##없네요
##됐는지
##항이
##하는건데
금융위는
주장도
##정책의
##소득이
##하시네요
사례로
혁신성
수익률
연예인이
안철수는
실내마스크
그리스도
징벌적
교황
니미
말했습니다
맡게
명에
무차별
선점
실형
안감
여친
이인간
절로
질문이
참을
판검사
한거지
##것이지
##이잖아
##명이나
##겠노
##속도
##플라
##운송
##평점
그렇게도
200여명이
참석한다
해결이
사과해라
부동산은
도시로
개판이네
주인공의
관측도
임시정부
죽음의
괜찮은데
레이저
줄여야
하야해라
컨텐츠가
##폐기물
05
1억원
DJ
길러
꿈과
난청
노년
당했다고
디즈니
매립
미소
박아
비어
심의를
원주
의장은
자백
잔디
장교
장자연
죄질이
진즉
짓이다
취지다
화염
##마스터
##역시
##회관에서
##퍼가
##미팅
##망에
##문에서
##ly
##찾아
대통령이다
당시에는
소리냐
참석하고
작품으로
국회의원들이
신고한
집값을
은행에
민주주의가
이곳을
펼쳐졌다
체계적으로
마땅하다
이게임은
가봐라
가구가
감자
개신
거짖
뒤질
마신
못해요
바리
박차를
싶지만
안난다
열흘
영동
오케스트
주문을
한명이
혈안
##업종
##서열
##리려고
##품으로
##오냐
##으냐
##죽이고
##엔터테인먼트
##귀를
##는거는
다시금
경기장
언제고
해결해야
기록할
경쟁률을
지속되고
한다는게
선정돼
반성은
안타깝습니다
수비수
구제역
##터테인먼
구사
대하는
명박
본보
부부의
사지마세요
상상도
성향이
인맥
중등
채소
탈모
한동
한순간
##이해
##도없이
##버튼
##양호
이상해
좋아해
계획에
##하는거고
설치가
움직일
없다는게
매출액
의심스럽다
##아닌가요
다행입니다
만드냐
공공기관이
특혜를
민심은
니콜
멀었다
밥도
비영
상급
성찰
쌓은
아들의
왕복
이과
일가
자세로
장거리
주전
지내는
축제는
컨소시엄
탓을
한탕
한시간
형벌
##명하게
##시안
##마의
##쓰레
##십쇼
##드러
##입국
##균이
아니랄까봐
시간만
관련하여
##들과는
책임지
대학은
없애는
치료제
언급하며
불이익을
객관적으로
즐거움을
치명적인
dlc
사우디아라비아
공정이
논리면
능가
답없다
라스
묻지마
범개
시시
신원
안에는
역동
오페라
와도
용돈
재생에너지
지위
통일을
폭격
한없이
##가보다
##두구육
##주셔서
##내외
##군으로
##버스터
##ㄱㄱ
##하는것은
영화임
##더니만
내려라
##지역이
인상으로
혁신적인
가져올
기념해
선보이고
지시했다
자산을
다녀온
찍어준
1조원
도민들이
2기
ㅂㄷ
과기정
관건
동탄
못하는게
무비
물놀
병합
빌보드
알수가
와라
용기를
우루
유린
의사는
젠더
짧고
출현
호러
호화
후기
##요소
##공모
##말아
##포트
##마케팅
##수나
##려다가
##침이
##찬성
##담배
##난을
##6개월
##근성
생각이다
너무하네
보고를
경우를
##정권에
부족하다는
대체복무
참가할
공부좀
자식은
아름답게
대신해
뻔뻔하고
기반이
간단히
구속영장이
김명수
엘리베이터
막걸리
한글패치
과기정통
가리고
교류를
넓혀
도에
동생이
마실
벌거
보지도
뽑았다
안보는
옮기는
잃었다
자생
저해
전전
직속
총장은
통증이
혈세를
##기계
##구간
##떨고
##는거네
정치질
##나라를
배우자
주민등록
안되네요
드러내는
권력은
##하시오
기다릴
늘어났
자살한
사퇴하라
관객을
명예를
##자치단체
하수인
벗어난
3기
In
거면
결단
김윤
깜이
높아서
머지
머가리
목이
못지
비무장
뽑으면
선착
성질
앞을
연기에
오더
종업
최정
출자
피같은
##시나요
##병원은
##카가
##회원
##있다가
##길은
##글이
##규가
##쪽팔
있을듯
자기의
않은가
##경찰이
##사회에
밝혀진
바뀌니
월급을
시즌을
비상상황
고위공
e스포츠
건수가
결집
두목
뒤인
물었다
부임
수제
암것도
압승
원동
일사
전방
지성
흔들고
##기냐
##악질
##진으로
##없지만
##했죠
##DS
아이구
이러니까
말이죠
현대중공업
조직적으로
목표는
브랜드가
가스관
##ore
왔다갔다
완료되면
접수된
##자동차가
덮어씌
아메리카
막내딸
##산화탄소
짱꼴라
경부
구한
구두
그돈으로
다리를
따까리
똥싼
매몰
미소를
산은
산지
원로
졸속
주부
증액
징수
철판
카이
탈바꿈
학계
##하군
##이노
##국도
##고와
##포지
##ip
##오는데
##적용
##린게
하는건데
지금이나
하고있다
시작될
##기업들이
기대에
설치돼
관리하고
적용한
신고했다
조직의
나올까
정신병원
소통하는
##아닌데
포기하지
정리해
추억이
우영우가
조언했다
정계은퇴
멍멍이
최저임금이
초콜릿
3분기
골빈
국책
끼어
낙찰
마시길
말아야지
변희
서장
선순환
쓰던
쓰는게
안부
억대
여력이
왜들
윈도우
인텔
탈세
펼친다
핵폭탄
##이기에
##단절
##오나
##26
##세서
##까는
##넘들은
##루를
30프로
장관도
투자에
##을까봐
선거운동
기억하고
출신들이
강조하고
집단으로
성장한
논란의
유승민은
수행할
긴장감을
틀니들
자치단체
대대적으로
정경심
더불어민주당이
ch
겁박
그자리에
도려
모가지
바란
배워서
불분
생명이
세습
않거나
역량이
열기가
오전에
이동이
자재
중점을
처리가
총력을
추하다
충격이
##분립
##치매
##유를
##무대에서
한국형
지지할
들어왔
검찰에서
15분
여러모로
감사드린다
머리로
뉴스는
지구에서
쪽팔리게
누군가의
개검들
무한돌봄
공평하게
로그인
고구려
노르
당정
못쓰
민형
범위가
빠지
설치고
숙련
양해
윤뚱
일들을
전념
종식
창단
체제를
한줄
핵전쟁
활짝
후폭
##자살
##대상은
##차이나
##차적으로
##여행을
##어놓고
##적폐
##욕에
##탄이
영화인데
정치견찰
들어가지
그러던
시간대
국힘과
설명할
한번이라도
지방에
올라간
결정적
유럽에서
않았다면
2024년
방향이
더듬이
기레기들이
제목으로
##상공회의
등록된
창출을
아쉽지만
나름대로
세무조사
임진왜란
곤충
내시
대조
드러운
뛰고
로딩
만만한
못들어
문장
병원이
봐요
뿐인데
살인이
속히
스폰
왔어요
지칭
추행
축복
탐방
퇴보
편지
하느
해줬
했으며
했어도
휘말
##것보다
##자너
##공원에서
##연장
##터널
##수석이
##보러
##검사가
한국노총
국힘당이
지난해에는
지도부가
늘어났다
밝혀야
비난하는
수행하는
이루어질
만드는게
금액은
##경기에서
시끄럽
충격적인
초대형
찌질한
먹여살
바르셀로나
강서구
2만원
4조
6000
강호
고딩
교회를
두뇌
링크
백종
아웅
여운
운전을
웨이
작금의
준표
출세
파열
패드
헛소리를
##거도
##국힘
##전담
##진않
##실망
##돌고
##증명
##철을
##근데
##는데요
지지하지
전문성
탄핵당
이해불가
투자할
당시에
과학적으로
서비스에
관리할
##한데다
마지막까지
상승한
아버지를
여기저기서
호흡을
##ame
625
저정도면
5살
고공
내렸
더해져
따지고
막힌
몸매
못이
반입
사극
상봉
서브
서슴
쌓인
아미
##서치
##국짐
##대네
##지루
##년은
##의학
##진보
##37
##베르
##손손
때문이었다
수사의
댓글은
재밌었다
##적이지만
증가에
##이상은
도시계획
자연스레
표현하는
운전기사
보기에는
이라크
정당화
조치로
올랐는데
아깝지
웃긴게
어처구니가
2단계
3명의
값이
것만으로도
나열
누진
다투
동감
소나무
자화
저들은
주역
차원
철밥
파월
표정으로
호위
##거주
##고로
##묵고
##터에
##량과
##운운
##설정
##창호
생각하며
기대하는
있었으며
전문적인
투자해
조작을
지방은
##던데요
우려되는
가지게
데이터가
아쉬움을
왜이러
죽여야
##ity
일방적인
스티커
임종석
맞물려
강수
군대를
기적
깔고
꼬봉
되는거야
떠났다
별반
불체
상설
새우
쓰는거
씨앗
안건
안착
영주
외노
월등
이거지
자원을
조류
지우
책상
추앙
행보
회전
##등으로
##협회는
##론은
##기업과
쓰레기다
사이로
않았기
바이든도
시스템에
들어가야
비싸서
경찰국을
##본부장
나쁘다
정은경
담겨있다
##신문은
신한금융
쓰러져
추경호
눈가리고
온실가스
0점
나게
말던
멈추고
뿌리고
안이
알지만
알코올
오거
왕세
이남
재조
지친
총체적
##기에서
##만으로는
##끼들
2013
기본도
작품에
전체에
사라졌다
적용하는
관광지
상승으로
고려대
논의했다
사법리스크
연결된
자주국
그림은
액션도
토론회
이정도로
관람객이
확진자가
이나라를
객관적인
트위터에
장점이다
인지도가
일제강점기
7명이
날마다
낫다고
때를
맞는다
몰빵
몰리는
분배
사연
서산
시부
시대는
안중
않기로
원에
이빨
인연이
채로
평년
헛짓거리
##이군
##이준석
##업계의
##자야
##가니
##유도
##받았
##갈때
##보디아
##활을
##석희
##족들
한국식
문제점이
이상하지
들어설
범죄자는
학생들과
연구원
무능의
올라와
개최하고
적극적
지켜봐야
바보들
여행객
무역전쟁이
미안하지만
##떨어지는
ICO
아이디어가
화성시
열등감
쓸모없는
각별한
관상
굥정부
구도
귀농
김두
꽃이
뒷북
만져
보이기
안받고
옳다고
작아
저급
전대
지진이
터치
해먹고
##4개
##조달
##못하면
##지출
##등은
##질서
##더미
##싶어서
##념이
##꺼라
윤석열이는
검찰수사
수준도
건강하고
우려했다
안보이냐
공간에
4월부터
선발된
유튜브에
진정성
기아차
구하기
되새
되지도
마리가
밀접한
얘기도
워너
월스트리트
주실
증진
컴백
특기
표방
플라
##부인과
##랜드는
##물며
사람이나
민주적
서울고
없어지고
해결하고
전망하고
정의는
자체도
하락한
없었을
사기꾼이
5월부터
마라톤
민주주의의
존경하는
문정부때
기름값
CP
날은
넓고
맛있게
맡길
머무
무기로
문통이
별루
불거지
상류
쓰잘
앉은
에고
에코
오게
저것들이
전적으로
정하는
짜장면
하든지
##식도
##설비
##숭이
##듯하다
정도에
##해주길
지속가능한
고민하는
들어가라
개판이다
이루어져
너네는
나무를
이리저리
체결한
구멍이
퍼포먼스
사이코패스
꼴도
넣으면
농약
두면
붙어서
시신이
알겠냐
야비한
요소를
이토록
작자가
재범
저들이
전승
짜집
초선
치부
크리에
편을
표면
할거다
##금에
##분도
##신문이
##권익
##어쩌
##호흡
##플을
##박사
##코미디
##넣어
경제와
사회와
##기업은
##시키려는
노동시간
트럼프가
참가했다
대만의
결혼은
지켜볼
##업체들이
그때도
##방송이
안정적
##igh
홍영표
1만원
4회
강타
강탈
골때
논리를
딸의
몰상식
못했고
분들도
붙었다
비혼
산악
성실히
시도가
실체를
알레
우아
의병
입대
잡혔
주정
짱께
카타르
탄력을
핵개발
##공에
##노래
##제대로
##팀과
탄핵하자
##시키려
공개된다
산업에
해결책
제공하기
재판에서
도입이
능력있는
조성된
평생교육
교수와
바라며
##수수료
해임안
채용비리
내놓을
도민의
법정에서
외환위기
일시적으로
가중처벌
연동형
야생동물
한시적
막강한
인프라가
5번
공기가
과열
나을듯
달리고
대령
도울
변해
양두구육
에릭
연관이
왜그러
용어
윤항
장단
쪽에서
통장
한개
합산
##요청
##거려
##해줘라
##년전
##신가
##카를
##ON
##영과
##담이
##래프트
##출신이
##팀에
##65
##잇는
아니기
문제점
##겠다는데
나오자
모든것이
결과물
잘못이지
조사도
어디가서
검사의
인정했다
올라왔다
##기술이
선정했다
많아지고
윤대통령님
학부모들이
기가찬다
콘서트가
급격하게
9급부터
tvN
안녕하세요
70년대
RE
공신
극중
긴밀한
바르게
불황
식중독
알리기
요금을
이기고
자세를
전역
점프
총선을
터지면
헐값에
흔드는
##니들
##부림
##있구나
##멘트
생각한다면
자유는
프로야구
하루를
청와대를
유럽이
바뀌었다
파악할
가입자
하늘에서
AI가
검증된
만남이
네트워크를
##사령부
천벌을
어마어마한
우상호
된장인지
세련된
꼬박꼬박
천주교
거센
공헌
공사는
과감한
대머리
떠나고
면적
반기
살아야지
세번
없을까
잃어버
점거
창문
##하거라
##인드
##단지가
##총회
##했나요
##프란
##상대로
##OA
##논문
##강이
##끼가
##블로
한국어로
이런영화
정치판에서
시작이다
100프로
탄핵해야
확인하기
##부분이
광주시는
기다려라
받았지만
처리할
개정안을
가정에서
전해진다
모르겠어요
쏟아졌다
바다로
예고했다
작용할
발사체
쯧쯧쯧
##하지마세요
한숨만
다물고
마셔
믿습니다
번씩
뿐이지
성격을
어필
열정을
원전을
전까지는
찍었
평가는
할래
##세권
##절차를
##패가
##코로나
##증가
하는건가
경제위기
##시켜야지
공무원을
주변에는
생산이
개최되었다
살인미
평생학습
펼쳐지는
##시스템이
생겼는데
합법화
행정부의
마침내
NA
낮추고
뜨겁다
보시길
비단
빠지게
숨지게
승승
쌍방
아네
이인
진리
최첨단
하에
할수록
##공매도
##어려
##상실
##광장에서
##알지
##th
##창을
##많네
2012
금융투자
살아가
##스럽네요
상승했다
보호하기
바보야
구조적
난리네
이사장이
출시된
프레임을
##스러움
블랙핑
돈벌이
##일뿐이다
경상북도
무게가
부진한
##최고의
추종하는
어떨지
앞당겨
한통속
무슬림
7개월
고3
고유의
김형
농작
몽땅
미군이
버거
사인
사촌
사는거
실증
알릴
얘들
에버
의도를
주옥
줄인
팬들과
필름
한순
행사의
##라니까
##해체
##발사
##지들
##차원에서
##권분립
##5개
##매치
##씨에
그러게요
언론탓
좋아하는데
다음과
배우의
개발하는
외국인들
소비자에게
나가겠다
의료기기
음식에
##생각은
예술의
장난하나
진출이
하여금
특징은
경북도
뉴욕에서
단계적으로
고마해라
홈페이지에
손흥민은
2명을
개돼지가
공약을
구워
금리는
난독
둘은
또라
몬스터
못느
미지수
밝힐
변질
보충
사지마
수치가
신안
실장은
안되어
착륙
참관
홍근
흉기로
##자네
##로에서
##대나
##말의
##ki
##의힘
##연봉
##노조가
##여건
##준다는
##맞추
##MS
##머리를
문제고
그러다가
지난해에
시장경제
사과할
부산에
바이든이라
안되니까
##회의는
재판부가
시행하고
근로자의
배경에
헌법에
주문한
골프장
인하대
패거리들
신중하게
EX
가보
걸어서
고충
때다
많구나
말해서
못참
문체
보답
산사태
신작
실상은
우편
울려
으휴
일인가
제왕
치즈
한껏
할려면
향하는
##관리가
##커스
##연하게
##드나
##풀어
##석아
##현상
대통령이라니
중국가서
잘못했다고
국제적인
24프로
##업체인
시키지
영상으로
수입차
예술가
보이네요
문재인이가
##ㅡㅡㅡ
##가족이
무엇보다도
1980년대
태어났
입으로만
작작해라
기대해본다
수신료
최후의
감리
리재명
망언
비치
샀다
상상을
악법
오마이
주체가
흘려
##1개
##인거다
##해짐
##지옥
##나불
##싸인
##디다
##직은
##욱이
##TN
##갱이
때문이지
이번주
자신도
관심은
넘어섰다
의혹으로
개최를
업무협약을
이야기다
##만큼이나
##되었으면
대중의
물어봐라
양아치들
제목을
오르지
주둥이로
후원금
윤재앙이
어르신들이
김태흠
특성화
2세
가려고
내장
농락
더운데
러샤
뭐만
법정에
봐주고
빼먹
사다
수산물
시신을
쌍용차
옆집
철새
파주시
한것도
함정
##하든지
##1억
##4억
##방사
##합창
##내려고
##복구
##심리
##망정
##곡이
영화라
사건도
사랑스러운
##민주화
전문가들
선수들은
선수들을
상승을
##범죄가
대법원은
바뀌지
내일은
똑똑히
생태계를
서버가
벗어날
포르투
원산지
80년
DS
거칠
것일
경신
공갈
나음
데서
두바이
싸움이
우익
위중
접한
죽었
차릴
팔을
퍼부
##라인이
##소릴
##못한다
##지원이
##그린
##술이
##마토
##여사
##2일
##29
##6000
##론에
##싶으면
##특구
사업자가
돌아간
탄핵하고
가족들은
예상치
##시설과
어쩌다가
투표로
변호인
구매를
사법처리
그나물에
인구는
사태에
모자이크
SK하이
보낸다
저기서
지껄이는
부당하게
선한영향
호기심을
캠페인을
갈아치
구하는
그루
낸다
되려
듯이
땅에서
마피아
막지
부러워
상권
성균
성소수
어머
외쳐
웃으며
이정부
인위
인허가
일정에
헤쳐
##비드
##수용
##사주
##VD
서울지방
아무생각
##시키며
개발자
연구에
조작감이
살인죄
하락이
표현의
국정감사
올려놓고
검수완박은
등장해
##노동조합
성남FC
안맞는
조언을
적절히
돌입했다
은근히
징글징글하다
프렌차이즈
2분
다산
동래
방출
실거래가
알겠지
어드
은평
일품
제치고
주디
탐사
태영
허나
헐리
협상의
##명에서
##라를
##가격이
##의견
##화도
##던게
##광이
##행복
경찰국이
모르겠습니다
어디에도
러시아월드컵
시장으로
내려진
거짓말은
선택의
집중하고
60세
수입을
없을듯
회의가
1995년
##발전소
주관으로
부작용을
한진그룹
과실
낫겠다
뇌피
드나
뜻대로
머니
봤냐
봤나
시레이션
얼만
여부는
오징
완장
이자는
이리도
지민
파업을
푸는
피터
##리엄
##지경
##치는게
##오픈
##십자
##셨네요
##퇴출
##제국
##끄럽
##밖으로
##털이
것이기
##기업으로
만들어내는
자유로
시장과
투자자들의
드라마로
추천하는
신경써라
##반도체
500억
인물로
이놈아
산불이
객관적
면세점
특별감찰
악영향을
갖은
공정을
나갔다
남짓
납세
도정
똥오줌
로컬
물품을
사우스
새만
순회
쓰라고
여동생
오렌
입지를
있길
지수가
직원은
출토
카지노
타격이
토종
투자는
##원자
##수렴
##할거면
##죽을
##난거
##키니
##승인
##누구
##쳤고
##홀딩
정치판에
##되는건
30일까지
##시키는게
15억
추진에
계획은
25개
설치하는
안되요
지도부
개딸들은
제시하고
찬성하는
게시판
삶은소대가리
ES
건네
그후
근래
너처럼
돈버는
들리는데
따지는
매장을
먼가
바글
법규
보라고
북구
생방송
실수가
안경
윤가는
인플루
준스톤
트래
폭우
##하리
##투성이
##사단
##보는게
##난이
##희의
##매일
##뱅이
필요하면
국가전
정신줄
이준석이가
해야하는데
개발과
소리야
정보기술
형태를
도민들의
유동성
티켓을
어색한
소득주도성
김병준
미드필
결사
급변
기을
다가가
똥파리
말하며
벌벌
사범
손실이
싶었는데
아첨
파출
##말아먹
##포스
##마드
##주시길
##종목
##행동을
##미국
##맹이
##양성
##블리
기사들
우리나라만
나온게
5년내내
##되지않
주민들에게
시행된
차량의
대응에
다르냐
선보이며
저지르는
간첩이
생각해보면
1994년
선언했다
##시험을
백악관에
다운로드
TSMC
비영리
거제
광장에서
끊고
남성은
내면서
먹었다
배추
서쪽
소원
언어를
위함
잇몸
전속
전에도
제때
택시가
퇴사
페르
홈쇼핑
##기면서
##1도
##시스코
##지수가
##개판
##바위
##할까요
##학위
##주려고
##행위에
##쳤다고
아니가
설명해
방문하여
사기친
국제적으로
조금이나마
생산을
하락했다
구매하는
감염병
초청해
맞추는
상환기간
##신청을
무소속
2030년
같던데
노선을
도요
동문
말려
모자를
무당이
미끼
생명의
세울
순조
순위가
승리의
오미
유방
음반
이통
자질이
저쪽
조잡
죄값을
하겠나
합당한
혼합
##요구
##자이
##수영
##ob
##훈의
##손실
재미없고
개인투자
주민과
현대차가
확보에
방역은
액션이
울산시장
개의치
사로잡았다
바람직하다
마크롱
김남국
신재생에너지
새누리당
스트리밍
초토화
2로
갱신
검정
골드
남대문
박힌
범인이
산출
쓰여
오름
유영
절도
조양호
진료를
징집
총재
키웠
허세
확대가
##는디
##기게
##만이라도
##총을
##애는
##HO
##날에
10명이
이재명한테
일본처럼
해야하나
##사람만
노력해
자연의
신청하면
가져온
##수준의
##바이러스
31일까지
제한이
전면에
어울려
선물로
팔아먹고
양측이
뛰어넘는
넷플릭스
re
교주
꼬우면
누르면
다리가
단원
들러
모닝
배수
알선
알아요
애은
어버
우체
인사는
일깨
쥐도
지들만
짓만
처박
출구
카메
토나온다
트레일
효능
##1호
##10년
##조사는
##아녀
##77
##중학교
##겼는데
##있었는데
##타당
##때처럼
##한다니
저런것들이
운영되는
가족에게
만든거
대부분이다
특별법
대선에
도로에
##수준으로
국토부가
정신차릴
자율적으로
전자상
기가차
교사들이
성동아
개연성
FPS
가던
군인이
김도
돌릴
되겠지
둘중
말하는데
매장에서
모질
못봐주
믿기
빠르
시의원
안속
잃을
잃지
재편
재확인
제도로
조져
##인대
##리니까
##대다
##대우
##치우고
##러시아
##베스트
##ap
##찾기
정말이지
경제위
##나라에
떨어졌
이해는
마련이
마련하는
서비스로
발전소
우려하는
바다를
##and
폭행한
내놓았다
버티는
하도급
잇따르고
##부르크
주유소
광산
꽃을
누르
답게
많네요
산다고
시기는
않기를
원치
일벌
입체
있더라도
장재
조연
충주
티셔츠
표정을
하느냐
##자라는
##해산
##조성
##나야
##말만
##터진
##점인
##교섭
##주간
##밀어
##모리
##겟냐
##순방
##밑에
##뽑아
생각안
문제입니다
좋은일
저런건
전문성을
##교육과
##한거는
마련에
구속하라
먼저다
빠져나가
확정됐다
성남시장
위협이
저소득층이
##금지법
슈퍼주니
사항은
떠오르고
광복절
착수했다
그립다
남녀노소
8살
낙관
단합
들게
무거
산에
없겠지
운반
을지로
지인이
태평
팬미팅
핵이
##일과
##대중
##다오
##장에서는
##임은
##임에
##봤음
##플랜
##글을
아니란
시작은
다시봐도
의미는
##있다면
기본으로
##정책은
결혼도
안보인다
발견했다
늘어난다
개판이
모지리가
다르다는
고통이
한미연합
##ard
##좋아하는
이영화는
대사관
부끄럽지도
무언가
미드필더
3연
4분
겪을
군에
날린
됐을
래퍼
많았는데
망작
무방
박병
병사
사안을
삼전
시카
연중
윤종
이한
잘가라
잡으려고
주자
콜비아
팀장
풍성한
해법을
회생
##업의
##결에
##단말
##비만
##년생
##포장
##줄이야
##놨는데
##매출
##탈출
##양은
##싫은
이유에서다
알고보니
강화에
하락세를
불편이
없었음
반성도
판사들이
화이팅입니다
어이구
대통령실에서
##만명에
평양에서
##만들어서
선언한
수수료를
충남도
감당할
비로소
se
각인
굥과
그레이
나들이
논문을
도피
발레
분포
빠지면
약쟁이
엄중한
열정이
유은혜
육성을
이더
준다는
천하
풍성
하물며
해보면
##공학과
##마일
##었죠
##불에
##퍼런
##현과
##층에서
##각서
##캠퍼스
##항만
##컨대
##하는건가
한국경제
얼마를
공개돼
내려온
조작한
주민들을
힘들어서
처리하는
엄마의
삼성전자의
아쉬워
수도권에
따뜻하게
논리적으로
들어서면
혼란이
나아갈
두번다시
정치권에서
깔끔한
김연아
아랍에미
산업통상자원부
고기를
구름이
날리는
대포
레저
미꾸라지
보리
빚이
술이
신화
여튼
영예
잃게
절제
정형
정류
총동원
침대
패권
피싱
한놈
##비율이
##바에
##바나
##연습
##안되고
##중단
##체스터
##모는
##출혈
##잖니
사람이냐
노력한
있지요
무시한
기능성
다르다고
니네들
늙은이들
웃기지도
자치구
국토교통부가
관여한
잘돌아간다
2위를
ost
노사가
동정
못찾
뭐하노
밖의
반격
변형
빠짐
성을
싹쓸
아기가
양키
열풍
올리기
잘하는게
짜르고
총리와
피지
해달라
##수원
##환을
##2개
##RI
##프의
##영어
##혀라
학교폭력
##진다면
소리로
마련해야
반대합니다
요구할
사형집행
대비한
궁금한
##사회에서
경영권
대통령실이
1990년대
단계에서
어릴적
수치다
사로잡는다
무정부상태
1주일
할줄아는게
##여러분
ㅂㄷㅂㄷ
오거돈
김천
당하면
데에는
돈내고
비서관
스코
신나는
아토
영변
오은
유공
응용
주소를
증선
초에
피서
##서니
##시기를
##말까지
##수선
##등의
##500
##햇는데
##갔고
##봉투
##촉진
경찰조직
자신감이
정권과
30억
여러분들
말이되나
공산화
청년들의
수출을
노조의
중앙일보
##인으로서
아프고
삼성전자와
거부하는
자빠져
가치도
생명과
##것같아요
어지럽
뇌물수수
이메일을
더블어
세입자
뒷담화
공직선거법
4명의
경감
데일리
드래곤
디아
떡이
목요일
무대로
본사가
신비
주제가
줄거리
지정한
평산
##개선을
##걸음
##터에서
##체제를
아닌게
사실이라면
범죄의
##자들아
의원도
증가해
기자양반
건강과
힘들다고
출신들
얘기하고
도시락
기다려야
##업체는
##되었을
요청이
논의하는
대신에
건물에
기초생활
비싸고
소유한
몰랐던
기울어진
물리적
싸지른
저축은행
입다물고
08
RPG
TBS
강풍
구성을
넣어야
느린
다변
바램
박주
복음
붙이는
쇼케이스
신변
애잔
역임
응모
잡았
전보다
진천
타락
폐지를
##데가
##데리고
##가는거
##만세
##비상
##면접
##니의
##얼마나
##밥을
##강을
##류는
##se
##농도
##훈은
##이라는거
생각없는
북한과의
##으니깐
##하네ㅋㅋ
기사님
기사라고
탄핵만이
보여서
금융기관
절대적으로
어느새
어린애
개최됐다
##하시기
##하시나요
능력과
동물보호
거주하고
미쳤네
##업계는
가석방
8000
개사과
거둘
남과
달게
더위
말던가
발동
부메
사납
섬세
시집
역차별
자괴
젊고
제법
죄책
죽창
찢은
체리
친미
해프닝
형량을
##지켜
##지니까
##개미
##그림
##동기
##어가는
##갈수록
##OT
##중립
##맞춤
##한다는데
생각했던
중국과의
일본한테
무슨말
범죄로
만든게
자리로
빨갱이가
사례도
소방서
상식은
거리로
의무적으로
배경에는
애초부터
개입한
연계한
아름다움을
유익한
톡톡히
2연
VIP
가습
강세를
것이라며
결탁
깨어나
끼친
넣을
단기간에
두지
망했다
메리
법칙
실체가
암걸
엄정
업계가
우수사
재건
정이
조치는
지인들
진열
폐암
프레스
##4명
##인배
##조폭
##량도
##진다는
##코가
##m의
##졸업
기사좀
거짓을
이러면서
한심해
요구하며
##겠냐고
의사들
공감합니다
300만
답답하고
토론이
대통령실은
스테이크
##대사관
기후변화
아나운서
or
감금
나네
대역
맘이
바에
봤네요
순위를
승부를
없음을
조정이
짝짝
폭증
하우스
학기
항복
##남부
##민당
##게이
##천만
##차와
##오르는
##목숨
##보라고
##적임
##플랫폼
##각한
##웠어요
##움도
##귀에
영화와
정부나
수사할
경기지역
정상의
시민을
부동산을
전문가를
얼굴은
업무상
분야별
투표율이
되었을
인권침해
소득을
시설물
500만원
정신차리지
##하였으나
제목만
건희가
단독으로
운운하는
행태가
기어들어
스트레스가
수구꼴통
포르노
김여정
무책임한
과감하게
영등포구
굥의
구민
높인
말그대로
먹어서
먹으면서
명성을
모가
문구가
바래요
반값
상점
소리에
싫음
쓸어버
알짜
에구
주술
질서
충당
콜옵
택지
특성에
현상은
##정도가
##와야
##회사로
##갈라
##과목
##드네
##렸어
##꺼냐
국민들과
아니니까
205
이용하면
프로세
언제는
기술적
일반국민
주장하며
기준은
지나간
장애인을
자살당
사법고시
마을을
기념촬영
물가도
4년간
재명이는
##ㅉㅉㅉ
1부
걸었다
경악
고칠
곳곳
김웅
끝낼
나대는
나간다
들의
붙을
사안에
살았던
석고대
수단이
싶었던
쌍팔
써먹
약점
일었다
제6
직장을
커지자
한끼
##통으로
##스피
##목적으로
##교의
##절대
##드신
##박을
##협력을
한국인의
##이라더니
##라는건
인간이네
##기는게
않는가
나왔네
보호하고
플레이어
독재정권
구축하고
좋았음
제출했다
어울리지
출범한
##선수권
뮤지션
부지런
독립운동가
스타디움에서
두들겨
5회
ㅅㄱ
나만의
넘기고
농산
막판에
말지
명단에
묻자
병이
빨아먹
살살
생략
서두
신성
신산업
쏘고
악재
원하고
잘해야
한거냐
핵관
##기며
##기억
##기온이
##다르
##안된
사이즈
준비해야
감사원이
작품의
해도해도
서로가
대체할
발견돼
의사들이
9월부터
조선족이
일어나서
추정하고
홈런을
득표율
최저임금을
두꺼운
임은정
승승장구
WS
간혹
과자
규정에
그이상
남았
놈들이다
당과
등돌
딱봐도
망조
메타
박혀
보냐
불명
상파
신평
쏘는
안해주면
원리
입상
적자를
존나게
집주인
창업을
해먹을
허브
현저히
회원이
##조장
##대회에
##다는데
##마블
##였기
##입원
##미네
##감시
##협동조합
##작으로
##번을
만들었는데
경제활동
지원은
상황인데
##주의로
##보고도
5년은
결정된
##정책으로
##업체와
확보했다
푸틴의
베트남에서
수익성
제외하고는
자녀의
이끌었다
대화의
저러는
기회로
똑똑하고
흐름에
오프닝
주기적으로
교훈을
잠수함
3달
결재
넘고
동물이
됐지
드네요
떠벌
똥만
맡기고
면책
무신
미디
민중의
반전이
북극
사채
수뇌
쉬쉬
예언
오는데
올린다
자세가
재수사
진한
짖는
창설
축제로
컨벤션
하시면
호수
##시기에
##시대를
##다행
##할뿐
##사정
##무대
##왜곡
##왔다는
##칭을
한국관광
이런일
##는거니
##한테만
시작했고
범죄혐의
다음에는
제품과
선거제
생산성
비판하고
홍보수석
제한하는
선보여
1996년
새끼가
간신히
의문이다
자아냈다
낮추는
위안화
7명
가급
같잖은
개빡
과속
끄덕
덜떨어진
됐네
디테일
모처럼
방조
선에서
솔릭
습득
신호를
앞에선
없는거지
원상
이데
일대에
입어
지대로
총회
층간
치워라
퍼주
프라
환자들이
##시대가
##적입니다
##내역
##찬이
##박람
##버거
그런거지
검찰공화
시작이
##대표를
발전과
그동안의
방법도
남자들은
재미있네요
비용으로
마을에
2015년부터
이루어지고
일정으로
해소하기
답변이
응답이
호소했다
유기농
브로커
중남미
전자상거래
4개의
경총
까먹
뇌를
대수
리스
만인
반이
수당
시트
양적
영어가
음향
이단
일용
차도
철폐
토왜
파일을
표했다
호르몬
##일반
##비해
##마피아
##보나
##탕감
윤석열에게
없는것
언론개혁
기사의
여성과
인도적
기관은
통신원이
##좋은데
어른들이
발굴해
안타깝지만
http
육아휴
걸림돌
바이러스가
개탄스럽다
노태우
최은순
성균관
갔습니다
개콘
단장
대서
말같지도
물은
뭉클
버스가
부동
불문
사상이
살균
안써
안티
업소
연탄
유치를
정세
청력
##8개
##대리
##36
##체어
##버린다
##버스를
##잡아서
##문이다
##궁금
한국당은
만들겠다는
댓글러
언제적
공개해라
살아도
외국어
조작하고
국제사회의
않았어
포함해서
코로나19
지방정부
지적에
제작진
행동하는
가정에
소재는
구축해
위반으로
진출에
고위험
희생을
연습을
동계올림픽
공백
나네요
농장
돈의
동훈이
라오스
멀지
몇이나
못따라
바위
발연기
본적
북중
손혜원
승강
알라
약해
여적
저평가
전기가
즐겼
치과
팔레
폭을
피우
해체가
행세
호랑이
##업무를
##로와
##유공
##팔아먹
##3000
##트릭
##더구만
##종에
##버스가
##항에
시작하자
##다가도
책임감
나온다고
알고리즘
사진으로
인정해
사기치고
공연에
생산한
성장과
전달할
알았더니
방역이
주도권을
가르치
당원권
##시절에
폭발적인
##공간이
크리스마
죽음으로
상속세
횡단보도
##매국노
##어떻게
60년
강하고
관장
그리는
대지
등골
망해도
맡긴
모시
수성
신빙
안해주
왔던
우위를
죽겠다
핑크
##남은
##대단
##지사의
##오오
##아닐
##합격
##제명
##특례
##빨아
##횡령
##는거보면
좋아하시는
있었냐
안전과
적용이
이야기하는
인상과
대응하기
도입해
영상에
2023년
자식도
중단하고
카드로
시대적
##ㅠㅠㅠ
축하드립니다
왜이래
2013년부터
박용진은
극복하고
드리겠습니다
and
가혹
가깝다
군대는
난장판
내역
내팽
놀랐다
다듬
맘껏
반대가
비꼬
빡빡
사니
아저
없구만
이자를
인류가
적나라
초부터
폭동
##이어서
##49
##구치
##권리
##실질
##경과
##때려
##반은
한국에서도
##대로라면
관계는
수준이네
어디에서
조선이
증가하면서
세상이다
공산당은
상태였다
상승이
지켜라
은행은
시스템으로
유명하다
이동하는
시절부터
경찰대학
평점은
버스기사
다가올
비행기를
사장님
성범죄자
경상남도
놀아나는
대우조선해양
한반도를
겹쳐
날도
되살
몸은
무례
민원을
박준
소굴
스와
안찍
알텐데
어용
요건을
절벽
치마
친화
카라
##자한
##조각
##질과
##줄께
##생들
##록을
##추적
인간이냐
들어왔다
관심없고
쓰레기들은
나왔습니다
판단하는
지적한
서민은
하락을
2년이
노래는
##했을텐데
최종적으로
기울이고
세일할때
보행자
G20
yuji
가꾸
각서
갔을
강훈
그자리
금품
남구
된게
또래
박재
방을
부흥
세미
세대를
않더라도
암담
이씨가
잔머리
장갑
저자는
최태
한똥
한전이
항일
##도다
##소설
##대라
##말이다
##트맨
##무용
##키우
##토가
시작하면서
수사와
수준하고는
##자들이다
투자와
알고있다
없이도
행복해
도입된
증거도
나이도
전라도가
무너질
시위하는
주도하고
그래픽은
SK텔레
##바닥에
신기하다
맞추어
외치면서
타격감
이렇듯
비정상적인
스페이스
헐리웃
3루
8시간
간다는
굥석열
달간
당한다
마중
말하는게
명단을
무당의
문의가
빼곤
알수있
야비
유모
일요일에
장인
장소에
지면
직영
##피니
##단지를
##받이
##화면
##BI
##더듬
##탈을
##손이
보고싶은
수사하라
최고입니다
중요성이
내려놓고
나왔고
성장률
박근혜는
멍청아
알아봤다
달라지는
재산세
인물들이
주가조작은
멤버들의
똑같음
싶어하는
폭염으로
급증하고
감성팔이
싸이코패스
킬링타임용
집합소
강신
같지도
거나
고갈
교양
남친
모임을
뭔가를
미치고
부른다
불펜
설훈
손발
완화를
종편
통증
파키스탄
##식물
##사스
##내리고
##땜시
##직전
##모아
##린이
##읍시다
아니란다
한국인들이
중국처럼
서울경제
필요하지만
시작되었다
최고위
연구위원은
올라가면
느낌은
차량은
우선적으로
지구촌
가져가
전달한
남편의
요금제
어지간
줄여라
생생한
사물인터넷
알콜성
재래시장
죄지은
오스트리아
4점
간사
개로
계십니다
구분이
넘들은
맞추고
묻혀
불평
상도
숭배
안갔
이사가
중임
지맘대로
하기에
##국대
##네여
##대면서
##들어도
##환자가
##행은
##폭을
사업과
재미로
100주년
댓글달
중요한데
만나러
기록하는
요구된다
안되게
보다도
공연과
빨갱이들은
은행의
멍청이
영국은
수익률이
순간이
보이게
우크라이나는
##조선족
취임식에
똑같아
떨어진다는
깨끗이
LG전
구입할
화면을
동아일보
호소하는
찬양하는
이때다
연방준비
공중파
꼭두각시
##프란시스코
개처럼
거두고
게으
권모
귀머
놈이네
도의원
두세
마법
명박이
뭉쳐
백만
북이
분수
비관
비현실
스리랑
얻게
욕이나
용도로
임관
주상
주시길
증가가
차장
책의
충실히
해처
현정권
##이리
##관람
##39
##상품을
##버둥
##례로
##ㄱㅋ
지역이다
잘못한거
정책적
어려워서
준비된
후보자는
거짓말하고
드러날
넘어간
자동화
1년도
업무추진
확보하는
2025년
교수님
변화와
##보내라
이럴거면
형성된
대우를
목소리로
신한은행
불가피한
##수요가
꼬집었다
CD
가방을
거랑
거기가
굴종
글은
뜻하는
모빌리티
뭐만하면
사는지
산부인과
소탕
안하면서
종족
줄곧
짓이냐
추한
치루
탓만
퍼주기
필두로
##자재
##단에서
##절벽
##줄까
##짓는
##때로
##혁이
##컴퍼
20명
##인가보네
좋아하면
조사해야
이해안
다음엔
사건이다
##사업체
만큼은
전문가와
전문가의
연기와
상승에
달러가
보이면서
아닐텐데
관객들은
예전엔
카메라가
실험을
광복회
사리사
푸하하하
GP
개조
개회
과제로
뇌물을
똥고
맛은
뭐여
미적
변이
설탕
염병
온국민
일인
전관
점과
정용
주름
주길
진도
짱짱
피어
필터
휴무
흉기를
##자니
##로우
##연예
##실천
##할걸
##불쌍
##MP
##놔야
중국인들이
하나금융
많이들
이준석이는
이어지
설명하는
한번만
높은데
의미하는
공무원연금
부분이다
확대와
스타들이
여론몰이
고객은
직원들에게
도입에
부정하는
분위기에
영상과
##할때가
비핵화에
##하였는데
초반부터
보조금을
응답자의
공항에
응급실
이틀간
매체는
##근로자
토로했다
초미세먼지
1단계
4가지
강해
관대한
관상은
김미
놓치지
누리는
도매
마늘
멋지게
발끈
배분
빚내서
사당
사적으로
실은
암만
어따
없겠지만
일좀해라
중에서는
지만
지었다
칠곡
파생
표지
호재
##로봇
##나기
##르가
##임ㅋㅋ
##주소
##빠져
##림으로
##줬다고
##홈런
##어서는
경기도시
국가들이
상황으로
장관에게
계획하고
이러는
사진에
거짓말하는
노력으로
능력없는
운전면허
기관에
있어서는
전달하고
##사건이
회의에
검수완박을
##orea
어머니의
통계청
엔딩이
중립을
용인시
서해안
미치겠다
재능을
##주사파
국무총리가
막가파
월스트리트저널
07
검증을
그치지
데도
뒤흔
말기
맨체스터
보트
보름
삼겹
선교사
스무
압력을
윤영
이광
이지만
있냐고
조속한
참사가
출고
커리
피드
협동
##챙겨
##네들은
##급의
##전개
##통계
##면제
##신다
##니어
##당했다
##여부를
##할건데
##주정
##무부
##제철
##ter
하나둘
지역에는
수준에서
책임자
나온거
##사업과
행사에서는
##인간들이
총선에
알았네
출연하는
회의는
불쌍타
양심은
접근할
신선하고
떠오른
동해안
죽이려고
아파서
CBS
간소
건달
고물
교사는
굥가
내인생
니나
니들의
말안
몰아가
무자
밤낮
보시면
서는
세력을
않겠다고
어휘
왕자
왜자꾸
준떡
채우는
챙겼
천년
쳐서
출당
투성이
학창
##기보다는
##커피
##ive
##형과
##불어
##매한
##꺼고
##뽑은
경찰로
하나회
시작해야
전문가는
정책도
##시키는데
댓글도
확인도
15만
##정도의
시민과
개최한다고
되었는지
판결에
위치하고
공감대를
담당하고
누군데
호텔에
형태가
졸업하고
기회주의자
2014년부터
2번찍은
로봇이
영웅시대
근처에서
성실하게
환상적인
며느리
생중계
걸리지
과제가
국한
도민이
됐던
리죄명
반은
받도록
불상
숙청
스텔
언더
여실히
이등
이정부는
자작
잡범
채굴
##인원
##공예
##소속
##지식
##개소리
##겠단
##38
##드는데
##괴한
이런저런
그래봤자
검찰독재
보고만
가장한
##주의적
100배
쓰레기들아
러시아도
검사장
개발도
나타내는
만든다고
추천하고
참가자들은
기간은
음악에
시청자
상관없다
##자체를
서울시의
압수수색을
펼쳐진
국회의장이
##본부장은
죄명이가
에너지가
이쁘고
날뛰는
메이크업
아바타
임산부
##담보대출
9만
NY
가든
김구
꼴에
달할
됐지만
만회
맛도
못사
무색
민변
발발
볼수있
뽑아라
사이가
안볼
어게
여부와
욕하면서
욕먹을
유상
잔류
저임금
전제로
절라
중으로
짜릿
티가
핵보유
##공업
##조원을
##분권
##당아
##마귀
##역량
##했음을
##놓으니
##따구로
##군수
##ue
##짜리가
아니구나
인간적으로
##같은게
시간문제
모두들
30개
##아야한다
이야기도
의혹은
유지하기
집단이다
비판도
잡아들여
보기싫다
소득세
바라요
물어보면
##사건을
뽑아놓고
시도한
3일간
자본시장
보건소
카페에서
퍼즐게임
진지한
한순간에
it
기침
논리는
돈많은
돕는다
말야
멀미
모던
반품
본명
봤어
부결
빠지지
산하기
상여
압력
양파
영종
요금이
운행을
위례
유병
일하면
지르고
찾는다
친윤
풍요
호황
회부
##일가
##대국
##비슷
##아침에
##카는
##센스
##모레
##6천
##왔으면
##곳도
##벗은
##멍청
##하다보니
105
정치자금
때문인
들어라
이게다
기술력을
소리도
힘들어요
재판거래
업무협약
느낌의
없애자
10년전
윤통의
달러로
월급이
##자체는
주인공은
선고했다
1990년
신기한
연봉이
노예로
국토교통부는
활약이
중장년
pcr
##타당성
공용
나주
남부지
대림
모레
변하는
복권
삼는
선동을
속셈
안됐
욕망
있노
정식으로
주시면
중에도
천사
초음
키스
투여
##기무
##금액이
##일비
##을것
##파일
##으실
##2명
##줄알고
##모비스
##제이
##물류
##존재
##슨은
##손가락
##짐에
##폴리오
이런식
아이들도
시간가는
세계최
국내에서도
저런것들
기사에서
문화관광
18개
평가하고
판매한
자연을
220
민생에
##할수밖에
그것에
가입한
이란의
예전처럼
조치에
손가락을
깨끗하고
카메라에
구입한
##구조를
선출된
마땅한
아름답다
민정수석실
##캐피탈
WSJ
gr
갔어요
곡을
교회에
논술
대가를
뒤져
렌터
마술
모시는
물의를
번지
볼게
수억
수위가
신은
신차
실세
알린
얘도
얘들은
원해요
원한다면
일련의
좌석
코리안
탈취
토양
편에
##리얼
##발에
##겠으나
##송이
##으시고
##형태
##애니
##모가지
##키를
##엇는데
##fc
정치검찰
아이와
재미없어
수준인데
거짓과
전국을
없어진다
부동산이
작품들이
적용된다
공매도가
공격이
궁금하네요
불편함을
감동과
건물의
아래와
거부한
오르면서
절반을
악마화
자막조작
회원국
왜곡된
1980년
국세청
브리핑에서
교섭단체
헬스케어
진상규명
프로모션
공업
국경을
권선
급매
난해
내리지
뜻한다
마사
면모를
모였다
무을
뭐다
바늘
반증
반성을
봐주기
설정이
손자
쇼트
수위를
스며
심정
유교
중범죄
지이
총출동
최상의
하사
항구
휴가는
##니당
##당께
##3개
##회사에
##버전
##측이
##검진
##김없이
##앉아
우리동네
##하다며
문제인지
지지자가
것이니
인간으로
기업체
해야죠
##거리면서
설치할
아파트에서
현대모비스
사라지
상대방이
000명
증거는
요청하는
기관과
검토를
장난감
백신을
올려도
300억
비상저감
확정되면
도전하는
일자리는
##상태에
털어놨다
자전거를
영장실질
어디갔냐
개정이
구해
국장은
날아가
단골
디펜
만도
먹게
부자들이
생떼
소행
소소한
스이
안본
않던
양심을
없더라
유지를
이관
익명
저랬
특화된
팬들
평을
폐렴
한채
##이겠지
##공사의
##만하게
##란의
##당선
##낫다
사람마다
영화보다
정부때
##리는건
그만해
대상자
내려오는
후보와
잡아다
정의와
자체에
대응하는
국정조사
조성하고
그때부터
자동차를
전통을
독일은
사태로
설립을
모양이다
따뜻하고
전남도
시리즈는
수용할
지배하는
국무위원장과
##공간으로
죽음에
연설을
간편하게
무력화
진중권
만지작
철밥통
90년
거긴
경청
공문
교장
끝도
놈아
두창
들썩
디저
딸기
물량을
발버둥
뻔하지
샤오
수련
수괴
심층
안면
언능
옮기고
월성
자급
전향
조업
주파
짧아
체제로
터라
품질이
했니
##44
##공포
##대회는
##다니다
##고객
##총회에서
##부상
##스퍼
##느냐고
##티노
##버리자
##렁이
##66
##뮤지
있는걸
대통령까지
영화나
##인이라고
아이도
무슨짓을
마음도
18세
사기극
구속됐다
음악은
##해보지
다가온
##하길래
통화에서
감싸고
주둥이만
티비에서
부통령이
신혼부부
정준영
3번째
7000
B씨
가령
고환율
군부대
규제로
극찬
말좀
망해라
머지않아
박유
박보
백신이
붙이고
석사
수교
써야지
양대
왔으면
자외
재초
저학년
조처를
죄앙
초계
행운
호전
##4000
##잘하고
##신가요
##여겨
##세끼
##문자
##언제
지지도
인간과
정도였다
최근의
감독님
친구의
나왔던
드러나고
집중하는
##지않는다
여론의
적용을
경험할
##방송을
사법부가
인터넷전문
신뢰도
##하려나
평점에
프로젝트가
##쓰레기들
외면하고
머물러
짜고치는
에스케이
아닥하고
무분별한
영빈관
P2
갔으면
국보
넘겼
들리지
맞잖아
모션
뭔짓을
발길이
밥먹고
변론
성의
성장에
시총
신봉
오마
온천
온다고
올레
위기의
이경
자선
자원이
전한다
정복
칠레
함량
혁신이
확대로
##들에서
##방식으로
##동부
##아빠
##되나요
##더가
경찰대를
기업가
사실인데
만들어졌다
이해하지
##거리네
지지율에
알고있
구속해라
한동훈을
집중호
다니는데
표현할
증거로
2020
비슷하다
상품은
금지하고
안정된
시절이
그럴까
군사훈련
불안해
2016년부터
내로남불의
등장한다
내놓지
시리즈를
김정일
화면에
말아먹는
실력으로
엔딩을
요양병원
다닌다
유용한
9억
ai
가결
계류
교대
나보다
내집
넘기는
넘친다
대는
돌발
매물
박사는
베르
비선
사탄
손잡
심리가
싹을
애낳
종속
통계가
풀어야
하트
했구나
흘리고
##도못
##인프라
##2찍
##되더라도
##눈치
##쓰네
##종북
##한다면서
20퍼
정부야
관계로
개발했다
준비나
후보자의
기록적인
의견은
공부할
스마트시티
##놓은거
도와주고
사무실에서
전환이
고양이가
국민의힘이
수업에
괴롭히는
보증금
부끄러움을
시가총
조항이
예쁘고
엑스포
불합리한
반지하
2의
CS
군인들
그사람
금년
나이트
내에서도
늘려야
단거리
더하면
도라
도사
도라이
막은
말해도
빅스
서훈
섰다
시위는
에르
염색
오냐
웃으면서
이새
잘봤습니다
지식이
직격
트랜
##이렇게
##기라
##일당
##88
##차이가
##당국은
##경비
##체계가
##난다는
##처리를
##먹어라
##물질을
##번은
수사권을
그만하자
어려웠다
좌파언론
평가할
서민들의
방법이다
업체와
받았으면
알아보
10월부터
마을의
모아지고
모집에
조중동이
패션쇼
방지하기
균형발전
송영길
뒷전이고
포르투갈
7기
경의
그제
꺼지
넓어
높음
덩달아
마두로
많았지만
별의
보았
부진이
불순
시도를
오키
음해
의도로
일당이
잘하는거
전사
짓거리가
타겟
특성이
틀을
팀에
허덕
확고
활개
휴지
흑백
##하십니까
##기상
##1명
##유로
##나의
##받으면서
##3일
##갈아
##불편
##선도
##CG
##저러
##협박
##때나
##열차
아니었으면
이런것들이
기업도
기대는
이후의
경기농
있다는걸
어려서
보수정권
코로나에
지나는
##시설은
##지않냐
위험성이
유치원이
국회의원을
별로다
법무부가
기획한
장기적
야당과
나타나지
연관된
경력단절
창의적인
퍼포먼스를
표창장
멘토링
1급
구만
누워서
눈은
더큰
도구로
망해야
면밀히
문희
뭐하니
손아
심플
씌우는
압축
우두
인가요
임무를
풀어라
##이므로
##일드
##라곤
##한적
##대던
##치더니
##전당
##if
##내용이
##심하고
##후의
##갑다
##이라지만
경찰까지
##나라에서
정신이상
지난해까지
없어지는
없어지면
##야지요
찾아보
준비할
개선할
##시설로
맞는듯
확실하다
신청했다
##되었지만
강남3
요청할
국무장관이
규제개혁
아래에
그랬어
가수들이
변화의
윤가야
동맹을
##아버지
답이없다
360
그려진
착각하는
밝히면서
떨어져도
충청남도
차가운
그중에서도
체감할
연쇄살인
포인트를
획기적으로
노골적으로
일벌백
가마
나어
단식
뒤진
떼어
말인지
미숙
승객이
야근
엠바
운행이
웃었다
월요일에
유선
진부한
참견
추악
태우고
한라
한말도
할수도
##서부
##대구
##되요
##선고
##영사
##생도
##놨더니
##쳐먹는
##감각
##본을
##토르
사람보다
정부탓
하고자
하고있는
모르는게
정신적으로
세계대전
따라가
해야된다
조선은
추진하기로
방송통신
보내주세요
내려갈
이것만
##산업은
역할에
전과가
존재를
되었네
공감할
감소하고
성폭행을
선생의
우크라이나에
쏟아지고
비대위원장
여러분의
선제적으로
##∼19
단어는
출석해
테스트를
설레발
버튼을
리버풀
아이스크림
아무데나
DB
YTN
가구의
개비
극도로
금품을
끝없이
내의
도구
밤을
배드
서술
섬세한
시위에
연연
온도가
유한
의제
이놈들
초창
피하고
해커
##8일
##방법을
##파서
##으시면
##세상이
##주니까
##선교
##표로
##la
##듣지
10개월
직접적으로
되는구나
부산지역
50만원
25년
이뤄져
제주시
분야로
음악도
230
발견한
하기사
도와준
파악해
거리에서
진출할
느껴질
변화는
절반은
이딴게
##atch
미쳤다고
운운하며
대깨문들
고기압
부회장은
허구한
대주주
청각장애
기축통화
한덕수
아랍에미리트
가라고
김치를
꼬마
꿈에
뇌졸
뒤지
만난다
말던지
머하냐
몇명이
배은
베이스
본회의
성지
유령
의아
일꾼
전재산
주는게
진해
최문
추리
커져
쾌적
퀴즈
테헤
할때는
흠쇼
힘듬
##하드
##기때문에
##도어
##만진
##7000
##모든
해결에
프로그램의
투표권
박근혜때
홍보가
근로기준
다르네
연결해
고발한
조심하세요
기회다
전용기
불공정한
하이브리
발달장애
비속어를
주제파악
##특별위원회
일대일로
아우르는
플래시
나중에는
형평성
유류세
에피소드
진핑이
김관영
ㅠㅜ
낄낄
난리가
냉각
달을
반하는
발족
부상이
상공
소미디어
속고
숙소
순진한
연명
열애
오디
올드
운명을
이대표
점진
좀만
중부지
채운
채울
침착
타자
피력
##8000
##파에
##총생산
##수없다
##준의
##사원
##호나
##ts
##반복
##길이다
##IN
아이에게
무슨죄
지원으로
이해와
##지지자들
필요한가
노력은
확보하기
운동은
경영진
##국가에서
공감하는
판사도
제한을
등장인물
일어난다
비난이
##정신을
##기준이
리더가
365일
공항에서
놀라게
명분으로
5조
AT
것과는
견해
군과
기습
기승
다자
덩치
도에서
동쪽
똥칠
렌트
리가
마른
무전
뭐했냐
사거리
아리랑
입도
재료를
퇴행
했었다
화풀이
##거라는
##민정
##대금
##포터
##성에서
##끝나고
정부서울
만들겠다
그러는데
지원도
나왔지만
개선과
추천해
역할은
인상은
단체는
사법행
금지하는
그럴싸
수십조
남편을
무섭게
##주시기
공모전
브라운
봉사활동을
윤무당
연합뉴스
식품의약품
구글이
어째서
##쇼핑몰
대안으로
소외계층
굴욕외교
식약처
1위로
가니
골치
농축
도의회
돈아까
말의
모녀
본사에서
뽑지
상명
속이는
않아야
알까
애널
양재
인해서
일해라
지표가
차마
차질
##남을
##용의
##마리를
##300
##성공
##친거
##울이
##딩을
##칼로
만들려는
윤석열한테
그래봐야
이어가
조사하면
시민들을
사기치는
평가에서
친구들은
공부해서
불편하게
발언으로
의사결
주목하고
어디서나
거기다가
공유할
수십년간
일어나면
쏟아지는
형수에게
##경쟁력
자아낸다
대대손손
가이드라인
성향의
새겨진
오락가락
스리랑카
가미
거스
겁이
군포
나비
났는데
도지사가
돈없는
뒤따
말하자면
산타
약하다
원스
유신
저인간
질린다
할짓
##일어나
##법률
##오빠
##노미
##점수
##간접
##었잖아
##떼기
##롯이
아니며
20∼30
경찰에게
세계는
좋은영화
관계자들은
사용된
학교와
의미없는
##이었으나
기자들은
인터페이스
##대통령은
행사장
##단체장
제주도에
노력해야
안보여
높아져
멍청하고
인권위
하기에는
3월에
달러의
해주지
##문제에
고소한
양심적
박진은
이루어지는
##all
실수요
예고편
금감원이
예정이어서
성능을
일시적
강대국
양호한
블라디미르
날카로운
공인중개사
외제차
어대명
도대체가
3개의
공적인
글에
넓게
녹화
늦춰
대를
동종
마저
배그
빈부
사치
사연을
선봉
성괴
속터
숨기
엄연히
영문
있듯이
진다
차근
청주시
총력
하냐고
학사
해대고
호박
##요금이
##공사와
##소음
##들인가
##병의
##르장
##신탁
##논란
##렸어요
##∼40
##손에
경찰에서
하나에
언론사가
돌아다니는
의미도
의미없다
정보는
현지인들이
노력과
오래다
자격으로
시설에
하늘에
타이어
너네들
부인했다
이와중에
견찰이
자영업자들
협의해
##것같음
##카르텔
어깨를
벤처기업
조차도
##소비자
개연성이
##주차장
탄도미사일
선착순
5공
과언이
노선이
늘린
떠받
말합니다
머라
모방
묵인
문구
배짱
복숭
사연이
살어
시동
시대로
심폐
쓰인
어수선
얼어죽
우는
운수
잖아
치우고
행진
##거티브
##4천
##한들
##게하고
##분들도
##차지
##당국이
##아닙
##재단은
##선진
##색과
##미리
##문재인
##ne
##특보가
아니요
한국인들
정치도
이재명에게
보고나서
##스트로
방문하고
240
수출입
다니면
없애면
그녀에게
줄어든다
대기업과
수익성이
제출받은
방식에
도착해
1000조
공천권
들어서고
측근들
상위권
할배들
불어넣
GSGG
문화체육관광부
공존하는
타당성
욕지거리
과징금
삼청교육대
##증후군
구명조끼
새만금
강도가
기래기
논다
당당한
말했
발산
붙인
빌린
빌미로
설교
순기능
순차적으로
습관이
알겠지만
어촌
얻지
유진
이륙
장치를
전한
종류가
진심이
코레일
폭언
하동
한적
행보에
##이틀
##데도
##결로
##워즈
##권한
##졌으나
##2회
##34
##세종
##보육
##보이고
##과가
##복음
##틀어
##드래곤
##we
##갔네
##책에
##베이스
##갑시다
미국에서는
게임성
자신들
장관에
추진될
대상에서
전쟁에서
아파트값
나서면서
##을때도
니네는
홍콩에서
올리며
사전투표
단계에
후원하는
1988년
문자메
팔아먹을
##의료원
즐거워
이시국에
부장판사는
무단횡
포트폴리오
자화자
02
09
2명의
2개의
3자
5위
개표
끊은
나야
눈부
대문
때면
말살
멈출
명으로
무겁
빚고
실장이
심장이
아에
안치
알렉
앞에는
앞바다
온난
원주민
위치가
일감
저조
저금리
절친
초강
행보가
##품에
##고리
##워킹
##아주는
##수학
##7개
##프다
##망상
##같으니
##좋겠다
##평가가
잘못한게
##스트는
학교로
사진도
공연장
##산업에
성장세를
권력과
성과금
이전부터
불편하고
인터넷에서
##사로부터
뛰어들
남아공
1992년
타이거
당원가입
구청장이
시리즈의
연합훈련
창피한
작용한
분리수
모으는
유발하는
소요되는
입맛대로
생생하게
되돌려
냉장고
교활한
유난히
상파울루
가보고
남에
대내외
됐는지
따위가
따르지
번영
속옷
시바
신부
안생
옆으로
이소
잘한거
제자
지정을
추상
폭주
한패
##하성
##것인데
##만명의
##말까
##오름
##어치
##5명
##내는데
##따구
##운행
##든말든
##맞이
##쳤는데
##쳤지만
10시부터
한다는데
기업에서
따라갈
##영화중
조사하는
처음본다
않았을까
기자들에게
광주시가
공매도를
민간이
대출금리
중소기업을
협력업체
지금까지도
니네들이
불안정
그랬지
악마의
출발해
거니가
인지하고
커뮤니케이션
부적합
수영장
무더기로
금융당국은
반가운
FIFA
독보적인
4층
mb
ㆍㆍ
감소가
개만도
넷마블
눈여겨
말리
벽을
불려
빨개
세션
야채
의외
인접한
임박
작정하고
주휴
친형
팔리
플탐
피부가
##라와
##공공
##대란
##관념
##여가
##사진을
##변에
##oc
##창한
##익은
##끌고
게임이라
##위원장과
정도만
인정한다
조작해서
중심을
생활하는
##아니지
성장세가
결혼식
22개
높아진다
##이었다면
시험이
공감대가
물어보고
전해져
브랜드의
소통의
사태는
거쳐야
##상태를
촉구하고
박범개
전국민을
호흡기
##럭시S
철학이
누리꾼
해임건의안
직무유기
##포지엄
3살
감추고
개정은
골이
남원
넘겼다
몇시간
물로
법이다
분주
섭외
수치를
아일랜드
외래
의상
이국
인멸
지게
태안
팬티
한건데
휘청
##국악
##지르고
##그제
##동아리
##부리
##어민
##었겠지
##몰랑
##탄생
##6개
##률도
##꺼라고
##똥이
##하고있
정부다
##하기위해
들어보면
나오는지
기대했는데
100개
공개하는
방송에서는
개발된
한번은
개선하고
지속되는
서로에게
결혼이
안보이는
두고두고
은행에서
##사고로
요청에
애들한테
독재를
사무실에
맞아도
모르겠어
마누라는
승인안
명작이다
혼란에
세워야
대표팀은
지방자치단체가
성능이
영혼을
##플레이가
기숙사
통화스와프
가습기
EBS
개구리
귀순
끼칠
논리도
대사는
말다
말까
메달
메디
명성
목동
심리를
아세요
없으나
윤성
인성을
장래
적임
치르는
포진
화산
##이미
##한잔
##바글
##3천
##질도
##무게
##출연
##힘든
##LO
##렉션
사람으로서
생각해야
것이어서
수사하면
##주의의
모든것을
러시아에서
하루아침에
문재앙때
지방이
16명
한심하네
힘들다는
##하시죠
##만큼도
조성에
플레이타임
이동할
이익에
대기업의
전화로
일제시대
진입장벽
깜빵에
다스려야
남양주시
망해가는
찢죄명이
오징어
6점
간거
개체
급속도로
너보다
된거지
드리고
맡는
밥값
방증
북방
색이
서지
승계
암이
앞다
연준이
원하면
이진
일보
전멸
전방위
정조
제게
죄도
쪼다
체인
풀어서
호불
##로선
##들입니다
##워치
##세월
##화재
##내어
##매장
##났어
##범의
##맛에
##꽃이
정상에
사진찍
해결된다
구속이
선동이
사라지면
강화하기
추천을
구성돼
조성해
##사회복지
강력범죄
이라니
장기적인
의무교육
유일의
이딴걸
끌어내려야
장르가
뒤집어씌
자진사퇴
성형외과
스튜어드
소중함을
실화냐
크루즈
식품의약품안전
가리는
가수가
강세
결실을
교회의
네거티브
놀아라
대도
동력을
뒤덮
라운드
막힌다
민당
믿냐
발명
사정을
삼권분립
실버
언덕
업고
열사
잘알
좋겠다는
집안에
체중
추월
커터
크기의
피는
##기밀
##발적으로
##전부
##전망
##락에
##경호
##직에서
##배치
##6억
##같네요
미국가서
중국이랑
101
경기도민
사용하여
자기소개
의원에
##하겠어
감사원은
여기고
처벌하라
전세금
##문화예술
하면서도
건설을
바람직한
##할때도
대법원의
##도시로
윤핵관과
타이완
주둥아
구분도
시끄러운
유도하는
가계대출
석유화학
신입생
CGV
정보통신기술
파격적인
cg
가지로
관공
그릴
꾸역
내구
놀랄
때리면
몸의
못했을
박경
벌일
불발
비장애
손도
신개념
쓴다고
씌워
열이
옥상
유나이
인연
인줄
일가족
적격
전이
최영
치가
통하지
학급
학문
확고한
황희
##요양
##국개
##야가
##다음
##위협
##투스
##년동안
##러는
##마킹
##진다고
##봤어
##표는
##참모
##살아라
##볼까
##캐슬
##뜯어
##빨간
게임에서
이제까지
사실관계
대통령이냐
##기관은
##이었나
영향은
##대통령을
드러난다
시행한
##연구소가
우선순
궁금증이
270
불편함이
바뀌어야
근무하고
월급도
그러니깐
장기화
복지부
한류를
사퇴를
하니깐
불과했다
실망이다
가르치고
나무가
동영상이
##다시피
핵무기를
ㄹㅇㅋㅋ
1970년대
어마무시
불거졌다
중고차
실태조사
납득이
눈감고
헛발질
굥도
급이
낮다는
대란
돌보
막아라
막말로
받으려고
부지를
속아서
아련
않습니까
어그로
우길
이사람은
주석
탐구
현금으로
##리더
##네들이
##다큐
##치료를
##비어
##2억
##죽고
##적화
##렸나
##심하게
##패션
##응원
##cc
##싶네요
##벌어
있는것도
국민대는
대통령께서
하는일
##거리다
투자하고
금융회사
서비스의
사람들한테
남북경
도시에서
무식해서
정의당은
오래전부터
##사고를
상식에
순간을
서울시와
1991년
등록을
도착할
음주운전은
##만들기
##art
수소차
스피드
하청업체
셀프공천
신경쓰지
솔루션을
WHO
거액의
고종
늘려서
늙어
맞출
문정부가
박사가
손발이
수로
술만
양형
우기면
응원을
의심을
이방
장치가
조두
쿠폰
터미널
테니스
편법
하기는
학년
한복을
합참
##서에서
##인건가
##구급
##대화
##겠더라
##차기
##부탁
##실태
##봤나
##55
##였으니
##모금
##타임을
##약은
##릴라
##꼴이
##옆에
정치인의
민주당이나
##만원짜리
만들어놓은
문화유산
검사비
사랑해
위해서도
비교하는
의견에
의견수렴
유치원을
대구는
존재감
안보를
구조로
감소하는
아프면
유일하다
목숨이
이정도는
졸업한
시진핑이
더듬어당
미쳤구나
핵무장
꼬라지를
어설프게
서대문구
포지션
gsgg
간식
거로
격투
계기를
기점으로
나이는
넣었다
놀란
맛에
머저
받음
베타
보기도
뿐이
수분
엽기
음흉
의문을
인연을
장민호
재취업
정당의
제8
초점이
카더라
태반
하구
협업을
##지정
##피해를
##빠지게
##석렬
##미니
##현황
##갔다가
##덕분에
##웠음
지역별로
정권도
검사와
없어지
의미있는
선거는
만나기
##해주셔서
드러내고
업체인
##규모가
중구의
도둑이
바다에서
네이버는
희생자
가치와
명의로
어머니를
질병청
웃기다
두려운
밝혔지만
김수현
미흡한
##혜택을
감추지
지저분한
국군기무
마드리드
스태프
3선
750
FT
갔어
계정을
공휴
굿굿
노약
느려
다쳐
망가지
망해가
버금
안무
없에
연기로
이말
이양반
저널
저사람
적재
정국
제안이
피부를
했네요
현장이
회상
##요금을
##서기
##지사는
##비싸
##오롱
##되지는
##표시
##판단
##모씨가
##친다고
##언더
##ae
##농협
##늘어
우리보다
정치생명
범죄집단
자유의
이야기에
마련되어
부산시가
정보와
노력에
박근혜정부
바보같은
사례다
연결되는
방향에
검수완박이
동물의
액션은
타고난
대변하는
반발을
학부모가
환영합니다
다이아
사립학교
2020년까지
합동으로
워싱턴포스트
컨설팅을
장학금
참담하다
일등공신
youtube
개한민국
4위
KE
결단을
금천
급속히
내실
놓는
달라서
당해서
똥줄
못하는거
반정부
발렌
부시
생을
얼릉
우왕
월평균
웨딩
주십시오
쩔어
천원
청송
타입
편견을
포탈
##하란
##금속
##가슴
##지시
##용량
##통장
##마세요
##불량
##취약
##패널
##든다고
##ml
##mc
##확대
##츠가
10위
일본어
수사관
좋아질
좋아한다
사이트를
산업은행
##지지않
지방으로
서민이
추천드립니다
강조하며
자체로
하락하는
플레이오프
엄마를
시청률이
매일매일
남아있다
대전시
원칙이
어머니는
단속에
공약이
선호도가
문정권때
검은색
##자유구역
포착됐다
변동성이
후유증
마녀사냥
조수진
##저축은행
권모술
거침
고분
까라
내준
노린
늦어도
되려면
두가지
따돌
맡았던
먹으려고
모독
베풀
보드
부자들은
세대의
악수를
안내고
암세포
원전이
장점은
제지
주당
주석이
중2
중세
천명
하이에
화살
##업으로
##4일
##8천
##법이다
##속까지
##오기
##부양
##모니
##행위로
##후반
##림에
##음료
##긴데
##베리
##ain
##접촉
##00억원
영화이다
아닌건
처음이
사고의
보내준
보수당
부산은
선동으로
지나서
사망했다
마스크는
심각성을
윤통과
##생활에
수요일
고소고발
투입된
오르며
당원들
흔들리는
윤가놈
나름의
부르며
##것같아
전두환이
남한산
추미애가
스파이크
국민혈세로
구구절
개돼
개털
교복
권총
들었어요
레고
멋있다
명명
볼을
뽕쟁이
선의
성향을
순진
식용
식재
쏠쏠
아들과
어벤
연달아
원수
위배
일원에서
졸개
주도로
죽이지
찍으면
취지를
학원에서
##하거든
##인들과
##말이냐
##찰이
##경기에
##짝도
##사에게
##BM
##내륙
##난방
##렸지
##버려서
##충돌
있는한
이상이면
진행돼
자기편
현재도
어려웠던
공개하지
본인을
불법이
사형제
좌빨들의
자식들은
국무위원장
전통의
가정폭력
북한이탈
온라인으로
불안하다
불안감이
모지리들아
전화해서
롯데마트
반발하는
프로젝트는
다녀라
아내를
천안함
강요하는
받아들이고
김용균
권고했다
못차리고
이병헌
명심해라
보편적
나중엔
지향하는
석고대죄
자화자찬
값을
개노잼
결함
고온
국도
기운
남겼
낭독
낮잠
내는데
맡기는
못하지만
못받고
못한다면
버르장
벌어서
복수의
불면
수동
쓰지말고
아지
얘가
오라
용접
위주
윤의
일이냐
임재
입수
잔혹
잘되는
저번에
정면으로
태클
##요한
##일수
##붙은
##법규
##개척
##파도
##준은
##세워
##세대를
##우회
##생명이
##망덕
##맞다
##토를
##평론
##스트를
공개를
내려올
대학과
준비에
포함되지
##게임은
청년정치
미친짓
강화해야
결혼하고
발견하고
정상회담에
서울시장이
사태의
이명박이
보건의료
완료된
한테는
천안시
정치권에
빼앗아
구제불능
테마파크
사외이사
안중근
가급적
스튜어드십
5인
견줘
공판
그전
냄비
돌며
망하면
먹는거
못했
못먹
미운
생체
서영
서강
소장은
승리로
시다
시중에
신일
아플
않는게
왔을
이직
전역에서
직선
토요
파이터
한짓
##정화
##정에서
##들여서
##만여
##아줌마
##회사를
##학의
##호구
##모집
##놨으니
##현상이
##왔네
##청탁
##움의
##허브
생각됩니다
경기도에는
댓글다는
무능하다
여기에는
선택해
발전하는
사형제도
에서도
의료진
강남에
베트남은
문죄인은
##하려던
##달러를
박진장관
이딴거
남녀가
몰입이
재난안전
지옥으로
마케팅을
물건너
출전한
넘쳐나는
원활하게
엄격하게
교육과정을
떨거지들
##균형발전
비공식
9천
걱정은
곳의
그라운드
나스
높습니다
놓으면
뇌출혈
독일을
디스크
무상으로
밀양
밥이
분쟁이
빚투
사시는
속는
심재
아다
열악
오해를
의회가
자기도
재대로
정립
주어야
죽음이
지르
첨예
해병대
홍역
##것들을
##란스
##답답
##마로
##여자가
##권자
##받음
##3억
##히기
##화이팅
##안내
##범에
##창에
##클리
##많음
##넣은
##해야하나
서울교통
이재명의원
사업계획
잘못해서
사고에
공개할
현실성
##한다는건
##소득세
되었다는
마스크가
받았을
운동에
##할때마다
소속된
지루해
상품에
한글을
300만원
이나라에
이럴줄
민노총이
##ate
태어날
슬프고
어쩔수없이
기강문란
사리분별
다짐했다
트리플
기레기가
유니폼을
거치지
구하라
근혜
다하네
동향을
들여서
매매가
명도
몸과
못했는데
밝고
보긴
살았다
상자
신촌
없니
연이
윤두환
재기
저마다
전화가
지부
직전에
체제가
평안
##민아
##식구
##나부
##속도가
##신설
##카운
##온은
##놓았다
##합이
##주시고
##무진
##드치는
##율도
##죄인
##릴까
##놈이다
##폐쇄
##하고있는
##하지요
대한민국도
이준석대표
어디든
만들어도
재밌네
구속하고
노동자들의
유럽과
결혼해서
희망한다
나올때
들어가기
움직이고
물어봐
##사건은
제도의
돌려막
돌아가라
모자라서
예방에
팩트체크
오르는데
업계에
이루어졌다
네이버가
똑같냐
##시스템에
출발한
LG전자
권한대행
##중앙회
안돼서
싱가포르에서
##하지않는
바쁘고
안산시
아이템을
표적수사
접대부
천연가스
반찬가게
이례적으로
신생아
희한한
9개월
것들도
결정은
결제가
경인
극에
높기
동지
때려야
먹으며
무기가
반사
번식
번호를
벌이
여중
외양
요원
용궁
위상이
이들도
저들의
차명
최민
케빈
평상시
한탄
힘쓰
##개인
##병원으로
##비나
##전인
##러도
##러드
##으리
##세금으로
##보냐
##종자
##제목
##심리가
##쌍욕
##언스
##냈고
있는지도
하는일이
경찰국은
10시간
##인데다
##나라로
30만원
연구팀은
본인만
어린이가
거짓말만
##이니깐
활동은
이전의
발견해
시절의
백신접종
의심하고
변화하는
공공기관의
윤도리가
메뉴를
실태를
고성능
브리핑을
발암물질
안그러면
8명이
간과
공과
그짓
급성
기발
돈버
반성이
방이
배로
보상이
비밥
비리의
숨이
쓰지마라
양천
어림
연평
오일
요건
의도는
이바지
읽은
잡음
채식
축구를
한거야
한쪽으로
합치면
홍대
##소울
##대박
##천의
##주들
##상수
##선전
##무실
##모음
##처참
##너는
##매고
##후배
##축을
생각하는게
지원된다
상황이라
떨어트
##말고는
되는건
시민단체가
사과가
어린아이
동안의
걱정하지
어쩌니
60여
마스크도
홍보하고
상품의
소개해
용산개고기
감소로
미세먼지를
전반을
TV를
보장하는
공모를
통계청이
허용하는
기득권을
1987년
반면에
안타까워
애국자
놀라울
신체적
발휘할
아직까지도
멈추지
##부정선거
사단법인
방과후
폭넓은
벤치마킹
2박
귀신이
그넘
기세
단죄
문씨가
반말
반감
벌금을
뻔한데
실린
아리
에드
열라
예약을
외람
이불
일탈
입지가
잡힐
재게
정주
조정을
천만원
치러진
클로
타면
통화를
팔지
##만배
##관절
##말던
##전력
##부지사
##수령
##었더니
##할인
##모으
##있을까
##있어라
##ug
##채권
##토지
##백화
##깡패
경찰대가
다른가
북한군
대표님
사회부
중요하냐
사랑해요
일반화
조작선동
국짐과
##프로젝
소비를
지적한다
다니던
대깨들이
대만에서
인상적인
##만큼의
솔직한
조성한
머리에서
소속팀
검토해
아시아의
##많은데
뻔뻔하다
느껴졌다
통제하고
회복을
TV조선
찬성합니다
완벽히
선동질에
괴롭힘
정체성
간담회에서
싫은데
시점이다
지났지만
패러디
강용석
위중증
오렌지
관통
나뿐
네일베
두께
등에게
말하네
몰살
미만의
보였던
부평
뿐이고
속편
스을
스럽다
아몰랑
약세를
옷벗
유언
육상
의자
자네
주인은
첨가
측에서
치지
카슈
표가
풀어나
하셔야
##하리라
##소생
##수립
##수사가
##했구만
##세무
##사격
##눈이
##쓰냐
##우선
##처리가
##타리
##엔터테인먼
##증거
##젤레스
##덜이
나라야
정치검사
125
이해할수
의원직
금융시장
개인택시
188
나타내고
마련이다
감사하고
지적장애
강조한다
##문화재단
존재감을
시키자
움직이지
대통은
알았지
말씀드
인근의
자녀들이
올리면서
외교참사는
평양을
접수됐다
##노조는
4차산업
양성평등
내다보고
비즈니
영혼이
발목잡
내비쳤다
기쁘다
박찬대
용진아
팔레스타
테헤란
No
강렬
기고
끼는
답없는
도자기
두분
마당
망명
버럭
보더라도
북돼지
예년
웃기지
인조
재외
죽였는데
통쾌
파멸
한여름
합쳐서
헤아
##일거다
##지향
##터의
##교수가
##레가
##테르
##과에
##있나요
##엔진
##캠퍼
##ust
##글라
##머가
##LL
##릿수
대통령인데
때문이야
가능했다
검찰청
사실이지만
국내총생산
있을수
보여야
인정받아
##이었을
노동계
공무원과
개선해
발전하고
스타가
연기력이
필요한지
논란으로
행정2
공격적인
신경외과
불편해
지구에
소개한
독재국가
##이자나
무기한
사무실을
차별을
반복적으로
아쉬울
중공이
국립중앙
취재진
멀티플레이
고마워요
역겨워
트렌드를
여태까지
갑작스러운
##강간당
양극화
지니고
3세
MS
Sh
가죽
감내
개월
견적
골드만
급히
기량을
답도
답입니다
모기
변하고
부지에
않겠지만
장소는
전폭
졌다
중상
지도를
첩보
충실한
취하는
특색
하든가
##인성
##로시
##없는게
##스스로
##회도
##주기를
##질이냐
##무당
##크스
##GA
##루션
##메이드
##맞지
##클래
##는거보니
상황도
피해자에게
여성단체
보수언론
지속해서
활용하고
자연재해
나가리
공매도금지
교통안전
자동차가
순간에
훈련이
무섭네
##회사인
확산될
간첩들
겨울이
항공모
해체하라
불이익
아내의
진술했다
실현을
키우기
안나오는
중독성
돋보인다
##프로그램을
전라남도
병역거부
고용노동부가
한나라의
수강생
고조되고
역겹네
곤두박질
BBC
개학
경대
굥산
군인들이
담보로
더위를
말들이
망친다
법적인
보지마
성령
쓴거
욕심을
울진
장비가
적어서
전역에
주총
지낼
카드가
탐험
테이
향상에
혈관
##관심
##고요
##비즈
##바탕
##아는데
##부리는
##학술
##중이고
##중입니다
##행사에
##론의
##물량
##채는
##확진
있는건가
10번
게임이라고
그러려니
나오겠네
탄핵은
##시키면서
159
##정권에서
1800
사과했다
준비되어
포함된다
##라이브
선택에
설치되어
판매하고
인사하고
제주도가
구성하고
국회의원은
직원들을
재미있는데
난리야
난리인데
가득찬
회복이
너도나도
전과4범에
예비타당성
자기들끼리
##거같음
급여를
##드폰을
스케줄
김재원
탈북민
부총리가
##ill
단백질
무소불위
금수저
대강당에서
갈취
그칠
닥터
도끼
뜻깊은
말할수
맥도
무면허
법대
보선거
사돈
식탁
씌우고
연임
연금을
영역에서
와야
유부
유람
은산
일이지
주52
직진
찰스
체코
탓으로
##거면서
##원하는
##발령
##다를
##치우
##노선
##2가
##집안
##드냐
##더나
##런트
##느껴
##릴수
##ld
##슨의
##윤이
정치인을
들어오고
재미와
19년
##어나는
보여줘
의혹도
전문가로
과정과
희망의
자유한국당의
소통하고
부과하는
합리화
죽여라
실천하는
치열하게
석렬아
하지말자
##이유는
각별히
음주운전을
경기도농업기술원
여지껏
P2P
건은
나같은
낮춘
내셔널
노비
대공
도중에
따질
몸소
미가
바디
보듯
부조
부품을
비리는
비자금
사상을
술은
쌓고
아쿠
악몽
안은
이랑
재계
저수
정글
증세
증강
집결
축산물
특급
##하누
##집값
##탓을
##예수
##티는
##잇다
##물이다
나라경제
이상하고
경제나
경제적인
##가는건
따라야
사용하기
떨어지게
기사나
##학교가
기술력
내려서
내려놓
인정받고
본인과
선수로
성장동
공매도로
21세기에
받는다고
차지할
지루하지
인터넷으로
제시할
##느냐는
예방하기
가해자는
떨어진다고
살펴볼
우파가
당사자인
가끔씩
후속작
발광을
무언가를
이례적인
족속들
절실하다
최상위
##평생교육
배은망덕
가할
갔냐
강사로
강연을
거머
날에
단점을
당무
도전을
떠는
론칭
배에
복지를
부자는
삼촌
안본다
않겠냐
앞으론
외의
입성
책으로
총격
치욕
투신
##하십시오
##해보니
##시니
##답을
##련이
##있니
##미안
##베이션
##na
##백만원
##줍시다
생각이나
##해야하고
서울역
이상도
100원
개선하는
사람들로
생활비
대구에서
남자와
회사와
시행을
직원에게
도로교통
다르지만
한글로
짜증이
경찰대출신
선고받은
유통기한
주도적으로
이나라의
##ark
진술한
세워진
개인적으로는
없어져야할
어거지로
크리에이터
트레일러
Lo
LTE
간직
관제
대담
돌을
될걸
마루
모질이
물밑
미주
박씨는
받자
벼랑
변함이
병을
보네요
본다는
봄이
부리
살만한
시를
신성장
싸운
압니다
오롯이
왔다고
이선
이자가
재도
저조한
정직한
중단을
코오롱
학폭
한들
현금을
형수가
혼잡
흘린
##이탈
##기레기
##금고
##분담
##투자를
##비교
##포머
##르의
##바바
##iv
##총연합회
##달에
##카로
##목소리
##3명
##짝이
##우니까
##입에
##타임이
생각하는지
당신들의
##시간도
기대했던
##영화에
##하나로
11년
##거리에
여성에게
반대한
경쟁에서
행사다
공공부문
지속가능
일이지만
인도에서
하다못해
머리도
노래도
중앙은행
연결이
##서비스가
모지리야
바닥이
몰아내고
재정비
연속으로
신속처리
##필요가
부문의
빼돌린
구급차
포털사이트
과감히
폴더블폰
돼지고기
경각심을
구구절절
5세대
강점기
갖지
개들이
교수를
그친
글러
김세
끄고
따복
뛰쳐
뜻도
명은
못막
배만
보길
보기가
상인들이
셀트리
이십
일이고
절실한
차리세요
첫사랑
치르고
한이
현안을
##명령을
##조약
##경화
##빠들
##따로
##현을
##골목
경찰관이
사업도
19세
129
책임져야지
되는건가
마련하기
친구에게
의미에서
환경과
168
요구되는
한동훈한테
24개
넘어갔
얘기하면
상승세가
아는척
중앙아시아
##수준을
상식과
6월부터
고통받는
500원
채용을
자율화
지자체의
예측이
소름이
출마를
김기덕
팔아먹는
제정신인가
준공영
##국회의원
사령탑
##보조금
한국전력
블라디보
나팔수
TH
경진
근원
꼬붕
꼴리는
늦었다
단톡
달해
대졸
동학
되어도
못본
무형
물가를
박씨
반항
부위원장이
북의
살포
손수
수반
술마시고
쓸쓸
악한
안낳
엄지
업적을
욕나온다
윤과
이전을
잡는다
재탕
재즈
저예산
정석
주려고
주인을
형식의
호랑
##거여
##결의
##건들
##유는
##당하지
##부부가
##절감
##내리
##디는
##잡배
##측정
##봉이
##본색
##엄청
##벌고
한국계
하는말
하는구만
영화였습니다
저런식으로
개발제한
연구용
발표에
현실로
제품이다
나왔을
25전쟁
표현했다
영상에는
윤통을
바라보며
독일에서
감소할
##one
수술이
취소하고
일제의
##그래서
##상태로
하나님께
피의자가
##ice
장르를
손흥민의
게시판에
둘째치고
트렌드
먹고살기
주특기
연방준비제도
문희상
개이
교차로
기한
놓지
누출
뒷배
못했어요
비키니
산을
성장의
센스
승격
십수
싸워라
온열
요트
욕했다고
위자료
의리
의의가
인체
정순
죽이면
지롤
청호나
취학
캠퍼스
코딩
토너
폴리
##거니까
##원가
##소식
##86
##대만
##들일
##지배
##장이나
##면과
##신만
##의학과
##당한다
##수련
##까이
##성이다
##보와
##느라고
##양심
##밖의
##짜고
##블록
지금쯤
없는건
좋아한다면
잘못하고
확인해야
기술에
여성들은
조작으로
사과하라
부모들
부모에게
후보에
안되겠다
1년을
괜찮음
대만과
스토리텔
이래라
상품으로
대중음악
알았어
소재의
연예인들이
혜택은
하늘의
날리면이라고
##새끼가
나머진
##지말라고
실무협
프로젝트에
날씨에
실효성
화웨이가
눈높이에
탁현민
재조명
RE100
홍근아
오은영
남북경협
청호나이스
1순
2번째
8명
good
감명
괴로
교직원
그도
까지는
낮을
내역을
느슨
담을
동력
동점
되겠네요
라돈
마자
밥맛
버리면
법리
산다는
선다
성숙한
순위에
아담
악을
앤드
양양
여교사
정가
죽어가
중시
중이에요
지시에
진전을
차선
찾게
총들고
치르
크리
편하고
풍경을
필립
##인인
##라미
##남에
##용지
##송금
##면세
##아일랜드
##어렵
##중은
##내냐
##생겼
##렸음
##행사로
##tbc
##배우가
##골로
##극장
##TI
20세기
정부조직
인간들을
이해관계가
어려웠
##학교를
보여주세요
##교육은
보내자
외국계
해결책을
않았으나
부동산에
거짓말과
##자로부터
##지않으면
강화된
유치원은
적용될
자체의
두고보자
했는데도
핵심인
노인들은
지루해서
하기야
가능한지
감동입니다
9월에
싫어합니다
누군가를
이명박은
라이온
개편을
##해지자
돈벌고
충성하는
팔아먹은
파티를
하나하나가
잇따른
조항을
조회수
보고서에서
확신한다
획기적인
도우미
심폐소생
강기
급성장
내놨
대진
부응
사단이
소린
심해서
아들도
애시
열차가
영감을
이문
잃어
잡혔다
중시하는
청담
타인에게
통산
트윈
해먹은
했을때
행위로
힘도
##해보는
##법무
##위도
##계산
##나쁘
##어이
##회사는
##사는데
##보훈
##욕설
##감축
##살해
##깊게
아니면서
##지도자
경기관광
기사들이
##하나도
장관으로
##거리냐
재밌었는데
사이트에
부모님은
친구들을
스타일이
노력해서
##하시나
중소형
6070
표현은
##수사권
이전에는
민생경제
나올지
##거래소
시험에
브랜드로
아버지와
소통과
통일전선
저러다
프랑스의
진술이
하반기부터
로스앤
전장연은
상습적으로
간접적으로
기금운용
국정감사에서
바글바글
급상승
똥볼
만연
망칠
모친
발리면
살라고
수지
수염
스티브
시화
아자
아는거
어어
열풍이
옵니다
외주
욕하지
유소년
잊어버
정녕
지형
지쳐
차익
항모
화요일
흘리는
##1회
##공사를
##유죄
##파인
##부활
##졌으니
##교과
##봤으면
##합병
##석열이
##초기
##미경
##패로
##육성
##득이
##둬야
이용자들이
탄핵가자
참여하지
설명한다
사이클
이러지
한번더
조작과
판단은
안되나요
연기하는
사라지게
##개발원
정의당이
투표가
처리하고
뉴스에서
논의하고
보기싫
법무법인
공감하고
반영하는
출연진
5월에
지금까지는
청소년이
제목에
목소리는
기여를
기여하고
대북정책
선제적
이내로
스타일의
악의적
명백히
지목된
조장하는
무능력한
더러워서
구석구석
미지수다
06
6세
가지를
계시는
고군
그놈이
기네
기운이
노인의
늘리면
도시에
따를
런닝
뭔상관
미필
반공
발가락
보잉
부속
석달
신영
안받아
와해
외과
욕먹는
지멋대로
초당
치뤄
클레
폐간
피하는
향토
회개
##시대로
##대접
##법한
##마약
##점유
##받던
##보존
##애비
##플렉스
##끝까지
##몬드
##누나
##좋아요
##꺼이
##룸에서
국민권익
아니까
##적인데
쓰레기통에
오늘이
예정으로
마련한다
친구들이랑
주민자치
받고도
처벌할
개선된
우려의
내년에도
실시된
고용이
구조다
판결은
10월에
그럴듯
##계획에
짜증나게
제2회
공포를
날리면이
양심에
홍콩의
##들한테는
미술관
유리하게
거론되고
가로막
창원시
휴가가서
아토피
고르
고부
기쁜
꿈은
당나라
든게
먹으러
묘한
믿음을
받쳐
발자
방지를
백경
서른
선방
송출
악당
에러
유보
읽기
임기를
재연
주문이
징용
참조
퇴학
핵시설
향하고
헌정
혀를
협정
힘듭니다
##해줬
##품은
##와대
##투버
##니지
##당하게
##터와
##할라고
##죽이
##뿐이지
##눈깔
##쓰는거
##검새
##층으로
##접대
인간에게
일본식
100주년을
자유무역
추진이
##들어라
누구랑
누구처럼
부산시는
정보화
처벌은
##지않음
유치에
##국민들이
불편함
검토한
엄마와
협력사
마을이
제도개선
인물은
야당대표
그랬던
##느냐에
근거는
부르지
엉망으로
김은혜가
마트에서
가상현실
##전략을
노릇을
방사선
##소송을
이르렀다
형편없는
밥먹듯이
1대1
애매한
하반기에
멀다하고
리조트
유유상
쌍팔년도
나스닥
골드만삭
JY
SS
for
걸어가
긴장을
낮다고
당진
디질
만장
맡을
매트
먹음
먹이고
명목
몰표
무협
복종
사장을
상종
시점을
쏘면
언어로
엉덩
이며
장외
처신
침범
카피
코옵
터지
퇴장
패소
허다
화답
##치산
##동아
##졌나
##안되면
##알이
##플란
##좀비
##제도는
##저장
##객들이
##규정
##꾸역
이미지로
알려준
외교도
무능을
나타났다고
반대하면
예상되고
현지의
보는것
17년
괜찮아요
은행들이
조성할
음식과
베트남의
대중문화
매출은
##하였던
느그들이
여러분들이
어울린다
세력들이
괴롭히고
##스테이트
##보이는데
##소방재난
금융감독원
가속화
주축이
동훈아
바빠서
지날수록
오미크
1루
